#version: 0.2
Ġ Ġ
ĠĠ ĠĠ
ĠĠĠĠ ĠĠĠĠ
i n
e r
ĠĠ Ġ
- -
o n
r e
a t
e n
s t
Ġ t
o r
l e
a l
s e
a n
Ġ =
a r
d e
ĉ ĉ
i t
0 0
Ġ (
Ġ c
-- --
i on
h e
m e
c t
* *
Ġ "
Ġ f
ĠĠĠĠĠĠĠĠ ĠĠĠĠĠĠĠĠ
r o
ĠĠĠĠ ĠĠĠ
in g
Ġ p
u t
Ġ i
g e
Ġ s
Ġ a
u n
i c
s s
e d
l o
ĠĠĠĠ Ġ
en t
č Ċ
l a
Ġ b
Ġ {
Ġt he
Ġ o
Ġ n
u r
Ġ -
Ġ in
c o
c e
) ;
e x
Ġ 0
Ġ *
a me
/ /
Ġ 1
p e
---- ----
Ġ re
Ġ m
Ġ w
i d
i s
i l
Ġ d
m p
e l
Ġ S
a d
u e
i g
Ġ T
at e
** **
t r
= =
" ,
o t
) )
c k
< /
st r
Ġ '
c h
i f
u l
= "
o l
Ġ $
e s
Ġ v
an d
Ġ I
e t
in t
Ġ C
Ġ :
a ge
ĠĠĠĠĠĠĠĠ ĠĠĠ
en d
Ġ <
a p
Ġt o
a s
l i
y pe
Ġt h
u m
c on
t h
a b
Ġ A
i le
Ġ }
at ion
p t
2 0
# #
ct ion
Ġo f
e m
o de
Ġ P
Ġ [
se t
u b
u s
t er
i v
ĉĉ ĉĉ
00 00
r a
Ġ R
Ġi f
ex t
e ct
Ġ h
u p
Ġi s
I n
ur n
Ġ N
o p
1 1
Ġ de
in e
v er
Ġ \
Ġ F
) ,
' ,
i r
Ġ +
ge t
al l
o d
o w
-------- --------
h t
1 0
or t
Ġ l
Ġ D
m a
Ġ 2
t urn
**** ****
i z
al ue
Ġf or
e w
Ġ E
r i
at a
ab le
Ġc on
Ġ M
== ==
Ġ L
p ut
I N
Ġ #
Ġ st
- >
ul t
Ġ .
Ġ and
s p
c l
k e
Ġ e
: :
ĠĠĠĠĠĠĠĠ ĠĠĠĠĠĠĠ
ĠĠĠĠĠĠĠĠ Ġ
a m
it h
g s
E R
Ġb e
t o
" :
ĠĠĠĠ ĠĠ
n ame
a se
t e
9 9
Ġ g
1 2
b j
Ġ &
str ing
i st
Ġ 3
er s
f f
a ck
m ent
Ġ |
la ss
O N
1 6
ar t
ĉĉ ĉ
o m
O R
or d
1 4
Ġ @
pt ion
) .
Ġ r
v e
i m
Ġ B
] ,
t a
q u
Ġ- >
o c
ĠĠĠĠĠĠĠĠĠĠĠĠĠĠĠĠ ĠĠĠĠĠĠĠĠĠĠĠĠĠĠĠĠ
E N
a c
un t
Ġ Ċ
l ic
de f
or m
at h
Ġ x
( "
u re
_ _
p ro
iz e
un ction
in d
1 3
u se
o o
t ype
. .
Ġ //
Ġ G
S t
o s
( )
Ġ W
o ut
it em
1 5
Ġ end
Ġp ro
3 3
s c
Ġ /
n t
o ur
Ġ ex
p er
A T
Ġ se
r or
l y
" >
ig n
i me
Ġre turn
Ġ O
## ##
Ġ V
S T
ig ht
Ġ on
f o
A L
2 5
6 4
un d
R e
1 9
1 8
" )
ss age
R E
1 7
o x
N ame
u ct
i b
% %
g in
li st
C on
6 6
Ġ --
3 2
Ġ U
i re
cl u
a y
Ġ y
lo ck
il d
A R
a re
Ġ %
2 4
lo c
d d
p re
s h
bj ect
it y
Ġw h
le t
el se
f a
i p
Ġ an
; ;
Ġ or
ro m
la gs
clu de
it e
Ġ _
tr ing
Ġ me
0 4
Ġ `
f ig
t ext
Ġc o
Ġc lass
Ġth is
str uct
co m
Ġn ot
iv e
Ġt r
Ġw ith
co de
f ile
s er
L E
Ġ: =
p r
= '
ar d
al se
Ġd o
i al
p s
00 0
p ar
Ġ 4
la y
Ġ* /
Ġ )
T ype
==== ====
2 2
t y
re f
Ġc h
b er
******** ********
co l
I T
our ce
ke y
de x
ad d
b u
a ct
Ġ it
0 5
ĠĠĠĠĠĠĠĠĠĠĠĠĠĠĠĠ ĠĠĠ
Ġ H
i x
l ine
on g
F F
u le
ĠĠĠĠĠĠĠĠ ĠĠĠĠĠ
l in
on e
Ġ= =
Ġn ame
lo w
an t
a v
} ,
p p
, ,
7 5
I D
---------------- ----------------
Ġ set
S E
Ġv alue
2 3
Ġ !
p ort
i es
Ġ k
l l
I d
E x
an ge
Ġa s
re turn
D e
it ion
ĠI n
0 8
Ġ ,
Ġ ar
f orm
b e
v al
i mp
2 8
Ġ al
7 4
C h
Ġth at
Ġf unction
Ġ else
ul l
Ġth en
er ror
Ġs h
a g
", "
6 5
Ġi d
ub lic
Ġ 5
0 3
Ġb y
he ck
Ġ un
0 1
co unt
ce ss
m o
ĠĠĠĠĠĠĠĠ ĠĠ
( '
an g
an s
o int
ar y
la b
f t
Ġt ype
Ġf ile
o ol
l f
v ar
Ġ= >
ra y
at ed
d ata
re e
B ox
or y
2 7
D E
A A
um ber
n d
2 9
P ro
Ġ >
o re
Ġ use
e c
u st
il l
d ate
3 4
er e
s y
i o
f lags
2 6
q ue
3 5
Ġin t
Ġn ew
s ion
re s
A N
: //
r y
C T
Ġ 8
Ġre s
en er
ic e
en g
sp an
0 7
ir st
Ġ string
0 9
S tring
S et
r ite
lo g
at ch
m ap
M E
C o
4 4
i de
at or
3 8
le ment
v alue
// //
o u
Ġ ;
o id
m l
pe c
an ce
Ġv ar
7 8
6 8
i el
ĠT he
Ġ$ (
ro w
Ġ j
um ent
9 5
v ent
0000 0000
iel d
Ġf rom
Ġ us
U T
o st
en ce
I C
er t
R O
L L
Ġa re
4 5
at ic
Ġo ut
Ġ </
sc ri
on t
a x
e st
F ile
Ġ get
con d
#### ####
a ce
ĉĉĉĉ ĉ
6 9
ss ion
con fig
r c
Ġde f
a k
Ġ at
re ad
Ġin clude
0 2
a st
an n
he ad
ht t
[ {
Ġ en
g er
7 7
a ve
o und
re ate
ur re
w ord
a ss
Ġtr ue
/ *
eng th
it le
od ule
a mp
id th
3 9
ac he
li b
Ġd ata
ĠĠĠĠĠĠĠĠ ĠĠĠĠ
A C
Ġw e
> <
as h
ect or
" ;
ap p
m s
I ON
is p
)) )
ĠT h
0 6
ro up
4 8
5 5
\ "
or k
t t
ĠĠĠĠĠĠĠĠ ĠĠĠĠĠĠ
Ġa dd
) :
V alue
m b
Ġco mp
p h
i ew
> </
n ew
o g
m in
o me
L ist
E S
ut e
s ize
le ct
p ath
3 0
if i
3 7
urre nt
I G
A G
Ġ& &
S e
3 6
( );
ĠĠĠĠĠĠĠĠĠĠĠĠĠĠĠĠ ĠĠĠĠĠĠĠ
Ġ X
] ;
imp ort
p age
A r
ing s
lo ad
D ata
co mp
ol d
Ġ K
N D
n e
ver sion
un c
( $
A B
ow n
r ror
T o
M P
ĠT O
s ub
9 8
a in
Ġp ar
c c
fa ult
E n
] )
Ġf alse
que st
e y
Ġc ol
s o
s ign
" );
Ġ le
ar get
ta in
f unction
Ġ let
e ssage
ic k
, -
C O
A S
à ´
c ri
E T
loc al
om m
t ent
t ro
Ġcon st
l at
ĠI N
r ap
ĠR e
a ch
el l
Ġ1 6
er r
v ice
": "
8 8
me ssage
2 1
Ġ ]
n o
re am
Ġc an
y le
R es
Ġp r
ĠĠĠĠĠĠĠĠĠĠĠĠĠĠĠĠ Ġ
ame ter
%% %%
ers ion
ter n
A D
Ġ list
e b
re ss
ar k
en se
ption s
ĠR ow
u x
as k
n ode
Ġs y
7 9
O T
ire ct
P E
Ġb u
tr ue
Ġ 6
ode l
Ġ z
I L
======== ========
de d
8 5
w w
Ġ J
ĠRow Box
m m
o f
IN G
C ol
t ime
p x
d o
ut h
b ack
par am
ord er
4 0
f or
th od
st em
X X
th er
def ine
col or
T R
Ġres ult
ul d
Ġ Y
Ġo bject
ã ģ
re g
ĠI f
Ġc ase
m it
ar ch
c ed
I S
j ect
' )
d ir
oo k
at us
a f
ent ry
c ard
" "
p os
me m
k en
2 00
in put
Ġw ill
n ot
E D
C H
ind ow
le an
ff er
lo at
Ġ up
in k
d i
T ext
b y
ation s
U E
L O
t on
ĠS tring
f er
Ġ ?
e mp
b o
E rror
" }
c he
f irst
ĠI F
er y
q r
v el
in clude
a ke
Ġv al
e p
U n
E X
Ġn e
tr ib
Ġ( (
Ġwh en
9 4
p ublic
Ġy ou
o bj
V E
ann el
Ġ: :
Ġ u
il ter
Ġ 7
P ath
ĠTh is
in fo
U R
m d
C C
if y
**************** ****************
In put
c lass
ack age
Ġ key
oc ument
1 00
Ġ" \
Ġc all
T r
b ox
Ġ error
M essage
j s
( (
Ġa ss
Ġi mp
', '
Ġse lf
c cess
M A
ic h
5 4
K ey
se d
d iv
in al
a il
Ġ 20
ut ton
r ame
Ġ all
qu ire
be gin
en s
Ġ" ,
isp lay
Ġ! =
I F
p l
pr int
EN T
6 7
l d
per ty
Ġ// /
htt ps
n c
u d
P ar
se lf
c a
o uld
5 0
In dex
U N
Ġbe gin
O bject
se cond
o v
' ;
Ġ ro
T H
Ġ lo
li ent
Ġs o
) *
lab el
( &
In fo
ĠS et
ht ml
op y
te st
Ġp re
$ (
ch ar
ĠS t
U LL
ic ense
Ġ 9
Ġs ub
lin k
) );
s ource
o k
5 8
in dex
A t
la st
N ode
4 7
iv ate
are nt
Ġl ine
cri pt
co re
G et
od y
Ġv oid
i a
w ild
lo b
th is
t ings
i able
Ġme ssage
IN T
Ġn ull
St ate
Co mp
6 0
( [
st art
Ġ1 0
ĠT H
i se
Ġp ublic
con st
O D
Ġs pec
le d
g ra
4 9
n s
wild card
* ^
it s
en c
' s
amp le
+ +
] .
p y
te ger
T ime
t d
Ġ ~
Ġ| |
Ġa pp
20 20
ra w
ĠE x
all y
ma x
w h
//// ////
en ame
if ic
[{ "
le te
ur l
t s
4 6
3 1
O S
m y
r ight
B u
st ate
Y PE
head er
O P
bu g
la ce
as ic
Ġn o
fa ce
ĠĠ Ċ
fo re
e e
m at
Ġch ar
Ġn il
Ġt itle
u al
u i
p en
Ġt ime
5 9
Ġs ize
c re
g r
t op
us h
Ġ qu
V ector
C L
B y
ã ĥ
8 0
Ġ he
et urn
S h
tro l
Ġ struct
Ġf lags
int er
e ar
r it
$ {
8 9
ut o
t em
[ "
l ength
ä ¸
Ġp age
Ġus er
;; ;;
8 6
Ġt ext
in it
S y
Ġde fault
st atic
Ġo ver
5 7
in ed
ã Ĥ
or g
rap h
ro und
EN D
AT E
Ġp er
oo lean
-- -
.. /
w idth
l ong
t es
on ent
us er
c ache
ot e
U S
S ize
s g
\ \
at ure
Ġh ave
la g
h er
lin ux
" ]
Ġc heck
o ff
and le
Ġh as
w ork
Ġst art
tr y
A P
8 7
v oid
i e
Ġ< -
ĠC on
c all
Ġin st
T E
a w
l u
ar g
m odule
ot o
Ġuse d
Ġ( !
Ġ li
d b
com m
pre ssion
D I
b lock
Ġan y
â Ģ
8 4
Ġ} ,
ic al
O ut
Ġa b
c al
In t
Ġout put
Ġar g
c heck
p oint
n um
Ġ __
5 6
O L
)) ))
Ġc ode
/ >
c p
ĠR E
U L
K E
######## ########
at ive
c ro
Ġin put
pe ct
Ġp os
en u
il ename
l ate
ĠE ND
,, ,,
t able
scri ption
Ġh ref
d a
re d
t he
sign ed
Ġn umber
ĠD e
Ġ str
] }
9 0
s rc
Ġwh ich
Ġp ath
ĉĉĉĉ ĉĉĉĉ
, "
S S
-------------------------------- --------------------------------
o bject
Ġ( $
Ġre ad
B U
a ction
val id
Ġv ersion
omm and
ifi ed
} {
re ak
F I
ĠV AL
T h
ap i
m age
Ġ+ =
Ġs up
mb ol
lob al
. "
I tem
u me
ce ption
# '
7 6
ced ure
7 0
F alse
scri pt
ĠC ON
o ver
w e
b r
ĠL icense
n ing
ĠĠĠĠĠĠĠĠĠĠĠĠĠĠĠĠ ĠĠĠĠĠĠĠĠĠĠĠ
v ma
f rom
e er
ma in
f s
w rite
m i
] (
out put
a ult
A l
v m
N A
n g
FF FF
Ġme thod
con f
ed ge
C ON
Ġc urrent
de v
ib le
A dd
Col or
Q u
Ġst ate
er ver
L e
' t
33 33
in st
4 3
ub le
irect ory
L o
9 6
Ġre g
ut ion
p i
Ġof f
99 99
ĠP ro
' );
S tr
L I
T he
n et
0000 00
Ġon ly
Ġo ther
5 3
Ġs ign
p c
r d
Ġh tt
p end
AA AA
L ine
op er
htt p
Ġb ool
ĠN ULL
Ġl ang
b in
t x
s w
ra g
F orm
} )
OR D
sp ace
tr ans
Ġs qr
c ord
a it
4 2
Ġ. .
: =
E vent
b it
O n
c ur
c ase
g round
( ),
Ġm ay
Ġ< =
i str
le ction
F A
AL L
if t
Ġm y
_ ,
at er
or s
g n
Ġm in
Ġt est
Ġm ax
p date
b ase
Ġp oint
A n
Ġsh ould
d u
Ġb ack
def ault
m t
ĠC h
ĠĠĠĠĠĠĠĠĠĠĠĠĠĠĠĠ ĠĠĠĠĠ
um n
g roup
l en
H e
ĠĠĠĠĠĠĠĠĠĠĠĠĠĠĠĠ ĠĠĠĠ
U B
AB LE
Ġ* )
ĠĠĠĠĠĠĠĠĠĠĠĠĠĠĠĠ ĠĠ
Ġr un
ck et
Ġ( "
b ar
7 3
sp on
Ġn ode
66 66
Ġar ray
u g
Ġin dex
} ;
w are
mp ty
AG E
mo ve
ic s
C E
ĉ ĠĠĠ
Ġin ter
Ġ );
c s
M ap
up date
ĠT r
il s
AT A
le ase
Ġb ut
L oc
res ult
l er
mo v
Ġpr int
ĉĉĉĉ ĉĉ
U ser
á ŀ
f ix
p lace
' ),
d f
P os
Ġ local
OR T
I P
%%%% %%%%
p o
Ġon e
a i
U M
ifi er
C ode
, '
U P
Ġin it
ĠC O
Res ult
Ġre quire
ar gs
Ġl ong
ĠG et
ï ¼
O f
con text
S P
en v
) /
ch o
able d
ur ation
v iew
Ġst atic
7 2
at s
w ith
o b
it er
B asic
ĠU n
__ __
e q
Ġp art
N umber
Ġa d
gra m
ref er
lo se
fer ence
C all
A M
Ġf irst
c la
Ġy our
iz ed
f ield
E L
T O
n er
n ext
Ar ray
Ġ err
b l
N ot
Ġb ase
Ġt arget
lic ation
Ġs u
add r
Ġtr ans
a le
/ **
, --
W ith
ex p
Ġ/ *
lo t
[ '
bu ild
} }
ver t
ent er
6 3
P oint
S I
Con fig
C ell
) ]
// /
Ġs p
"} ],
ww w
V iew
d oc
form at
00000000 00000000
ate s
ĠR es
er ies
r un
k ind
se s
Ġ Z
tern al
OR M
Set tings
Ġex p
en sion
l s
le ft
( *
Ġcon fig
h ash
8 3
5 2
Ġg ener
d r
G roup
D O
pro c
o ption
ĠM O
f e
ar ray
à µ
Ġcon tain
4 1
S ub
s pec
C lass
9 7
le m
Ġs ource
F or
Ġm ust
E lement
le x
ĠVAL UE
an k
Ð ¾
Ġ Q
Ch ar
it ch
P r
t in
6 2
( ))
Ġ čĊ
Ġass ert
Ġd ir
le ar
te mp
ĠP IC
Ġ ##
C K
f d
p art
und er
r ary
ĠR eturn
loc ation
ĠA r
A ction
l p
S H
ith ub
c reate
ma ke
ic es
ce pt
ig h
ro p
F L
p ackage
d ing
S C
] ]
a uth
to m
.. .
lay er
m od
IT E
Ġpar ameter
ri de
ĠD E
I s
V ER
A d
F IG
ã Ģ
st yle
qu al
D D
ĠL ist
g ener
` `
c urrent
con tent
o ve
F ield
f unc
: #
D B
Ð °
. _
o pt
n ect
" />
lab le
IN E
E nd
er o
f low
Co unt
Ġa ct
Ġf ield
ay s
iv en
l ang
d k
ĠC o
bu f
av a
Ġe lement
Ġ$ {
ĠO F
op en
Ġm ov
ĠT YPE
y n
Ð µ
' ]
11 11
M et
end if
9 3
I O
A pp
Ġo ption
me thod
trib ute
f ilename
f l
st atus
Ġm ap
er n
c r
ad i
Ġwh ere
t arget
m ode
Ġ item
ĠS T
B ook
"> <
T ER
Ġ q
a pe
ĠĠĠĠ Ċ
Con text
in ode
Ã Ń
m ary
it or
V ar
ĠI nt
Ð ¸
Ġw rite
Ġa c
ate g
Ġo per
r id
ens or
he d
ĠS Q
g ithub
r x
P L
H T
d s
Ġw ork
t itle
ment s
* (
Ġus ing
ST R
Ġne ed
a ir
D es
Ġvar iable
XX XX
M M
iz ation
q l
ar gin
Ġin to
Ġt ra
le ss
Ġcon tent
Ġ under
i ct
Ġn ext
ot al
Ġd is
Ġco unt
d is
* )
Ġfor mat
Ġ log
e vent
L og
ol low
Ġ( )
ft ware
1 000
f ter
ĠMO VE
================ ================
Ġb lock
P h
UL T
refer ence
Ġm od
Ġpro cedure
is h
m an
Ġre quest
Ġ[ ]
Ġc om
8 2
le vel
St ream
ne ction
f in
Ġl ength
S p
Ġc opy
Ġvalue s
Ġt able
Ġ/ **
=" _
re t
Ġm odule
g o
Out put
I M
n umber
g en
f c
h ost
t ing
f alse
N ew
ust om
b box
s ent
w o
Ġcol or
Ġm ore
s m
Ġbu ild
ol ume
per t
s k
8 1
ut es
ç ļ
, $
ad er
s um
Ġ last
se lect
ĠĠĠĠĠĠĠĠĠĠĠĠĠĠĠĠ ĠĠĠĠĠĠĠĠĠĠĠĠĠĠĠ
js on
çļ Ħ
Ġ ext
ist er
x y
f n
") ]
ĠN C
m ark
b ody
str ong
v ide
Ġw as
Ġm ake
Ġl en
at ing
Ch ange
st ream
g le
ĠF I
Ġm atch
Ġme m
t ree
Ġs w
b a
ry pt
Ġdo es
Ġf inal
-> {
Ġw idth
am s
ser t
ĠI D
ma cro
P art
ot h
orm al
im age
Ġ lib
F ilter
il ity
f rame
co pe
Ġen v
5 1
Ġc al
Ġg iven
ĠF ile
enc y
9 2
p ing
or age
message s
Ġ" "
V AL
Ġch ange
[ ^
Ġpr ivate
de scription
Ġ OR
SE T
ĠN OT
Ġu int
ile d
Ġ/ >
pert ies
ent ity
oo oo
form ation
ĠS eries
CT ION
P eer
B lock
Ġ\ "
sy s
Ġc reate
F ORM
W indow
id er
Ġh ere
m ath
= >
P I
Ġm odel
ll er
ĠĠĠĠĠĠĠĠĠĠĠĠĠĠĠĠ ĠĠĠĠĠĠĠĠĠ
> >
ĠTr ue
i ss
ER R
d isplay
ĠE X
( ).
act er
Ġ" ]
sh ow
to ken
u age
l t
or re
,-- ,--
T I
Ġ", ",
m ut
T able
ition s
Ġc l
E d
Ġ1 2
el y
t ab
a int
se ction
ta ct
Ġp h
ĠĠĠĠĠĠĠĠĠĠĠĠĠĠĠĠ ĠĠĠĠĠĠ
0000 0
V al
af e
ĠW rite
St art
s on
n ull
ff ect
( _
f ont
file s
N O
in ce
B utton
ass word
ĠTH EN
DI R
op s
I f
che d
M L
P age
P H
Ġoff set
d own
9 1
er vice
' .
old er
add ing
ms g
Ġfile s
Ġf ollow
and ler
ĠI S
D ir
C heck
Ġval id
Ġs ome
c at
o in
v ed
NA ME
Ġt er
s up
AN D
Ġ( *
istr ib
i k
ex port
S Y
AC K
ĠN ode
at tr
{ \
Ġimp ort
P RO
ing le
ĠS e
C reate
o ot
M ode
oper ator
Ġe vent
Ġin teger
in es
Ġe ach
al loc
ri x
v is
à ¤
def ined
c f
Ġ< <
bu ffer
Ð ½
ĠU pdate
an el
A Y
Ġr ight
Ġn um
" ),
" ))
N o
Tr ans
Ġ la
[ ]
t l
if f
CC ode
ĠA n
Re quest
F unc
//////// ////////
Ġn on
c ap
O UT
i as
p tr
ĠF or
Ġc ommand
u mp
pro perty
Ġs rc
Ã ©
Ġa g
c y
ĠP R
Ġ ;;
St yle
P C
re n
6 1
F rom
f ul
ĠB oolean
r l
Ġtr y
Ġ1 5
f ree
Ġmessage s
int e
Ġth ere
Ch at
ic on
Ġ1 00
d uct
li p
off set
m odel
comm and
C D
ul ar
S ource
in s
Ñ Ĥ
Ar g
V ersion
f loat
tro ller
l ation
t k
Ex ception
ro ot
EX T
Ġd ocument
w conf
oc rx
c i
ar m
Ġ" .
c lient
b utton
) (
In ter
m atch
ch ange
ta g
b s
R R
ĠIn put
Ġarg ument
end er
act ive
ex pr
Ġ ).
' :
å ı
de bug
], [
AR T
Ġa ccess
at tern
B e
h od
Ġ el
ab el
\ .
Ġcon text
Ġ> =
Ġo ptions
he ight
ist s
Ġf loat
con trol
N S
In st
bo ard
y s
ern el
ser ver
Ġar gs
c d
imp le
Ġ em
Ġup date
by tes
as on
Ġs ame
AS S
ĠReturn s
A X
l tr
7 1
ific ation
) =
" .
spon se
ut ed
Ġm at
Ġm ode
;;;; ;;;;
Ġst yle
Ġhtt ps
FL AG
S cript
P ORT
L ib
Ġo p
an ch
Ġ: -
v en
id get
an sp
P O
ï¼ Į
IL D
in line
t mp
ĠF alse
Ġ ra
Re g
x x
M enu
un ter
st er
Ġs um
! (
tr a
r ange
Ġ ^
Re ad
d ic
an y
d en
C P
t en
p arent
Ġa fter
Ġ{ }
W ORD
un signed
Z E
I mp
-------- ----
ĠA dd
cl ar
Ġsup port
h as
v o
ĠN umber
un k
Ġ. ..
f ilter
i an
R ITE
Bu ffer
ch annel
p ri
d er
M ain
I mage
st d
qu ence
c md
Q U
Ġst d
tain er
b f
to col
Ġpro cess
ĠA l
o ptions
p ush
Ġo bj
Ġr ange
at ab
Ġt emp
R L
; &
Ġ" /
Ġs c
o se
pre sent
Ġex ec
A s
Ġwh ile
type s
ent ifier
Re f
ĉ Ċ
ĠRes ult
P tr
Tr ue
Ġg o
ĉ Ġ
Ġ order
Ġ" <
ĠA ND
E C
Ġ ed
ĠCo mp
ult ip
ai lable
Sy stem
AC E
Ġ" [
le s
Ġo pt
se q
ct or
B ase
Ġ" $
St atus
se arch
ro id
Ġadd ress
ĠN ame
H E
rag ma
Ġ ),
re quest
Ġre f
ĠĠĠĠĠĠĠĠĠĠĠĠĠĠĠĠ ĠĠĠĠĠĠĠĠ
) "
O r
} /
ph a
Ġ" ""
tr ace
(( -
Ġ **
Ġle ft
th on
ag er
Ġb reak
ĠG N
Par ameter
Qu ery
n own
nt ity
.. ..
ar n
U p
ut il
en e
ĠC ol
p ly
20 14
as m
D R
ĠĠĠĠĠĠĠĠĠĠĠĠĠĠĠĠĠĠĠĠĠĠĠĠĠĠĠĠĠĠĠĠ ĠĠĠĠĠĠĠĠĠĠĠĠĠĠĠĠĠĠĠĠĠĠĠĠĠĠĠĠĠĠĠĠ
ant s
P OS
99 9
d ocument
P R
C M
Ġinit ial
{ $
A ll
r u
sy m
Ġ ×
ĉĉĉĉ ĉĉĉ
c b
R ange
le g
par ameter
ĠC opy
nd er
Ã ¡
ig inal
ateg ory
T est
it ies
are d
ID TH
Ġbe fore
Ġpro perty
w in
Ch annel
t ect
Ġp ut
S ON
L ink
P T
s b
ot her
* /
er ge
ch ild
par se
Ġqu ery
" ],
ĠD ata
sy stem
Ġ Ð
h ome
atab ase
ow er
io us
Ġ row
ĠN ew
ĠW e
Form at
ĠG ener
trib utes
w ays
Ex p
and om
ĠD ATA
ĠD O
g it
ex ec
M OD
} .
y p
f ind
read y
M odel
Ġa v
" ).
and ard
FA ULT
De fault
tr act
Ġch ild
R AN
Ġbu ffer
R C
Ġd istrib
Ġal so
w eb
12 8
Ġf ind
mi ssion
s qr
Ġit s
( {
æ ľ
M S
Ġreturn s
ĠB ool
Ġse lect
b ot
ta x
c ent
ĠI X
G L
p ol
iv er
Ġto ken
AT ION
> ,
ĠF orm
F unction
p g
il er
ĠT o
adi us
che s
Ġhe ight
Bu ild
T YPE
~ ~
ĠS h
Ñ Ģ
AT H
T ra
D ate
Ġlo op
Ġsy stem
ĠT ype
z z
de sc
Ġd ate
ed ia
ĠTH E
Ġal low
s u
ä »
M an
;; ;
Ġv m
ith er
st ore
Ġp arent
Ġrequire d
Ġb et
Ġo pen
D o
l n
Ġback ground
T ag
b ind
Ġs erver
li mit
DE F
IT H
W rite
en um
FI LE
ĠF OR
ac count
Ġm sg
******************************** ********************************
ĠS o
F E
Ġf unc
O bj
( \
b t
s ol
{ "
re en
Ġfor m
l it
R eturn
ĠS ee
Ġth an
O ptions
Ġhtt p
Ġd isplay
Ġpro vide
print f
to ol
Ġ label
ĠN one
g lobal
Ġf ont
6 00
u int
Ġadd r
Ġto p
c ar
A ccess
Ġli mit
Ġf n
b reak
ĠP ar
T T
Ġth row
Ġt ag
Met hod
sy mbol
BU ILD
pro ject
Ġa p
Ġp ackage
l ight
Ġh ash
tin ue
st ack
D is
S L
i ent
Ġ> >
u id
r r
G ener
IT Y
qu ery
ĠC reate
ĠA N
W idth
Ġre t
Ġun signed
ĠT ext
ĠY ou
Ġ" ${
e ps
P UT
s ide
MA KE
L ay
Ġf ound
emp ty
ON E
O F
ce s
ick er
] [
Ġspec ified
Ġwith out
ad ata
ĠS y
imp l
P S
} "
G ET
12 5
d ent
ver y
ĠP ER
b c
Ġch annel
s or
ud io
A SE
end s
ca le
Ġinst ance
At tr
25 6
f un
ix ed
w indow
w ard
F O
m on
KE Y
10 4
ct x
Ġl ink
P AR
a h
ĠM essage
d ist
################ ################
Ġi o
Ġline ar
Ġ( );
d im
f x
ir t
Ġc re
cri ption
Ġo ld
g t
l an
ĠIn teger
Un it
Ġf ree
con nect
U RE
Ġdef ined
il y
P re
b b
me di
Ð¾ Ð
Ġ1 4
Ġse e
g oto
p ost
G E
ĠN o
L abel
ãĢ Ĥ
Ġst ream
å ħ
lat form
ĠĠĠĠĠĠĠĠĠĠĠĠĠĠĠĠ ĠĠĠĠĠĠĠĠĠĠ
` ,
( .
Ġb ody
n av
ap t
Ġg roup
ĠC heck
Ġ1 3
ann ot
Ġc omm
Ġv iew
e lement
ĠE rror
$ /
b ool
Ġfollow ing
lic e
ir on
pr ivate
we en
e cho
` .
)) ,
Ġ load
M O
} \
Ġc lient
D irectory
Ġpos ition
de vice
O ption
ĠCopy right
Ġ entry
Ġ url
im er
àµ į
G R
lu gin
re q
ire ction
Ġover ride
are a
FLAG S
Ġ"[ ",
ä º
M em
param s
Ġb order
;& #
F rame
Ġex ample
at om
d t
ot lin
C ommand
Ġ1 1
r ule
Ġp ort
ĠCON FIG
im um
å Ī
s i
Ġ{ :
I V
me ta
cp u
@ @
Ġi mage
ĠCO MP
Ġin formation
S A
R ule
å ®
' >
IG N
Ġa uth
M ax
Ġimp lement
w ise
e ad
x ml
S ER
Se lect
T emp
c an
Ġf un
de l
P ER
%%%%%%%% %%%%%%%%
D ocument
ar ning
s afe
P er
ac y
]} ],
Ġ ent
F loat
c v
un it
St ack
i pe
å Ĳ
Ġc orre
co py
1 99
unt ime
. </
M B
ĠPER FORM
ref ix
rd er
Con trol
ra m
Con tent
co ding
I B
Ġb it
ign ment
D X
ĠPR INT
us r
A ct
../ ../
V M
M odule
N E
Ġbe en
âĢ Ļ
Ġde pend
Le vel
pro cess
Con troller
AAAA AAAA
ac ity
Ġc ache
mb da
p on
Ġw rit
N um
Ġp o
Loc ation
ĠĠĠĠĠĠĠĠĠĠĠĠĠĠĠĠ ĠĠĠĠĠĠĠĠĠĠĠĠĠ
Ġs cript
RE C
ĠI t
re move
Ġi v
ion s
ĠI s
in ary
ĠE n
a uto
Ġw indow
O ff
s lab
En try
Ġp ub
Ġd irectory
Ñ ģ
ĠW H
B ot
ol ution
D C
s ql
H ash
name s
ĠĠĠĠĠĠĠĠĠĠĠĠĠĠĠĠĠĠĠĠĠĠĠĠĠĠĠĠĠĠĠĠ ĠĠĠ
S pec
Ġex it
A RE
Ġa uto
Ġ2 00
inte ger
Ġsh ow
use d
str aint
O B
' ><
5 00
p th
D A
ĠA ss
key s
ES S
n r
w ait
iter al
c ast
E mpty
str act
RO M
Th is
L ength
ver se
id x
P P
Ġ1 8
Ġv ma
Ġp ragma
app end
æ ĸ
3 00
he ll
Ġh andle
d c
c lose
c rypt
O ver
comp onent
lo op
N ULL
' '
t ensor
h andle
math cal
E E
Ġdo uble
____ ____
10 6
a iled
Ġse ction
4 00
Pro perty
Ġin fo
: "
ĠP r
` *^
E ntity
) {
Ex pression
Ġst atus
M sg
Ġpre v
g dk
ĠL e
MA X
ial og
by te
var iable
c lo
re quire
20 17
( :
S w
tx t
ch r
st ro
Ġm o
Ġpro ject
n on
el f
A ME
ic ip
l ing
port s
p u
ĠĠĠĠĠĠĠĠĠĠĠĠĠĠĠĠ ĠĠĠĠĠĠĠĠĠĠĠĠ
Ġex pect
c le
add ress
inst ance
ug h
que ue
a z
S erver
) -
a e
Ġc r
on ly
U I
R ow
() :
10 1
A uth
S ION
inst all
h o
Ġst ore
// @
: \
sy nc
Ġ0 2
O pen
wh en
F C
Ġro ot
s end
ĠSQ L
IG HT
S o
To ken
D ATA
de lete
25 5
Ġd b
Ġde scription
s d
Ġcon d
Ġe q
per i
ma ch
:: ::
C lient
Ġj ust
ç Ķ
er ial
In it
n one
lic it
e ature
pre c
Ġ ],
Ġa cc
i que
Ġc ur
Ġ3 2
< =
v ector
id den
is hed
D isplay
ĠP RO
Ġby tes
Ġf ilter
Ġ# \
Ġex pression
set s
iv ed
Ġ ì
s r
do uble
$ $
w r
Ġac count
la sh
con s
] ",
ater ial
as ure
Ġtype s
n b
ĠA pp
,, ,
A CT
Å Ļ
un lock
yn am
C V
F B
, _
ĠS ub
M edia
P ATH
] );
ĠO n
ve c
ĠS P
Ġsup er
Ġ( :
v g
BU G
Ġe mpty
F lag
comm on
re al
CON FIG
clar ation
Ġf ail
SI ZE
M in
ĠL O
He ight
t ml
la s
R em
de cl
Ġ â
cre en
= \"
m k
Ġlo ok
e f
Ġ+ +
Ġ et
Ġsp ace
Ġ{ "
U pdate
ca use
---------------------------------------------------------------- ----
ĠS E
M od
pre fix
ĠD o
Ġcal led
Ġle vel
],[ -
R ight
st amp
ic ro
j ust
Ġe ither
G raph
Ġm an
Ġ| >
W eb
auth or
D F
ĠV olume
B ool
y ear
ĠK ey
Le ft
Ġsy s
A nd
t ask
ition al
S O
IN D
oc i
ĠY ear
Ġconst ant
e j
Ġpro gram
Ġm m
ĠV alue
Ġpar se
Ġd if
A ST
n ow
Ġp eer
af ter
p k
U LE
li ed
3333 3333
c pp
S Q
Ġinter face
ĠW h
LO CK
Ġ( [
Ġt wo
Ġ{ @
L ast
t ed
p ed
ĠP ublic
map ping
Ġv is
å Ĭ
re sh
Ġen um
Func Name
i ction
Ġ( .
T Y
res ource
Ġ location
Ġ( -
f i
Ġ= ==
res ent
S D
ix el
st at
Ġse cond
g raph
N et
ure s
} %
LI B
k ip
w rap
* \
U t
20 18
p m
Ġ{ .
Ġar ch
m enu
pos ition
Ġre ce
s ink
G B
p op
Ġp ri
ro ugh
oc us
å ¤
Pro ject
f r
Ġre present
pon se
2020 2020
à ¦
la mbda
iron ment
Ġ head
ĠW ITH
pl it
c header
Ġr ule
W e
"> </
99 6
de lay
h s
Ġal loc
A ss
se c
e k
Ġ ----------------
** *
s ing
Ġ es
def n
- \
he lp
W h
11 0
Ġ3 6
a a
p ack
Ġ< >
cla re
Ġ 00
Ġa ction
69 6
Ġ" -
irt ual
Ġ lock
Ġ{ $
S up
ide o
up le
Ġf rame
ang le
er m
Ġli ke
Ġthe m
Ġre ference
sp lit
Ġ header
T ree
10 7
i i
lic k
al k
ample s
S ec
me t
Ġun it
F ont
S ervice
ynam ic
J E
val u
is ion
ĠAN Y
Ġ loc
A b
Ġ_ ,
ge x
low er
C R
T itle
"" "
ĠC ont
Ġo b
c x
RE G
B O
Ġex pr
L INE
Ġn ow
Ġab out
ĠForm at
n il
Ġ3 0
ĠI O
re m
ĉ ĠĠĠĠĠ
ä ½
f p
gn ore
Ġde vice
ERR OR
ÃŃ t
T arget
inter n
lay out
ub e
Ġthe y
Ġo k
port ed
value s
Ġ2 4
in c
cl k
re cord
Ġre cord
m ask
H andle
page s
Ġ ge
b d
Ġapp lication
re lease
I R
Ġ[ "
ĠV al
( @
P ort
Ġv er
Ġst ack
)) )))
ol ve
ce ll
oo gle
R un
Ġb oolean
C om
P RE
struct or
z e
ke ep
Ġfunction s
Ġm ain
c or
Ġv ector
ET H
ĠA s
ta ils
( -
In teger
g ing
Ġpoint er
11 0000
par k
Ġt ask
Ġbe cause
av ed
ĠT ABLE
Ġ-- >
Ġd on
ĠĠĠĠĠĠĠĠ Ċ
Ġres ource
ĠT R
ĠO bject
) $
ult i
ass ert
A uto
E B
h i
s n
O K
Add ress
CO MP
Ġde bug
Ġdef ine
a gs
Ġin ode
ist ory
} ]
ut able
Ġcomp onent
Pos ition
Ġcon s
enc ies
ic y
F S
Ġex ist
XXXX XXXX
ĠGN U
1 20
al y
Ġre move
Comp onent
Ġf ore
a ded
Ġw ant
py thon
W S
et ch
Ġp ÅĻ
ĠE L
Ġ" __
Ġ"\ [
s ave
s l
n n
Ġ= ~
ME M
x B
ĠC ALL
d rop
B ack
Ġbet ween
c ul
> .
Ġd own
H el
O rder
A c
o us
ut om
Ġal ready
he ther
d raw
U ID
tect ed
c lear
act or
ĠTh en
w n
a u
co der
ĠU se
AN T
j oin
lin es
ge st
Ġ$ \
pos it
AN G
Ġmem ory
O p
I X
ar r
C RE
ĉĉ ĠĠĠ
è ¿
ð Ł
G ame
Ġk mem
be fore
al t
r b
FFFF FFFF
Ġ1 9
ultip le
TE ST
an on
Ġav ailable
C ur
5 12
ĠB u
ĠW AR
Ġd irect
Ġcol umn
s ort
Ġsu ch
Inst ance
T op
ĠGener al
app ing
Ġ( '
C omm
j ava
C B
æ ķ
st op
ĠĠĠĠĠĠĠĠĠĠĠĠĠĠĠĠ ĠĠĠĠĠĠĠĠĠĠĠĠĠĠ
ĠP oint
T e
M e
! !
pre ss
ent ial
Ġde v
UR L
At tribute
Ġ0 1
ut or
intern al
00 1
H O
a de
f lag
b lem
ĠSt ate
Ġdistrib uted
N ext
it ed
C F
Ġd im
Ġcon trol
Ch ild
Ġchar acter
ur i
col umn
20 21
Ġn one
inter face
U rl
Ġso ftware
AS K
Ġ" #
Ġt ree
Ġs end
) +
am ily
T A
pre v
re place
N one
z ip
' ).
init ial
g h
is on
] +
[ \
Ġby te
Ġend if
Ġus ers
TI ME
AR CH
Ġm ark
r s
ĠRe ad
g ress
ĠE nd
> -
} _
m argin
[ [
ĠIN TO
v ider
Ġoption al
y nc
w d
ss ue
M at
Ġelement s
B B
tensor flow
m all
n tax
N OT
st age
10 5
U D
or ld
Des cription
ap ter
Ph oto
() );
c enter
av u
th read
bo ve
re v
f ull
trans lation
ĠG O
ĠĠĠĠĠĠĠĠĠĠĠĠ Ċ
Ġ} ;
ex pression
Ġ" %
F D
Ġl v
ance l
ĠpÅĻ ej
LL ER
c g
re p
10 3
al ign
B ar
pro cedure
Ġ1 7
ter m
Ġst avu
ĠpÅĻej ÃŃt
d at
d x
ĠT ime
A g
) \
> \
Ġ" :
å ¸
ta ch
Ġsy mbol
im g
: (
ĠA ll
sp in
Ġp adding
)) .
Ġ2 9
ĠSy stem
im al
ĠS ome
ers on
T ool
th ing
Lo ad
bin ary
Ġg lobal
Ð »
Ġthe se
ĠAr ray
Ġre sponse
d ay
Res ponse
Ġh er
] *
J SON
> "
k nown
C ap
: -
o le
Ġvariable s
q p
Message s
Ġbu f
? ?
h igh
Ġname s
,,,, ,,,,
N ull
Ġ5 0
8 00
B it
Ġit er
| \
ac cess
AR D
AR Y
C I
JE CT
Ġlang uage
M ark
à º
Ġc ell
Ġf ull
Ex pr
M ENT
th en
Ġf in
å Į
H I
Ġb ound
F P
d entry
b ed
E G
Ġass ign
mo unt
Ġre al
tact s
id s
ss ible
Ġreturn ed
iss ing
Ġparameter s
. ,
N UM
Ġspec ific
W RITE
. *
Ġe ven
k ernel
ĠA R
con tainer
um ns
ST AT
Ġf lag
24 5
sc he
18 8
U s
Ġg r
Ġs lab
P ackage
di ct
ĠSo ftware
co unter
if def
File s
Res ource
C ase
7 37
Ġw ord
ĠFI LLER
ĠN T
Ġz ero
S u
ĠO ption
ĠO ut
p ub
iv es
W IDTH
Ġin line
F irst
"} ]}],
f ill
Ġch at
and roid
M Y
ĠEL SE
Ġn et
Ġinst ead
Ġhe lp
Ad min
p ng
it es
in sert
aw n
z ero
ta il
ay be
ad ow
Ed it
C A
d irect
im ation
MOD ULE
i er
def un
ĠEND IF
d p
a use
B ody
iv acy
Ġb utton
Ġ( %
ĠA d
D T
Ġs ort
mem ber
w rit
ut f
ar s
gener ic
g u
å ľ
Re cord
De vice
ĠP TR
} $
Ġ à´
ĠĠĠĠĠĠĠĠĠĠĠĠĠĠĠĠĠĠĠĠĠĠĠĠĠĠĠĠĠĠĠĠ Ġ
â Ĥ
Ġd iv
ve lo
Ġd up
ĠN ot
Man ager
Ġmethod s
P ol
ĠC H
Ġl s
ri es
Ġh ost
isp atch
B L
Ġa bove
ĠĠĠĠĠĠĠĠĠĠĠĠĠĠĠĠĠĠĠĠĠĠĠĠĠĠĠĠĠĠĠĠ ĠĠĠĠĠĠĠ
T ask
Ġt otal
ig in
c ss
ĉĉ Ċ
ĠM ap
ord in
Ġsh ift
e ach
stro y
S c
Ġm argin
pi pe
ension s
iz er
En v
ER E
Ġext ends
t f
æ ĺ
g y
i ant
AL SE
ĠR em
Ġ unt
Ġdif fer
Ġf ilename
ĠA PI
V AR
ĠB y
ib ility
M OR
u ction
]) ([
so le
{ -
M on
u c
ĠWAR RAN
Ġse arch
++ )
d up
ĠL ine
D et
UR N
7 00
de pend
] ],
ĠL o
v as
Ġal ways
exp and
ansp ort
Ġ[ (
Ġ2 5
er ic
E Y
set tings
RE AD
VER SION
p anel
OR K
L IC
br anch
al low
L et
Ġ 64
10 8
com mit
D own
D ATE
ut ter
L en
Pro cess
ma il
Ġ' ,
Ġ} )
C urrent
Ġv ert
CO UN
e ded
Ġor g
gr id
Ex t
ĠI MP
O M
id ent
=" /
ap ache
Ġcontain s
object s
w ire
Ġcon tinue
< <
se e
it al
6666 6666
Ġ[ [
ĠO pen
Ġ0 3
Ġargument s
ex it
b asic
g or
Ġpar ams
L S
sc ale
16 8
Ġs ingle
Ġf l
fe ature
Ġ+ [^
P anel
r tl
ĠDE FAULT
t otal
u ally
pe ed
it ive
C S
Î ½
ĠS tr
d ated
N kind
RE CT
. }
c m
x is
20 16
æ Ī
ĠM ETH
\ [
ass ign
Ġsw itch
F lags
ument s
ĠRe g
k s
Ġs ince
e qual
pl u
OP T
ab s
r ate
ĠE RR
ser vice
b ers
ut ure
Ġb ind
(" \
let ed
Ġ} );
sw itch
T P
Ġ2 55
f oo
d iff
ig ger
Ġdef in
Ġ 77
ser v
ac ro
app ly
option al
Ġb ot
Ġb r
á Ł
Con st
Ġd i
ĠMETH OD
c ategory
' }
) $(
__ ":
ser ve
Ġcre ated
è ¡
g b
10 2
W N
end ing
r m
In line
IL ITY
Ġoper ator
ic le
Ġ{ {
re sponse
en able
Ġt e
Ñ ĥ
ur ing
plu gin
h ing
Ġi m
Ex ec
Ġag ain
= {
u ch
ĠN ote
Ġc lo
bot tom
" },
R T
Ġin ternal
Sy mbol
Ġh and
E F
æ Ĺ
= (
Part icip
à ¸
or iz
de c
Off set
Ġw ould
ĠD es
ast er
ĠF unction
M o
an e
he s
re set
| (
g l
M D
Ġobject s
f b
doc s
prec ated
so ft
dist ance
lat ive
Ar gs
mut ex
back ground
sh ot
Ġlib rary
MOR PH
UN CTION
ĠL I
Ġ" ;
De lete
Ġsu ccess
d ot
) '
v s
å ¼
Ġprovide d
ĠU ser
sh ape
[ $
or iginal
ac c
pe at
me s
C ache
la ck
tain s
sqr t
ĠF ree
or ity
18 9
Ġ] +
ĠS up
Ġ$ $
Ġc lose
16 0
Ġ Î
reg ister
S ave
ĠW indow
ut ils
Ġst op
( !
in ner
ch ain
it u
posit ory
Ġ{ \
Ġp ass
C OR
s ure
ä ¼
Ġresult s
E l
20 23
0000000000000000 0000000000000000
N P
Ġw hether
Ġal ias
\ ",
ĠC ell
i or
ä¸ Ģ
or ies
do main
al s
M T
Ð º
A W
LO C
Ġd r
P arent
Ġp ost
IN IT
n ative
ĠT E
qu ote
me d
ĠW S
K ind
j e
Ġ( ->
G e
T W
n a
b order
0 11
SQ L
w x
temp late
Inter face
A tom
c mp
En um
com ment
Ġcall back
G T
Par am
tt p
14 3
ĠV ersion
Se e
Ġde lete
d l
U se
ic ode
ĠS H
G lobal
item s
Ġb l
12 7
al ias
Ġset tings
Ġ[ '
utom atic
":" ","
20 13
e val
b ound
del ta
Ġe cho
ff ic
Ġra ise
Ġcon f
ĠDe fault
gor ith
f g
ge d
Ġb ox
vo ke
Ġ entity
Ġ\ \
A V
ed it
Ġm on
G o
Ġal ign
å Ń
sh ift
Ġde tails
et a
Ġ4 0
=" ../
Type s
AP I
Ġ2 3
ser ved
00 3
Ġ"] "}],
\" \
S ign
Loc al
Ġper form
point er
12 4
Ġp ush
comp ile
E Q
Ġh ow
ĠAss ert
Ġdiffer ent
st orage
? :
Ġthe ir
N e
ĠS ource
ĠF ROM
De f
Ġp as
ĠL oc
ĠV ar
ir m
ĠI P
ĠE d
ĠW RITE
P ri
U SE
node s
IN FO
pro to
20 15
P lugin
l v
\ @
D S
m erge
è ¯
è ®
Ġcon nection
file Name
ĠK EY
cf g
action s
2 24
ne ss
du ce
pro p
Ġin v
N N
Ġ' $
Ġfore ach
ĠA S
Ġd one
Ġth read
to re
ER N
[ ?
Ġn ormal
20 11
Con nection
C opy
16 4
Ġp op
um b
Ġ( +
ME TH
Ġ Ã
E M
Ġconfig uration
w ay
Ġl icense
sp ark
app lication
Ġ2 1
r f
Par ams
* >
? )
Ġtra ck
re port
se m
d om
str uction
;;;;;;;; ;;;;;;;;
u a
G ER
Ġpro perties
H ost
Ġreg ister
Se arch
By te
re st
16 3
p id
p ass
Ġde st
lic ense
_ {
ter min
Ġ3 3
ĠH E
ĠC L
2 20
ir d
Ġkey s
cro ll
SER T
R ender
t ot
me asure
2 11
ĠN O
F R
19 0
ĠPr int
D WORD
Ġt y
ab ap
} ],
å į
2 13
T EXT
9999 9999
Ġc lear
x t
Ġt mp
Ġsh ort
Ġd ist
] ),
tr ack
Ġb inary
Ġper mission
He ader
Ġun less
% ;
Ġpro c
not e
ĠR ET
A VE
On ly
Lay er
H andler
pect ed
) }
Ġwh at
al led
lem ma
s im
Ġc ustom
Ġ0 5
CO DE
M aterial
r t
Ġs ol
F ull
St icker
ĠIn ter
ay ment
ĠF ound
": {"
METH OD
sc al
B ound
ĠIn c
ar ge
k t
row s
Ġinst all
B ind
Ġr andom
p lay
sk ip
Ġw ire
ĠA t
11 1
sc hed
h av
> (
Ġex ists
Ġe qual
Ġ" ")
r and
AT CH
ĠE N
p f
Ġb oth
Ġth rough
get Element
CO L
Ġse quence
Val id
lo ok
× ķ
* :
Ġp ol
Ġ' '
h andler
ĉĉĉĉ ĉĉĉĉĉ
ne g
Ġact ive
crypt ed
pro duct
d n
Pr int
S U
ĠL og
9 00
Ġass oci
Ġm ut
2 15
ial ize
20 19
Ġ %%
ay load
ĠA T
N orm
a j
gener ated
Ġopt s
D im
la p
er v
h y
ent s
un ch
Ġe very
act ers
Ġe ax
LE CT
ĠF ont
x or
is c
ĠCON T
Ġbe ing
By Id
ĠCont ro
C lick
Ġi gnore
wh ere
ff ff
//////////////// ////////////////
iction ary
il t
Ġ' /
de code
Ġfield s
Ġ2 2
M IN
ĠS p
sh ort
Ġm ove
select ed
I ME
O per
Ġre nder
. \
ch at
)* (
w s
c lean
In v
Build er
R D
ad min
w ner
Ġj son
S UB
Ġ1 000
al pha
wh ile
Ġter ms
un out
Ġ% >
ĠS ET
set Attr
str ict
U ES
qu ot
h over
he l
line Number
Ġro und
time out
I VE
li k
R oot
e a
11 8
bo ot
Sp ace
Ġin dic
Ġl ines
ph p
Sh ow
I con
b en
Ġ" +
pe g
Ġunt il
d ip
sup er
b at
16 2
nc y
EN SE
b ook
ff ix
Col umn
! --
lib rary
Ġ" )
ĠV ector
lu a
P U
N T
OL D
Ð ¼
ĠW IDTH
Input Peer
b le
AB ILITY
ĠI C
st able
Ġmod ify
n ormal
LI ST
S um
65 6
å º
0000 000
Ġ" ",
Ġd rop
De bug
at tribute
pro perties
Ġl ater
g p
é Ģ
s cope
Ġy ear
Ġother wise
I ter
ĠIn it
iv ers
ĠB Y
inline Stack
inlineStack Info
G O
so cket
la use
l ish
edge s
Ã ³
j av
,--,-- ,--,--
sw ap
ss l
=" #
b ra
f mt
å¸ Ĥ
ì Ŀ
çĶ ¨
] ))
ak es
] {
let ion
× Ļ
ĠT e
Point er
p adding
Ġprev ious
å °
Ġp refix
we ight
++ ++
c u
p a
Ġid x
ç »
ro ut
+ =
Ġst ep
Ġw ay
By tes
p ad
65 7
opt s
Ġo ur
35 5
ma c
De fin
Name s
ãģ ®
ck er
ag n
Ġc atch
He ad
D K
Ġ36 996
Ġstruct ure
Ġc ap
Ġcon vert
ac ing
Ġs che
Ġs plit
B l
Ġp lace
sol ute
Î ±
for ce
Ġs cope
var s
US ER
p are
b us
ĠO ptions
ĠĠĠĠĠĠĠĠĠĠĠĠĠĠĠĠĠĠĠĠĠĠĠĠĠĠĠĠĠĠĠĠ ĠĠĠĠĠĠĠĠĠĠĠ
ou gh
Ġpro xy
## #
{ }
Ġc annot
Value s
st ep
Ġde scri
g oogle
g ment
Lib rary
C MAKE
LO G
_ .
bl ank
r w
ad o
Ġid ent
ãĥ ¼
\ /
LE TE
A F
Ġ ë
Ġsh mem
M atch
ĠC lass
ĠO P
Ġspec ial
bo se
Ġgener ated
Ġc tx
ĠN S
ĠĠĠĠĠĠĠĠĠĠĠĠĠĠĠĠĠĠĠĠĠĠĠĠĠĠĠĠĠĠĠĠ ĠĠĠĠĠĠĠĠĠĠĠĠĠĠĠ
field s
ĠG tk
. ")
Ġpos unout
ER O
Ġme t
i y
Ġ` ``
p air
Ñ ı
ro ad
b x
Ġm ask
pro gram
D atabase
ĠU RL
module s
P assword
Ġs ure
ar ies
20 22
sc reen
V er
2 000
r ad
m nt
image s
++ ;
s ig
eng ine
Ġg raph
ä ¹
In dent
ur face
0 12
\ ":
Ġ' .
I AL
Ġex cept
C l
Ġre ason
Ġin sert
R ect
nb sp
ĠĠĠĠĠĠĠĠĠĠĠĠĠĠĠĠĠĠĠĠĠĠĠĠĠĠĠĠĠĠĠĠ ĠĠ
ts d
Ġre place
Ġpo ssible
L ong
V is
Ġre l
ãĢ ģ
[? ]
R I
st ats
Ġw ait
-> "
Ġerror s
d art
Ġf ix
âĢ ľ
W idget
IN SERT
Ġ{ },
Ġin valid
13 0
Se ssion
c dr
icro soft
Con f
T ab
Lay out
o om
14 4
é ĩ
en ded
leg ate
at io
å ·
Ġitem s
lo y
Ġs ave
Ġan on
> =
Ġh igh
Ġse par
C ustom
file Directory
Ġ8 00
y y
s lot
/ )
ma g
Ġ6 0
getElement ById
10 9
c er
o ck
B Y
in i
ĠD ate
Ġmodule s
Var iable
p assword
ĠG L
en code
iss ue
IC E
d one
Ġc md
3 04
20 4
ust er
context FuncName
D raw
b g
ur al
cond ition
Ġ ON
as cript
ĠW eb
ĠVAL UES
. ",
s v
se ssion
ath er
Ġ raw
T D
cl one
M ake
Ġs kip
Ad v
g c
Ġme ans
T F
Ġwith in
W R
ĠCon fig
Ġad ded
15 9
Ġp tr
; </
å İ
15 0
( %
B IT
Ġst andard
L M
f u
W ord
Y ou
ab ility
L Y
Ġco uld
P layer
13 5
bit width
' (
Ġoper ation
Ġcorre spon
Ð ²
---------------------------------------------------------------- ------------
âĢ Ŀ
ĠP age
Imp l
rtl Name
: '
å ĩ
L EN
Trans form
ĠUpdate s
ĠWh en
99 8
`` `
fo und
ON G
Ġ ];
log y
FI X
gorith m
Ġde c
Ġk otlin
r p
ĠS UB
def in
P M
fore ach
R el
D ialog
tr ie
Ġ keep
he et
s if
ul er
g a
Ġbe low
Ġ[ ],
================================ ================================
ĠS elf
-------------------------------- ----------------
oriz ont
Ġbase d
bt n
cl ick
.... ....
Ġ( \
Ġ8 0
à´ ¿
Ġe ps
Gener ic
sc an
Î ¹
Ġs ervice
Ġph one
. ");
O pt
Lo ck
~~ ~~
/ ,
DE BUG
Ġsw ap
N B
Ġre lease
11 7
W ork
ĠWindow s
Ġ' -
le ep
Ġt ri
ION S
mem ory
ĠAr g
el ist
ĠC ode
18 7
Ġen abled
ĠTO K
apt ion
G rid
c make
Ġid entifier
Ġ 78
Mat rix
S V
iv ity
ers ist
mm u
original Name
Ġm ultiple
Ġp ack
W ORK
Ġne eded
EL D
p ool
S cale
co ver
de st
e ax
at al
ĠL ib
op code
t w
Ġs oc
la in
il ing
Ġf d
ĠM aybe
Ġst orage
es h
Ġin c
Ġ2 8
æ Ķ
== =
Ġp assword
Lo op
S k
component s
tool s
AD DR
or ph
Ġre set
D el
00 5
ĠĠĠĠĠĠĠĠĠĠĠĠĠĠĠĠĠĠĠĠĠĠĠĠĠĠĠĠĠĠĠĠ ĠĠĠĠ
> ;
co st
con nection
clu ster
W in
ĠB ase
Ġdoes n
A udio
C an
Ġp resent
sh ould
} },
channel s
ĠFound ation
app ed
b its
Act ive
I ST
16 5
p attern
in f
D r
core Name
; \
er a
en abled
ick ers
k a
m u
de p
Ġm erge
cur ity
- *
ĠP os
% ,
Ġe ffect
RE F
- }
å Ľ
F T
m id
Ġf ill
AR G
Ġapp ly
= %
P ack
orizont al
g x
Ġs im
Ġuse ful
Se ction
E A
s ome
h idden
Ġ' <
Ġi p
ĠH e
ee k
: [
12 3
sm all
e v
b p
ĠCO MM
Pro tocol
ang uage
Ġs cale
Ġre mov
ĠF lag
N on
Not ify
le y
Ġ- .
Ġse q
ex e
Ġ2 7
Ġf ailed
ĠRE F
ĠRET URN
Ġre st
S te
ĠI d
E ffect
lat ency
R ed
ign ore
er c
y thon
, ---
Ġto ol
ĠU SE
Temp late
F older
set f
Ġt ake
Ġrun ning
) &
Ġmat rix
c ustom
ĠV M
ĠU I
J son
Ġg rid
re l
cre ment
De claration
2 64
******** ****
ĠV POS
ĠH POS
Call back
i od
Ġsh ape
ĠTO DO
B A
qu iv
Ġapp end
re es
j o
ĠSt art
rit ical
/ ^
ator s
Ġo wn
L AB
Î µ
2 19
st and
re c
20 3
Ġenv ironment
ĠI mp
IN ST
on s
ip s
the me
00 4
ĠM ake
MA P
IN K
Ġc lean
Ġf eature
re nder
p latform
const ant
Ġre port
g reg
Ġor iginal
ro t
u ff
I I
U UID
à ¥
Ġo cc
look up
r ont
z one
Over ride
CL ASS
MO DE
he x
oth ing
c n
C y
AAAAAAAA AAAAAAAA
20 6
Ġtemp late
Ġ" }
Ġm acro
Ġg u
Ġsupport ed
' ],
Ġ# {
66 7
ĠĠĠĠĠĠĠĠĠĠĠĠĠĠĠĠĠĠĠĠĠĠĠĠĠĠĠĠĠĠĠĠ ĠĠĠĠĠ
Ġreg ion
Ġp l
act ory
S ound
z y
al le
RE S
ex ception
is m
ĠA nd
pro file
16 7
ĠSP ACE
F ound
in ation
co me
second s
child ren
Sticker Set
C UR
G ui
Ġap pro
æķ °
ĠIn st
Ġro le
ĉĉ Ġ
u ck
11 4
ĠO UT
, [
Ġre m
ĠWITH OUT
ĉ ĠĠ
10 24
Ñ ĭ
tr ic
ĠP ath
C lose
N G
Ġc ast
D IS
] ).
t le
Ġun defined
w ind
ire d
u k
Ġde l
An y
ind ent
S imple
O W
Î ¿
mp t
S R
ĠJ SON
te ch
P Y
U ND
Ġre p
ue st
* ,
Ġa void
Ġen code
En crypted
Ġcorre ct
MB OL
) ?
18 5
TI ES
æĺ ¯
Ġimp lied
Ġ` (
Ġpas sed
= $
met adata
11 9
s a
Pro perties
n x
d y
Ġen able
W AR
Ġp air
ra in
Ġsize of
Ġd er
s ic
in v
16 1
ĠP er
20 5
reg i
av ig
T ri
_ ;
Ġg en
Ġgener ate
Ġd raw
. (
á ¼
las ses
At tributes
peri od
W rit
e ver
Ġat tribute
r adius
20 8
CRE ATE
S cope
ĠA uth
n y
REC ORD
2 25
h u
} );
Ġl t
v es
Ġcontain ing
14 0
Ġx ml
St orage
k it
C U
L at
name space
VAL ID
arn ings
14 5
sh are
E qual
i ed
Ġdepend encies
K BUILD
Ġf re
Ġuse s
OR E
ĠT est
ĠĠĠ Ċ
atom ic
Ġco re
UT E
$ .
w ik
Ġ' %
] :
s ince
ĠF loat
Ġ[ :
T erm
n i
li m
L icense
I CT
Ġex ception
Col lection
istr y
in valid
f re
"; "
V ideo
L T
S tore
Ġapp lic
Window s
16 6
clu ding
f ra
23 5
se l
du ction
> )
I LE
Ġ' \
R GB
res sed
ĠCol or
Ï ĥ
G EN
Ġ 75
IN S
00 7
Ġt ab
17 5
r ing
inte gr
Ġnode s
Ġd oc
ir q
ĠĠĠĠĠĠĠĠĠĠĠĠĠĠĠĠĠĠĠĠĠĠĠĠĠĠĠĠĠĠĠĠ ĠĠĠĠĠĠ
aw s
row ser
ct l
:::: ::::
2 10
Ġel sif
ĠGN AT
AT TR
17 4
Ġcomp ile
B oolean
Ġp ts
14 1
F ind
cal ar
> /
) %
t n
f amily
ĠFI LE
Ġset ting
di str
Ġb its
b ig
19 6
Re ference
L D
Ġh old
AR GET
ĠAl so
E P
U Int
ex ists
ly ph
VAL UE
l ished
c nt
f lat
w q
ul ation
lik ely
w er
Ġm ost
s ingle
VE L
11 5
12 2
Ø §
Ġob tain
app le
Ġm ight
Ġp attern
R adius
Re place
Ġselect ed
15 8
IF T
part y
Ġj ava
16 9
Ġ 65
ĠTR UE
B C
ĠT able
SY MBOL
W H
ub y
17 0
h al
Ġ" ["
set up
Ġse ssion
ĠCh annel
L a
d w
ĠIN TE
r on
ro ss
Ġre lative
ĠE l
am age
call back
Ġpage s
f old
AR K
ty p
15 4
S RC
Ġchar acters
? \
fa il
Con tainer
con vert
S creen
Ġ` `
straint s
ordin ates
ĠRem ove
Ph one
ast e
Ġat om
C lo
Ġ" ";
Ã ¤
b or
code c
d st
d irectory
åĮ º
ta gs
Ġk ernel
ert ific
g ba
Ġf e
________ ________
ĠP AGE
an ced
[^ \
part ial
m c
F X
con trib
Ġ"] "
M AC
Ġpro duct
Ġ[ `
ĠTr ans
ase s
ob s
Ġdocument ation
ar row
00 2
H as
ro ll
3 75
Ġsy m
Ġ* ,
18 0
distr ib
S end
b ad
cl us
t p
Ï Ħ
OR Y
l and
Ġg ame
inter val
STR ING
Pr ivate
Ġv irtual
F ree
66 0
Ġnot hing
te gr
es p
Ġpar am
Ġi con
Ġtrans form
k otlin
"" ""
p at
f inal
ĠN othing
T X
{ ",
I E
ĠOut put
F ace
Ġs imple
Ġto o
em ail
ĠM ax
Pro file
F eature
x b
ach ine
Ġter m
01 0000
Ġcontain er
Ġe val
13 9
jav ascript
ad ing
sh a
Pro gram
head ers
CO MM
S M
p layer
ĠĠĠĠĠĠĠĠĠĠĠĠĠĠĠĠĠĠĠĠĠĠĠĠĠĠĠĠĠĠĠĠ ĠĠĠĠĠĠĠĠĠĠĠĠĠĠĠĠĠĠĠ
AC HE
c name
ĉ ĠĠĠĠ
chr on
æ ī
= \
11 6
COUN T
Ġf s
N R
ĠWH ERE
Ġan other
QU AL
time s
measure d
In valid
ol ver
1111 110000
Ġw ere
}{ \
Ġcon nect
Imp ort
ph one
event s
Ġcal cul
ER S
over ride
i et
ma ster
Ġrece ived
Ġm apping
pre t
RE E
ç ľ
Ġassoci ated
lang uage
oooo o
or ization
Ġst ill
Ġse m
f ocus
word s
ĠC all
Ġchange s
if o
File Name
S W
ĠA p
Sw itch
UR CE
P attern
EN O
Ġh o
14 8
N C
15 3
j i
vis ion
V V
Ġp ipe
å ¹
ĠD IS
a ut
DE V
g gle
J S
á ½
gn u
Ġimplement ation
ĠP AR
mi ss
Y Y
ĠR ed
exec ute
EG IN
Ut ils
ap er
ĠN ext
[{" {",
s ite
il tin
Ġv ia
ç Ľ
/ \
L iteral
Ã ¶
Ġ1 999
Ġw s
Ġso cket
Ġd uring
ĠF ALSE
H HI
macro code
ex tern
15 5
ifi ers
> &
Ġp e
Ġ# :
P refix
se lection
w b
Ġro ut
ex ample
â ķ
Ġs creen
? .
c lock
t i
c ut
q q
se mb
×Ļ ×
G G
ĠS TR
A IL
Ġcom ment
12 6
s imple
ĠS park
2 33
12 9
point s
HT ML
ĠP re
f il
se quence
type def
RE T
åľ ¨
Ġc pu
ĠE vent
re a
Ġe valu
Ġres olution
ĠI tem
Ġ. =
Ġne g
Ġcontent s
ĠM et
eb p
ĠINTE GER
14 6
Ġ| =
B r
_ ]
ru pt
$ ,
ĠR ec
3 99
N ative
Ġwe b
e h
J v
M y
Ġc p
con tains
# \
ĠO ff
Ġgener ic
[ :
und le
c ing
Ġe st
ĠTE ST
18 6
con n
OP EN
ffic ient
Con d
F ailed
iz es
à´ ¨
EX PORT
So cket
ĠR ight
] "
D i
å ±
Ġright s
æ Ŀ
api Arg
Ï ģ
us age
Ġ[ {
Ġ3 4
%%%%%%%%%%%%%%%% %%%%%%%%%%%%%%%%
I t
00 6
22 8
Ġk ind
Ġat tr
Ġneed s
ĠCh ar
h ide
CL U
) ",
Pr ivacy
Ġc y
Ġpoint s
al one
ter s
urre ncy
peri ment
ĠO ther
Ġm any
Re p
adi ent
Ġde code
sh ared
core Id
\ >
tr ics
×ķ ×
Id entifier
ĠAn y
h ook
Item s
V ert
re ssion
Ġ" @
Ġm issing
ĠP ART
Ġed it
Ġexpect ed
ed itor
ĠS ty
2 66
p in
pro tocol
sche ma
Ġ3 5
ĠG o
PO SE
15 6
cess ary
45 6
dis abled
il li
14 7
22 9
25 0
al ways
á »
20 9
ra ft
ĠERR OR
block s
ĠWARRAN TIES
20 7
CO M
) </
DE X
B E
b link
M ask
license s
d ark
Ġ lower
ĠM odule
po se
00 8
Ġsh a
Ġre ply
Ġtime out
con tinue
C md
sub script
13 8
A li
B F
r untime
19 8
ä¸ Ń
AND ARD
Ġchild ren
am l
13 6
ĉĉĉ ĠĠĠ
Time s
Ġcond itions
Ġd entry
TER N
Ġst at
| ðŁ
WAR N
ĠA D
Pro c
mon th
b i
Ġ( _
Ġ' '),
0 32
P ACK
SC R
0 10
P ost
k o
Ġ" _
ĠS pec
P K
tot ype
B D
fa ct
lan e
13 7
Ġexec ute
ent ic
< >
Parameter s
] },
Hel p
re no
Ġd atabase
ĠM AX
c ir
in ux
Ġm enu
Ġp s
Change d
C ore
ch an
C Y
an a
16 66666666
Con nect
ä¸ ª
p d
Ġex ternal
Ġk now
g ov
ĠN um
Ġt yp
ur ity
pe ar
19 2
Ġac cept
ĠU S
é ĺ
Ġ low
um my
Ġter min
ĠF irst
Ab stract
]) (.
ĠC an
æ ³
Ġcon structor
Ġ' (
un ity
Ġ' ('
red ential
ar p
Ð ´
Ġ2 6
fo ot
UL AR
Particip ant
,--,--,--,-- ,,
ĠB e
àµ ģ
Ġchange d
A v
t v
DE FAULT
Ġ er
Ġre served
line ar
En abled
ĠBu ild
N ESS
Ġpro tected
sh adow
Do uble
Ġw r
Ġlook up
K ERN
y out
20 1
RO OT
li de
import ant
A p
ure d
S che
l b
P AGE
/ (
STAT US
ff ers
G r
at tributes
â Ķ
ĠM sg
Ġ/ ^
Ġn qp
ĠHE IGHT
Ġpro tocol
li es
Ed itor
OF TW
Sum mary
D L
x a
le v
ĠS ec
Ġj oin
OFTW ARE
L ight
Ġp lugin
ĠA b
5 79
åİ ¿
i ation
context Norm
contextNorm FuncName
Ġs ide
Ġ# (
Ġ3 1
EN CE
å ¾
ed x
Ġun ique
cap t
Ġd s
# {
cre t
ex pected
14 9
t ip
H ot
Ġent ries
Ġs he
HE AD
2 32
lo gin
p and
11 3
Ġlist s
Ġ_ )
ĠH TT
Ġcomp iler
O b
m ult
Ġ29 696
Ġad min
o y
15 7
il ation
H Q
R out
eb ook
A E
ĠO B
An im
fl ush
c ref
Ġadd itional
T C
| |
re act
Ġs k
ol ved
ĠA L
h and
s f
Ġset s
m g
Ġth ose
State ment
L im
} ")
k g
b oolean
Ñ Į
Ġa pi
Ac count
iv ely
M ove
op Type
New Line
Ġcorrespon ding
ĠM odel
Ġs mall
Ġde sc
UR POSE
U X
de stroy
Ġat tributes
ĠEND METHOD
' ))
Ġ ****************************************************************
13 4
un defined
34 5
The me
20 74
SH IFT
Rem ove
u api
lo aded
as ync
Re al
hav ior
P ipe
G C
é Ļ
de pth
24 0
Ġact ual
ĠA DD
St op
W IN
reg ion
% \
ĠC OR
clo ud
M IT
í ķ
Ġ' ',
Ġw rap
pro xy
n ed
o unt
Ġh andler
own ed
( __
g g
æ ł
ĠR un
Ġelse if
g ame
check ed
p lot
Ġ5 5
po sed
ĠP URPOSE
ig it
Ġas ync
set q
Ġcall s
CLU DE
G RO
Text ure
cro ss
IS ION
/ .
20 2
LE VEL
17 9
trans form
OT O
Sh ort
to String
Con tact
ll Call
Ġre c
impl Index
St ats
ĠRE AD
gs l
Str uct
pk g
og c
D U
ail s
road cast
; }
Add r
vis ible
. )
11 2
å Ĩ
ĠR ound
15 2
h w
at ely
medi a
ce ed
ST ART
ĠJ ust
Ġro t
0 33
h a
Comp ile
n l
ĠDE F
Ġx mm
ax is
à´ ¤
char acter
J ava
mark s
Ġdo main
Defin ition
if ies
s mmu
Ġf mt
use s
Mo use
18 4
C enter
Ġ1 28
List ener
rag ment
-------------------------------- ----
ER CH
abap git
Ġre q
3 65
-------------------------------------------------------------------- --
lo or
ĠUn it
Ġme ta
Ġwh o
ĠH ash
AD D
ĠP ri
yout ube
Ġallow ed
Ġstate ment
UT F
w t
R X
ben ch
ĠU N
re ated
Ġ( `
Ġs ent
Ġnet work
' =>
ue ue
Ġar r
Ġf older
us ing
33333333 3333
ĠSty le
Ġun its
ĠL ong
Expression UUID
Ġ' +
} (
Ġs n
Ġcol lection
P l
Th read
ĠZ ERO
Ġ( =
Ġmax imum
f it
Ġremov ed
i os
am era
æĸ ¹
P G
Ġco unter
} :
Ġc c
th row
' re
IT NESS
ĠĠĠĠĠĠĠĠĠĠĠĠĠĠĠĠĠĠĠĠĠĠĠĠĠĠĠĠĠĠĠĠ ĠĠĠĠĠĠĠĠ
,--- ,---
A pi
RE Q
sic var
d isp
C al
ver age
Time out
Ġ Qu
ca pe
PL AY
rem ote
ĠRE M
* .
Ġy et
Ġstring s
Ġspec ify
ĉĉĉĉĉĉĉĉ ĉĉĉĉĉĉĉĉ
Admin Log
un try
< ?
ĠQ t
re gex
V ENT
17 7
Ġnot ice
ad r
2 75
Sc ene
ĠPro cess
ĠO k
Ġdirect ly
P A
ex clude
ĉ čĊ
bl ue
s vg
de clare
ĠS ize
ĠT ag
mb ers
A xis
Ġcur sor
b h
EN ABLE
ome try
ãĤ Ĵ
Ġco st
Ġn gx
fe ed
38 4
gra de
H istory
Ġme di
d m
Ġc op
Ġs ched
ĠR DD
Ġpermission s
d le
âĢĿ </
Ã £
ful ly
al ys
ĠN E
sign ature
20202020 20202020
ERCH ANT
Tr ansport
cur s
< %
Ġtra ce
Ġcomm on
Ġsqr t
7 07
ĠB lock
sum mary
ĠSe lect
ĠPART IC
Ġh tml
ERCHANT ABILITY
XXXXXXXX XXXXXXXX
B R
Ġd st
r andom
ĠP h
Se q
script s
cur sor
Ġâ Ĩ
ab ly
ï¼ ļ
FFFF FF
ĠT ra
con cat
i j
T S
Ġ9 0
l g
Ġd en
ĠI mage
S elf
ct ree
est ed
Ġ' )'
ĠO r
dis able
f h
ĠS end
our s
17 8
Re ason
ĠR ect
fix ed
ĠPARTIC ULAR
o ice
ex tra
)) );
ĠM em
ĠIn dex
W w
ure Value
Al pha
il la
ver s
ĠĠĠĠĠĠĠĠĠĠĠĠĠĠĠĠĠĠĠĠĠĠĠĠĠĠĠĠĠĠĠĠ ĠĠĠĠĠĠĠĠĠ
S G
COR R
ener gy
Ġb ig
at ible
Ġp g
ex ist
RO UT
T ARGET
Ġ à¤
w atch
App lication
ation al
N ormal
Ġin her
13 2
> âĢľ
Ġevent s
3 05
L ONG
Ġtest s
mat rix
17 6
pr ice
Ġo s
* &
itu de
Ġg it
Ġ 99
CH E
T er
iz ing
ĠDes cription
tr l
ution s
> "]
d irection
H P
top o
Inv ite
ĠT emp
Us ers
Ġa wait
ul ate
Ġsum mary
. '
V ID
Al ignment
à ¶
ap shot
Pro vider
p n
| \.
ĠC urrent
ĠF ITNESS
ĠH as
f etch
Ġet c
ĠDe bug
alys is
C ritical
m map
Ġde s
ë ĭ
sy ntax
Ġqu al
u ce
Ġal pha
Ġsign al
ra cket
Char s
in voke
De lay
3 08
ĠR L
Ġg l
D oc
Ġw ell
000 1
n v
error s
: /
x s
å ½
L C
ĉĉĉĉĉĉĉĉ ĉĉ
4 74
{ '
ĠLe ft
ĠO TH
CV S
De clare
& &
Ġ layout
Ġp c
wh ite
3 03
Ge o
al th
Ġwrit ing
Ġup dated
w idget
æľ ī
a ux
up load
O FF
ĠTo ken
{ {
de precated
Arg ument
AdminLog Event
pt e
TR UE
ra ction
IN PUT
if ference
19 5
ĠPar ameter
Char acter
velo p
Ġan ch
ĠH tml
con tacts
Ġ$ _
,,,, ,,,
ĉ ĠĠĠĠĠĠ
Ġ' ,'
Ġed x
Ġdefin ition
Ġcase s
gra mm
ĠHTT P
( ?
P lay
Ġd ynamic
op rand
'=> '
D irection
Ġme an
Ġup per
net work
periment al
Des c
Ġem ail
erc ise
__ _
ĠF UNCTION
Ġcond ition
Ġon ce
j ob
Ġp id
Ġus age
Ġexist ing
int o
Ġi ssue
ex ternal
it ter
-------- --
Ġr gba
000 3
col lection
% "
iv c
23 4
Ġmem ber
t fc
v c
Ġex tra
gin x
s ses
Ġin d
ic ally
Par ser
à´ ¾
âķ Ĳ
è ĩ
dic ate
A K
et s
\" ]
Sh ape
E rr
g ap
quiv al
ĠM ERCHANTABILITY
dir s
ertific ate
Se cond
\"\ <
resh old
ext ension
St mt
Ste p
Ġle ast
mit ive
cs v
Ġw idget
x e
Id ent
ç ½
Ġen coding
7 03
Ġt urn
200 5
ĠSh ow
ug gest
CH AR
Ġcopy right
Ġc enter
ĠâĨ Ĵ
Re port
ãĤ ĭ
ĠS Y
Ġn v
= ",
ä¸ į
FI ELD
ĠIn clude
S ched
h older
Ġal ong
Reg ion
D IT
ch apter
>"] ::
Ġv ec
aly t
ĠF ind
Ġx s
oper ations
i ally
panel Name
g z
Key s
CL K
ĠI ssue
à´ ķ
Main Menu
agn ost
Ġ7 0
er ature
20 12
ĠRe quest
F OR
m peg
Result s
p le
19 4
END IF
ak ing
arg uments
ass oc
v a
v ue
25 9
re ce
Ġ/ ><
Ġab solute
Ġmet adata
ce l
ĠS OFTWARE
li ke
ãģ Ļ
Ġin side
Box Data
æ ²
Ġ4 5
iv ing
@@ _
R IGHT
x c
* '
Ġh app
ĠP O
0 24
å ¯
Ġvalid ate
s ay
so ck
M esh
z en
Ġd iff
N V
is L
ĠC CVS
ĠP art
PC I
F actory
29 4
il ities
Ġfor ce
G dip
lo ts
su ccess
Ġ! ==
ãĥ ³
X ML
Ġex port
u uid
at t
Ġand roid
A cc
parameter s
EN V
ces sed
r ic
Ġcon struct
IP T
Filter s
F IL
Ġp erson
ansp arent
u it
w arning
22 7
Ġy es
Mem ory
Å ¿
ac cept
A IN
L P
s lice
j a
str ip
[ \"
ul ated
Ġa utomatic
19 7
75 6
ann er
%% %
Ġab stract
ãģ «
Ġ 74
ĠSE CTION
cache p
Ġthrow s
al i
Config uration
SO URCE
Ġ ord
Ġstore d
v t
un less
Re quire
Ġset up
2 65
D uration
R ot
[ ],
Ġb ar
15 08
result s
un likely
ĠD is
sub section
=" "
ĠC omm
frame work
ĠJ ava
LO W
de ps
un g
Input User
re at
26 8
Ġrule s
p ower
44 4
Ġsub ject
Ġhead ers
d ispatch
ST ATE
\" ",
B IN
Ġpub lished
C X
ĠC lo
AP P
32 9
De pend
Ġimp licit
erv ices
defin ition
P a
Ġ8 8
p df
Ġsign ature
am b
ĠH T
Ġv ideo
Ġass ume
Ã£ o
Ã §
Ġare a
I SE
ich Text
26 9
av ing
comp lete
list s
comp iler
Ġab ap
C FLAGS
Ġc int
Ġp latform
20 10
de ep
ĠCh at
G TH
sy ms
nav bar
m x
Ġp ur
text tt
medi ate
UT ED
ĠIN T
é Ĺ
ĠM y
la ced
Ġs lice
sy n
Ġcol l
CON T
çľ ģ
à ·
ĠIMP ORT
Ġdis able
32 3
ĠW R
Ġname space
P F
fa ctor
gener ate
utor ial
SE LECT
G F
Ġdef p
Ġpre c
ent ley
Ġsy n
De pth
Ġt ell
oc r
X Y
lic ate
Ġoper ations
A rea
pe ll
ĠM od
LO AD
Mem ber
ĠW ork
W A
Ġ queue
il ar
5 29
Ġp lay
ma y
ĠCH AR
KERN EL
ĠD B
Ġ/ =
ly ing
\ _
Ġopt im
R ENT
m al
23 8
ool s
re po
Ġ4 8
Indent ing
tr ies
99 7
Ġdim ension
N ONE
ĠTH IS
Ġd a
Ġ"] "}]}],
åı ¯
Ġar ound
Ed ge
A UT
12 1
ĠEx ception
I Z
)) ]
Ġcomp lex
Be gin
ç ®
0 28
Indenting NewLine
00 9
Ġm ixed
Ġsh ared
ĠPro ject
oooo oooo
N ote
? (
age ment
oo se
/ "
r ation
Ex it
ĠRE C
Ġcurrent ly
Ġ' ;
Pro p
ĥ ½
re name
ĠC ur
Ġblock s
23 7
Ġin cluding
Ġ 68
Ġd uration
ĠAp ache
R aw
CT RL
w alk
Ġd ay
ĠE ntity
down load
qu are
St ickers
Ġex pos
Re st
0 13
Ġ 94
Q ueue
ma z
" `
64 6
Object s
Ġreference s
Let ter
B ER
Ġd ie
Ġwrit ten
Set up
C ard
RE D
j j
is On
ĠC om
em ent
17 3
h d
INST ALL
25 8
AT ED
PRO C
work er
In ternal
Ġinclude d
AG ES
Change Times
Ġagain st
fl utter
De c
ĠCell ChangeTimes
ap on
11 1000
") );
Ġcons ider
h ub
re ason
Ġm k
il ent
Ġ" &
P TR
av ailable
× Ķ
ĠIn line
to ggle
AT OR
ph i
aw k
Ġc decl
CD Node
Critical Path
isL CDNode
isOn CriticalPath
M ASK
Ġ\ @
l x
integr ity
r aries
Ġt ail
11 74
AdminLogEvent Action
ĠA ST
INT ER
Sy nc
]} ]
O ne
ul lable
ĠIN IT
i um
ä ¿
Un known
Ã ½
11 00
ff e
im ate
L anguage
am ma
AR R
test s
P ut
Ġch ats
n k
Ġcol umns
################################ ################################
Ã ¼
re verse
F UNCTION
M C
` )
99 5
LE T
Al low
m ar
Ġ 98
95 8
00 19
ĠM OD
0 27
" ];
redential s
Z X
à´ ¯
OP Y
W ait
ig its
ĠM on
ĠEx pression
Bit map
Ġ1 27
ĠTh ere
D ist
pe t
Ġle ss
oper ation
Met a
L ines
O ther
\\ \"
Ġnum bers
Å ¾
Ġent ities
v d
Ġs ite
pe ated
AA B
C lip
OUT PUT
alle l
k l
Ġp p
ĠA B
ĠL V
n u
RE SS
Ġs hell
pl us
Ġexp and
S rc
Ġcall er
G P
un ded
up per
UM MY
Init ial
Ġc ause
Ġ" );
T ABLE
ant ity
ROUT INE
W arning
Ġj ob
S B
v id
en ar
er ate
co s
F s
13 3
Ġg oto
H ttp
24 8
Pro duct
ĠWARRAN TY
LIC ENSE
Input Channel
F ore
wh ich
k u
Ġc ar
Ġ3 355
è¡ Į
lab or
Ñ ĩ
38 6
ĠC F
5 09
Ġ0 8
St atic
... )
sr ctree
issue s
id entifier
ĠS w
ĉĉ ĠĠ
Ġf i
user name
change d
and id
wik i
m as
25 4
/ $
æ Ń
lement ation
Ġne cessary
, %
ĠDe f
æ ŀ
G en
R o
y es
e ff
h r
Pol icy
* "
m and
- %
ĠS erver
^ ^
Ġl iteral
( ",
ĠPoint Box
Ä ±
ĠM an
ant ic
T AG
Ġ( $(
ĠT op
' d
T imer
ĠWH EN
O C
32 7
b entley
se curity
ĉĉĉ Ċ
Ġ8 5
ĠC OPY
tin u
OB JECT
Ġcomp ute
Ġe as
Ġexpos ing
Ð ·
k mem
ĠĠĠĠĠĠĠĠĠĠĠĠĠĠĠĠĠĠĠĠĠĠĠĠĠĠĠĠĠĠĠĠ ĠĠĠĠĠĠĠĠĠĠ
Inst all
. /
ur s
Ðµ Ð½
rypt ed
0 14
Ï Ģ
ot ion
E q
t ick
j pg
Ù Ħ
Re lease
p b
3 09
ro s
is k
ĠT IME
if orm
S hell
Ġi mm
P W
ist ics
22 6
Ġp layer
Ġn r
F ail
V olume
Ġsol id
= -
ĠĠĠĠĠĠ Ċ
mit ted
ĠF ield
24 4
Ġ! !
Point s
C ategory
mo re
ĠEx p
Ġf actor
39 8
d q
r sp
23 6
Tra ce
h ref
ĠN ONE
TR Y
LO B
ä¼ ļ
2 74
] |\
32 8
Ġr adius
Ġ% }
Ġt ags
spec ial
64 7
0 15
Ġsh all
29 6
Ġ-- -
)))) ))
leg al
ä» ¥
5 00000
Ġa mount
Ġsecond s
L v
b al
S K
valid ate
+ )
,' [\"
\"] ','
Ġ 79
re ct
o h
Ġph oto
j ure
R UN
ol l
IN ES
AS H
Group Data
Ġ âĢ
orre ct
3 68
Ġb oot
Se lection
Ġ.. /
Ġapplic able
r ank
Ġcol lect
P ixel
ĠU p
Ġy y
- $(
S croll
_ )
du mp
rout ine
EX EC
Ġde lay
ĠM at
ĠĠĠĠĠĠĠĠĠĠĠĠĠĠĠĠĠĠĠĠĠĠĠĠĠĠĠĠĠĠĠĠ ĠĠĠĠĠĠĠĠĠĠĠĠĠ
v i
è ¦
=" ../../
ĠF rom
Ġp ure
us ic
t imer
c atch
Ġre duce
25 7
! [
Q t
z h
é »
s heet
ot os
ĠD I
I ZE
ĠCONT ENT
! "
N U
Ġexp licit
ç §
Ġ ĉĉĉĉĉĉ
or th
Ġcomp ut
Ġvis it
var iant
2 18
g cc
Ġs erial
ĠL ast
m r
å §
ĠE rr
Ġen sure
ĠU Int
m en
DE CL
F ALSE
w a
Ġag re
web kit
åĩ º
W rap
d ll
m ul
Ġne ver
C lear
Ġd id
Ġrequire s
us ers
ĠH ttp
ĠCOMM ENT
4 04
3 16
ag ent
Ġqu ot
lock ed
2 104
Ġn s
== }
D H
Ġg ra
ĠĠĠĠĠĠĠĠĠĠĠĠĠĠĠĠĠĠĠĠĠĠĠĠĠĠĠĠĠĠĠĠ ĠĠĠĠĠĠĠĠĠĠĠĠ
arg ument
/ ;
ht m
ST ANDARD
Ġbr anch
Ġse lection
ff c
ãģ Ĺ
g rc
h h
PR INT
re peat
ĠA UT
ĠN e
Ġdefault s
Ġtime s
Ġn ative
Ġ4 2
state ment
Se quence
str ap
ĠW ith
ord s
Ġstart ing
ĠContro l
w arn
ĠĠĠĠĠĠĠĠĠĠĠĠĠĠĠĠĠĠĠĠĠĠĠĠĠĠĠĠĠĠĠĠ ĠĠĠĠĠĠĠĠĠĠĠĠĠĠ
DE P
Ġvis ible
C ACHE
con v
window s
n el
ĠD et
Al ign
un e
Ġr b
O wner
id ual
Ġh ome
ĠL ay
ĠU t
fa st
111000 110000
B ASE
B in
Ġg over
è §
sup port
' "
0 17
L B
St d
95 4
C N
wo od
t or
Ġ' ';
C G
ĠB E
Ġinitial ize
B inary
é ļ
RE M
fa iled
or igin
Ġc b
Ġ5 6
content s
as p
Ġ! ,
Ġrow s
æ ¬
Ġdis abled
Ġ 69
Ġv b
ab c
col lect
( _,
pro totype
s ample
Ġs aved
64 4
Ġb us
ers cript
act ual
Event s
5 68
] ::
Ġst age
re ater
Ġ3 8
Gener al
y g
par ator
ĠM in
Ġover flow
trans late
Ġdr iver
ab i
par ser
Cell GroupData
x p
a o
Ġtrans late
M issing
et h
$ \
"} ]}
ĠC al
Select ed
Group Number
ĠG raph
( |
de sign
Ġprint f
package s
ec x
res olve
Ġbot tom
3 07
vide o
for med
as is
ĠC ase
âķĲ âķĲ
y m
20 64
19 1
Î »
v ol
y r
Ġ- =
Ġre peat
->{ {
ĠThe se
A MP
w l
We ight
A H
æ Ģ
ĉĉĉ Ġ
Ġnot e
high light
Ġ? ?
2 99
MS G
77 7
CM ake
b lob
Ġde p
Met adata
C SS
Ġpro p
comp lex
M I
pre s
A fter
] \
111000110000 1000
An imation
B o
an o
Ġ# '
Ġs ig
s ch
Ġvar char
FFFFFFFF FFFFFFFF
< #
r v
se ct
ĠD UMMY
s q
ĠH ow
Ġcomp lete
cla sses
Ġc are
ãĤ ¹
. ;
H H
æ İ
Ġa st
R untime
Ġp in
= &
ser ial
29 5
Ġper iod
Ñģ ÑĤ
-------- ---
ĠD ocument
key word
H igh
Start Of
n at
_ (
c lip
z er
on d
en coding
S IGN
Ġ 66
ĠA ct
65 8
Ġc ard
FA IL
Bind ing
Ġ' "
Ġco ordinates
Ġcr ate
32 6
ĠK IND
at ar
De v
S PE
11 10
scri be
k h
Ġ ----------------------------------------------------------------
Ġc or
ĠOTH ER
78 9
24 7
ĠB ack
ç ¨
Ġupdate s
Ġscript s
Ġf ast
if act
at tach
ĠA SS
28 9
ĠS O
ĠB EGIN
pl an
g reen
ĠOff set
Ġ5 4
34 4
__ ,
03 4
) [
24 6
P IN
clar ations
0 16
Ġ utf
="/ "
D P
u la
', [
st or
tr im
ind er
Ġf ixed
Ġcomm it
# [
k top
str iction
{- |
æ³ ķ
ĠIMPORT ING
S mall
In formation
' },
, +
ĠC C
01 00
. {
ĠD llCall
Ġj s
28 8
Return s
label s
Ġp ower
em y
pand as
Oper ation
5 38
ĠM ath
Par se
Ġt s
Ġc s
sc roll
ne ed
Re c
Ġsy nc
Ġd irection
ĠV iew
v b
y w
Ġc name
Bot Inline
ĠM al
23 0
Ġdistrib ution
ĠA cc
Ġcomponent s
Ġallow s
ĠB O
Ġpro b
ĠG ET
->{ '
ĠE lement
time stamp
pol icy
Net work
Ġ$ ::
sign al
Ġcl uster
Â ł
un map
CP U
1 00000
R U
ON T
install dir
; "
ĠRect angle
Ġsc an
CHE CK
74 4
ag raph
sup ported
Iter ator
Ġ"+ ",
âĶ Ģ
is StartOf
ĠR O
Ġ4 4
cluster GroupNumber
topo Index
isStartOf Path
23 9
data set
Ġs ur
co gn
S ome
b eta
Ġb ad
Ġab s
Down load
F e
} [
é ģ
Ġbase installdir
O k
ĠJ son
G A
re ply
ap s
ĠĠĠĠĠĠĠĠĠĠĠĠĠĠĠĠĠĠĠĠĠĠĠĠĠĠĠĠĠĠĠĠ ĠĠĠĠĠĠĠĠĠĠĠĠĠĠĠĠ
L INK
AA Ww
95 7
ann ed
tab s
ch unk
Ġex press
Ġc ategory
ĠU P
ward s
ĠEl se
d h
Ġw arning
type of
44 3
i ssion
H X
up b
rule s
d ynamic
tr ain
Ġcommand s
Ġ( <
Ġ@ (
k zz
f ifo
Ġ ul
ĠM ASK
Node s
Ġautomatic ally
d ns
Ġv olume
Ex ists
Ġre main
ĠST ART
Ġ" \"\<
co ur
St andard
g tk
ĠCOR RECT
v olume
Ġ" ~
sub st
Ġcheck s
35 2
import c
Ġpart ial
Ġ ri
Ġ# [
mo st
Ġ8 7
ent y
Ġd w
64 8
0 68
75 9
oo st
Ġw arr
Ġext ension
R W
04 8
Ġit self
34 3
El se
Ġanch ors
) ])
F in
u f
Tra ck
05 5
Ġho pe
M argin
ĠM ain
function s
S plit
ateg y
an ded
ĠV er
m ulti
Ð ¿
ĠÐ ¿
x mm
at ory
13 1
S n
74 5
28 5
qu ation
m icro
im ize
33 3
Ġs m
RO P
Ġcomp are
Ġmat ches
ĠCol umn
an ty
Ġ( @
ro le
ĠP ICT
and s
el m
Ġb asic
08 0
ĠPICT URE
Ġc mp
Ġs ql
Ġre distrib
To String
h ot
ĠN UM
5 40
ak er
m n
Ġwe ight
N ET
p ixel
---------------------------------------------------------------- ------------------------------------
Date Time
Ġ3 7
66 6
G u
ing er
et c
ä¸ º
PO ST
Ass ert
T otal
v p
Ġ{ [
PORT ING
× ¨
or ter
se p
rc u
ĠOB JECT
fre elist
M ar
ĠLoc al
quival ent
il led
Ġd isp
P ool
Ġd at
ĠIN STR
s z
sh arp
ag ing
ĠK ing
âĤ ĸ
Ġr ate
lib s
ĠCo unt
Ġgo od
Ġa x
Ġuser name
Particip ants
S ent
val s
Ġm id
: </
è Ģ
com ma
Ġun safe
TE MP
sh m
0 20
2 12
A U
Ġp ixel
Ġh ard
IN UE
66 8
32 4
Ġ** *
con struct
Ġ0 4
Ġin struction
li ct
Ġsy ntax
ĠTOK EN
Ġrequest ed
75 5
ersist ent
pe er
al f
def s
Ġcall ing
Ġpackage s
miss ing
Ġe lem
> ",
Ġ5 7
b atch
Sh ift
P ass
18 3
ĠBy te
ĠCh ange
Ġem it
Î ¼
end ar
Ġun owned
Ġver ify
entic ation
2 17
C lause
P e
s hell
ĠD WORD
D ictionary
ad a
ĠA LL
â Ĩ
ĠT ask
string s
r map
En able
200 7
Ġmod ified
P resent
S ide
Ġn d
ĠEx it
RO W
Ġt x
li ance
erscript Box
re lation
Ġre peated
IC K
R M
t c
B reak
apt ure
ific ations
Ġhe x
Ġwork s
Ġs ay
R ST
ĠE nc
å® ļ
Ġ" --
D V
Ġm ade
24 9
Ġmon th
h istory
Ġfail ure
wrap per
AAWw AAWw
C ancel
s in
Ġpath s
Ġdata set
Ġ edge
par a
ĠC OL
Ġ1 05
ĠE num
Field s
Ġneg ative
co very
(" %
sh mem
Ġc ity
ç ©
i ke
Ġ{ %
ĠA da
ĠDo uble
ĠW idth
at is
y a
set ting
Ġr untime
Ġ% {
Ġ2 1508
require d
2 14
Ġv ery
or ary
Ġg fp
ĠG roup
68 4
as ing
ĠL L
Auth orization
Ġ8 4
dev ices
ĠA uto
IN CLUDE
scal a
J oin
65 4
Ġsome thing
Ġs l
S ort
st ar
CL UD
æĹ ¶
ĠDe lete
P ayment
Ġor igin
L U
T uple
ĠL INE
cl s
en ced
áŁ Ĵ
x f
ĠE QUAL
Ð¾Ð ²
Ġrem ote
path s
CLUD ING
m v
Ġs cal
ĠD im
19 3
æĸ ĩ
ANG U
64 5
M ulti
n ginx
DE LETE
M ARK
Ġ layer
am ount
un wrap
path name
Comp lete
7 08
age d
Ġex act
] =
ic ular
St at
Ġd f
22 2
ĠPRO C
Ġm uch
Cur sor
Ġtrack ing
k w
ar ison
Ġ3 9
33 6
COUN TER
Ġ[ ];
Ġpro blem
Ġ8 3
Ġname d
è ¾
Re ply
LO OP
ÑĢ Ð°
in ct
Ġf act
Del ta
Ġc fg
Ġwarr anty
B X
V C
Ġco ver
source s
ĠCOMP UTED
Ut il
1666666666 66
ĠI ter
man ager
Unit ed
G H
è¡ ¨
( #
^ {
pro t
IV ATE
å Ģ
Save able
D rop
g ui
m er
n z
u v
ĠAd v
ĉĉ ĠĠĠĠĠ
Ġre ct
lu g
ĠĠĠĠĠĠĠĠĠĠĠĠĠĠĠĠĠĠĠĠĠĠĠĠĠĠĠĠĠĠĠĠ ĠĠĠĠĠĠĠĠĠĠĠĠĠĠĠĠĠ
Ġfin ally
O U
Ġm s
Ġw orld
++++ ++++
m ix
UB LE
Ġs afe
e lem
ãĥ Ī
Ġmay be
vo ice
ĠMet hod
T MP
D AT
A ctor
Ġ---------------- ----
{ %
Ġ ê
er ved
ĠM E
ĠEx ec
CON ST
ĉĉ ĠĠĠĠ
ot s
ĠP ACK
Ġredistrib ute
' $
ç ´
ex amples
T ensor
Y P
comp are
) ->
p ace
Reg ister
greg ate
ĠEx pr
Ġput s
95 6
Ġmedi a
m alloc
O ld
u el
it ect
29 8
Ġ5 00
pri mary
ĠA X
ces ses
Ġde pth
22 3
GR AM
Ġd c
ĠY es
ist ic
Sec urity
col l
Ġrece ive
b z
ĠHT ML
r int
ĠSup erscriptBox
ER T
ðŁ ı
Å ¡
Ġ Â
at ype
Ġtarget s
Ġf lex
cg i
ĠB U
AX I
: !
em on
Ġ7 6
ENO MEM
Ġ2 56
200 6
Qu ick
je ction
> `
B ig
element s
q c
b lack
27 9
77 6
Ġ5 2
N il
è ¨
29 7
g ds
Ġrequest s
Bot tom
Ġ art
ĠS M
Ġcon sole
Ġreg ular
ĠMETHOD S
ĠG OTO
In clude
è ĥ½
Ġtrans action
Ġp a
" /
29 0
33 4
ta ched
j l
x d
Ġlo aded
SCR IPT
l arge
Ġc lause
Ġ8 6
Ġdel ta
b m
68 6
char s
( --
Ġ$ <
Ġst able
if est
Des ktop
velo per
li er
35 8
AN CE
red uce
En coding
Bu f
Ġ(-> )
B us
ver ter
74 8
35 9
Ġprocess ing
ĠO pt
e le
Ġpro per
Ġk nown
own er
s aved
my sql
Ġact ually
o use
33 8
Ġch ain
28 4
Can vas
C ALL
op le
link s
Ġprovide s
< !--
200 1
cre ase
v v
av g
25 3
Ġtime stamp
ANGU AGE
al og
Ġf a
ge bra
is o
NO DE
A ns
V ec
c ancel
Us age
ç ¤
def method
Ġ"} "}],
C ss
ç ī
Ġc ross
Ġ< !--
curs ive
GRO UP
2 16
v irtual
ro om
75 8
trans ition
> âĨ
T y
.. \
Ġal t
Inter val
un ion
Ġkey word
Ġinput s
Ġt ensor
× ľ
last ic
ĠEX PORTING
F ocus
ĠĠĠĠĠĠĠĠĠĠĠĠĠĠĠĠĠĠĠĠĠĠĠĠĠĠĠĠĠĠĠĠ ĠĠĠĠĠĠĠĠĠĠĠĠĠĠĠĠĠĠ
ãģĹ ãģ
ĠF FI
Ġres olve
Ġbu ilt
Ġre spon
Ġpro gress
74 7
group s
update s
pg off
k er
Ġ@ [
Com ment
h int
R ole
Ġc lasses
ĠA c
35 0
Ġa xis
200 4
UB E
12 34
text ure
log ger
V S
Ġp ad
ale s
M X
09 6
3 20
@ "
é Ŀ
Ġ 95
ĠEd it
, *)
ĠR ES
re sp
10 94
S urface
E MP
Ġ" `
Ð ¹
Ġp at
un safe
ire s
à´ °
? "
d v
Ġex tract
EX IT
Ġ0 9
ĠG Lib
TR AN
sche me
R P
ar i
:: __
Ġ5 9
Ġad just
c ert
ĠK BUILD
200 9
Ġla w
ĠTe le
k i
Ġ8 2
ĠSt andard
_ \
Ġl it
eps Z
Ġeps Z
ĠKing dom
SD L
B its
3 17
ut down
char seq
La unch
V B
Ar ch
ĠSt atus
te ction
Ġexec ution
Ġ enter
64 9
class Name
GEN ER
ad reno
Ġ... )
k y
å ī
ant i
0 18
b ine
act ivate
sh ip
1111110000 010000
fer red
Ġ~ =
t m
Project s
Ġrepresent ation
65 5
Ġm ult
Ġte ch
). .
00000000 0000
CUR RENT
á¼ Ģ
Ġg ot
27 8
S erial
an te
Ġhe l
Ġ3355 44
ĠT ree
Ġ5 8
W P
Î º
-------- -
n f
ar ing
600 143
EX P
J R
w g
); }
27 7
Ġbase line
". }
J O
Ġs ample
n p
Ġs lot
IG H
change s
Ġf oo
Ġd x
plugin s
IS ING
S ingle
En g
ĠOn ly
G DK
k in
Ġb atch
Lo ader
M R
ĠS LAB
ĠN AME
Ex port
ul ia
ext ent
Ġpro to
ĠAr gs
ĠEX P
# ,
3 78
ĠL ength
OR S
ĠSt ream
TA IL
clus ive
ĠP SI
So ftware
36 7
con troller
Ġ\ [
æ Ĭ
name d
75 7
Ġ5 1
size of
ĠLo ad
AAB b
S lice
æ µ
Ġ$ *
av es
Comm on
Ġe v
ĠG lobal
26 7
Ġen ough
k Z
per l
Ġm aterial
79 7
Sup port
\ +
99 4
p ayload
ex tract
ff f
E IN
14 2
37 9
dir ty
ĠCONT INUE
(" #
or ig
L V
Ġs imp
Ġpart s
let te
Ġ7 2
Ġre d
em it
Ġf all
35 6
Rule s
Hel per
F actor
ON Y
C XX
H tml
de s
04 5
stand alone
Ġ und
28 6
Ġgener al
Ġprec ision
Lim it
tr unc
Mod ified
1 0000
st andard
èĩ ª
28 7
UB LIC
Ġauth or
0 19
f y
og gle
Ġz cl
Ġwork ing
r al
Ġpre vent
å¤ §
S peed
05 8
ĠSTR ING
p or
x FF
ad v
Ġfor ward
c li
DEV ICE
Ġch unk
26 3
Su ccess
G tk
n orm
Ġpart ition
Content s
ä½ ¿
F low
11 100
Ġ4 9
Id x
ĠU LONG
Pro xy
ir ror
Ġcon n
ĠM A
ãģ §
Ġword s
OPT ION
il i
log o
200 8
ĠSe arch
M aybe
hel lo
ĠCh r
Cap acity
} ",
ç Ĳ
ĠD ep
Ġw arnings
n th
un nel
Ġf old
pro gress
ph oto
mo use
Ġrout ine
g ers
Ġm ulti
ens itive
ĠĠĠĠĠĠĠĠĠĠĠĠĠĠĠĠĠĠĠĠĠĠĠĠĠĠĠĠĠĠĠĠĠĠĠĠĠĠĠĠĠĠĠĠĠĠĠĠĠĠĠĠĠĠĠĠĠĠĠĠĠĠĠĠ ĠĠĠĠĠĠĠĠĠ
03 0
39 6
[ (
un def
ĠR est
68 8
ORD ER
fin ite
A Q
F ixed
r atio
å ¿
Ġb el
ĠLay out
not ation
Ġcl k
o gs
IM IT
ĠB AS
04 0
P ublic
Pro blem
F ilename
es i
33 0
33 5
Ġ6 3
ba z
ĠSe ction
P latform
ĉĉĉ ĠĠ
ĠW in
ĠPoint er
D ifference
Ġ uri
ĠM e
ta u
st mt
Ġd t
Ġat t
Sup er
Ġt akes
Do main
HO ST
f lex
it ches
per mission
ens ity
Sche ma
Ġd ictionary
33 9
ĠIN PUT
æľ ¬
ĠP ost
() }
Ġiv c
crypt o
Ġbound s
C ES
st ock
b io
con tact
not ify
cor ation
Ġat temp
Mark up
Ġtr igger
ĠEx t
"}, "
bat im
P op
ĠS G
et ale
ĠD IV
ĠNOT E
M U
è ½
Ġb g
77 9
ARR AY
g ray
i u
ĠEx ample
ID E
26 0
Ġresource s
ites pace
I Q
Ġde termin
enar io
ç© º
ĠS eq
od s
H ome
p atch
ar b
Ġl at
maz on
L W
è¦ ģ
As pect
p ur
74 6
J ob
L AN
Y ear
ĠB it
æ Į
in a
in x
as i
F l
f older
ord ing
Cell Context
?) ([
PRE FIX
> '
ĠC A
Ġr m
ĠO p
Re ader
17 2
Ġy ield
d yn
ĠA PP
attr s
PAR AM
Ġc lip
ĠI T
33 7
35 4
z a
In f
Ġal gorithm
03 8
pend ing
En ter
Ġ@ _
17 54
_ ${
cre ated
Ġ que
04 6
ĠCON TR
ãģ ¯
For ce
Ali as
æĸ °
} ?)([
sc ene
Ġz if
3 13
Ġb in
ĠN et
H R
type Hash
Ġ8 1
36 0
Ġmin imum
Ï ²
UE ST
Ġdescri be
- [
h ere
ip her
Ġinst alled
Ġn a
fr ont
D iff
he el
Comp iler
Messages Filter
e fficient
B LOCK
Row s
RES ULT
vert ical
x F
Ġl arge
mat erial
3 15
Ġde claration
38 9
p list
S Z
o e
Ġc a
el t
E ach
M icrosoft
d ialog
ĠE Q
end or
h k
Ġ2 000
ĠB utton
LE AR
Ġvert s
L ook
Ġ util
ro zen
Ġqu ote
Co st
Ġh y
ĠE ach
ĠS te
pro d
ST ACK
the ta
. ',
r ust
34 8
fin ished
B ACK
Ġbuild er
bind ing
Ġclo sed
de g
ĠLicense d
ĠLI KE
ser ialize
ul k
69 7
Ġ ke
ĠD ec
Ġget s
Ġrepresent s
ul ator
Ġbe st
s as
Ġd ue
tr ait
âĶĢ âĶĢ
d atabase
à §
un ic
res ses
ĠOther wise
( `
ĠO rder
18 2
Cond ition
AABb AABb
, :
L it
P red
e ffect
FF F
3 14
ic o
Re ce
l ers
Q K
Ġp lot
In sert
Ġ3 00
ick s
ash board
Ġimp l
Pre v
RE SP
,,,,,,,, ,,,,,,,,
9 48
ut s
ce ptions
AN GE
0 25
A I
Ġth ird
ud a
blink id
F N
ĠL ink
gu ide
Writ er
l c
å Ĵ
Ġthe me
Ġ0 7
æ ±
ed i
la x
pro tected
Sy m
ĠUn icode
AME TER
ACT IVE
Ġappro pri
Ġcon tacts
Ġt f
78 5
LO AT
Ä į
ĠU TF
a cl
ç ¬
Ġc t
], '
39 7
áŀ ¶
åĪ Ĩ
R B
Ġin dent
h dr
39 4
------------ -
Eng ine
v f
on es
F UN
ĠO PT
Arg uments
Ġre trie
10 64
Ð½ Ð°
ĠImp ort
A sync
P air
======== ====
An alyt
l iteral
r n
du ced
s peed
Control s
~~~~ ~~~~
L ower
Ġt imer
Ġf ur
Ġa m
op ro
Ne g
() {
é ¡
de tails
($ {
SH A
Te X
IN DEX
Ġsh are
no logy
W all
ĠLib rary
EN AME
ĠIn ternal
Ġnv ram
Ġf ace
04 9
53 125
un i
ĠS ave
75 0
] $
à »
Ġ( #
< '
Ġ 0000
ĠT arget
D irect
G X
] ];
a ff
con structor
Ġis n
ant ed
f w
h orizontal
l isp
aw ait
Comm unity
ĠS W
Ġpart icular
R et
Ġg ive
f ol
Ġc x
27 6
Sh ader
arg v
> ");
ĠP ort
col umns
ĠO ver
Ġ8 9
SY S
l legal
xx x
H K
r ink
ta ke
ĠCON DIT
lib c
Const ant
é ¢
Ġ4 1
Ġcomp liance
d uration
Ġsub st
Ġsche me
Ġ& =
HT TP
_ "
Ġdo branch
* -
3 64
Ġr ad
gramm ing
Pro gress
oper and
è¿ Ļ
ĠT ot
PH ONY
tw itter
posed ge
BIN ARY
rid ge
P ower
Ġsche ma
K e
Ġt uple
ĠM IN
78 4
Ġsp an
icon s
ĠVar iable
Ġst eps
oc ation
.. ...
ent ries
ĠV AR
Trans action
C trl
I ENT
Ġm aster
05 0
^ .
Ġs s
br id
Ġbet ter
C s
c um
Ġf it
ĠCon st
rad io
ĠREC ORD
ĠINIT IAL
D em
T ags
ãģ Ħ
h l
) ],
Ġ( __
ĠO per
Ġpart icip
Not ification
dr iver
Ġchannel s
w orld
V T
Ġre fer
gin es
Ñ İ
Ġm ultip
Ġcon trib
08 00
---------------------------------------------------------------------------- --
X M
il on
Ġ1 20
ĠEX IT
QU I
) |
ĠH andle
W ITH
Var s
al ert
Ġpair s
Ġh idden
mag ic
H W
Ġ[ ])
load er
Ġle g
ĠPri mary
åĴ Į
3 12
p md
Ġb o
ĠV is
3 10
Render er
Ġ%> %
, .
ge o
Ġl ight
ä¸ Ĭ
ĠDIS PLAY
R ichText
Ġf low
ĠIO STANDARD
ĠInit ial
Ġin tegr
String s
Ġcon troller
Ġlist en
a N
ĠF ORM
build er
hel per
Ã³ n
Ġf etch
gra ms
35 7
form s
Ġpar ser
i w
t uple
de claration
ll ers
T L
t ty
end point
Ġth ree
ĠW rit
ä» ¶
Ġdown load
C ASE
} |
Ġ ))
ĠP tr
pro ps
Ġbind ing
D Y
tr ins
pre d
Ass ign
ĠL IC
04 4
Ġtable s
Ġap pear
S ince
ut er
ĠG rid
board Button
ĠPACK AGE
G it
ĠC ommand
m gr
æ į
Re pository
r pc
t ls
69 8
Pro to
Ġn orm
sm ith
38 8
ĠT yp
17 1
De cl
Ġinclude s
F inal
Ġh ig
De st
feature s
çĲ Ĩ
y mo
re lative
is a
Ġ< $
Ġed itor
< -
P awn
S em
Ġf uture
38 5
quest ion
S N
h df
Ġd ispatch
sc all
34 7
resource s
S ender
Ġend point
LI ED
Ġpre pare
Ġr s
gr ad
unk nown
Ġp ull
Ġ7 3
D isp
t ex
} '
ĠC RE
=> ['
M ath
g pu
Ġ" \"
Ġs b
un ique
struct ure
65 0
03 9
34 9
^ \
writ er
Ext ension
Ġf ront
95 0
ĠÐ ²
Tag Change
b ison
Ġc at
Re set
comp ute
p erson
is ing
us b
qr t
CE PT
depend ent
EIN VAL
ab solute
ĠO S
Ġgover ning
re store
ĠL IMIT
pro of
for ward
Ġlimit ations
h ave
ĠA vg
"> &
66 5
co ok
Ġc lock
pro g
ĠOption al
Ġs printf
24 3
Re q
03 7
ä ¾
Ġ$ @
åĪ °
Lat ency
75 4
ĠCONDIT IONS
x E
Ġl ua
ĠIn sert
Ġ(! (
Adv anced
á º
98 8
ys ical
ĠBu ffer
u pt
ang o
g ls
at ural
Ġimport c
U V
key syms
ãĤ ¯
Ġ$ !
Ġ5 3
Ġalloc ated
])(. {
on al
pro vider
iter ator
Ġ4 7
File Location
åĬ ¨
ç¨ ĭ
.. ."
ymo us
Ġ@ _;
ĠCon text
ĠHe ight
U ri
09 4
Z ero
Ġ6 2
Ġpre serve
base d
COL OR
Ġagre ed
74 0
ds n
in o
M ac
p v
of ont
Ġ. /
Ġw in
lap sed
Ġ ĉĉĉĉĉĉĉĉ
gdk keysyms
andid ate
3 06
y e
C AP
S ite
at ibility
ex ercise
ĠD AM
ĠSE LECT
H it
p w
AR M
Ġperform ance
ado op
. $
b es
t cp
ax i
ex Info
em ma
ans ion
in y
Ġp ool
Z Z
velop ment
å ¦
ay ments
04 7
03 5
;;;;;;;;;;;;;;;; ;;;;;;;;;;;;;;;;
ĠStyle Box
D Q
08 6
TR ACE
BU F
Ġacc ording
! ,
37 6
cla red
Ġstr ict
Ġo wner
con t
AAAAAAAAAAAAAAAA AAAAAAAAAAAAAAAA
A bs
t wo
200 3
P in
new line
Un its
b ut
ad just
ä½ ľ
LEN GTH
Î ·
Ġre pository
el n
ĠC PU
ĠF rame
ĠK yw
Ġinter val
ĠTot HHI
ĠAvg HHI
ri end
Ġpro file
UP DATE
D ict
` ](
x bf
ĠF AIL
27 0
s op
ic les
ĠCon vert
ver bose
local host
ĠU s
BO OL
........ ........
l st
Ġ ------------------------------------------------
or n
Ġc ancel
term ine
I A
s mi
ffect ed
W D
ĠA V
= _
x l
ĠG dk
Data Frame
Wh en
me an
Vis ible
bench marks
ĠD est
Select or
I ES
ST EM
79 6
Be fore
G ra
g i
ic ofont
Ġd yn
Ġ< %
ir k
Ġ6 7
\> \"",
return s
áŀ ĵ
Ġimplement s
m f
w p
UR I
5 85
s core
PL ACE
Ġ" ^
DE L
CC CC
g old
65 9
Ġcheck ing
cla use
Ġmatch ing
S eries
ç ¼
fix num
TO K
w ar
ial ogs
Ġ< :
ĠA ction
ĠB UT
64 0
We apon
CM OS
su ffix
Back ground
ĠRectangle Box
)) *(
, {
Co unter
index Of
g lyph
ĠL abel
f all
t z
Ġdist ance
Con n
Ġ( &
ro ute
ist ant
message Action
:::::::: ::::::::
ĠT ensor
ip ping
lip se
Ġem bed
Ġspace s
expand after
CMake Files
C r
Ġ( **
ĠF uture
à´ Ł
over flow
ĠMessage Action
æĪ ĳ
ur b
Ġl st
bu iltin
FF ER
[{" (",
H ex
os ite
_ ",
se g
Ġm achine
ch g
ĠM ode
ãģ ¨
Ġdefault Value
N X
b log
Ġin s
34 6
ĠFile s
D uck
Ġin ner
h ip
s dk
am ing
ĠU int
D f
A z
B T
l us
re et
mo oth
Message Action
Ñ ħ
IF I
ĠSy mbol
ĠBAS IS
ĠN ow
Ġmo use
ç İ
Ġde legate
De legate
ĠU sed
ĠRE G
Ġs croll
Ġde leted
ak en
× Ĳ
ĠH el
stro ke
H unt
T ON
_ :
k ill
Ġs olution
RE AM
Ġmo unt
Rel ation
ĠASS IGN
DO WN
ĠRound ing
E LL
Ġt k
put s
token s
pre pare
09 8
78 6
ĠFI X
Ġp t
ĠM ark
Ġ Ø
rom ise
Error s
åĬ Ľ
H ER
if n
Ġ' _
******************************** ****************
ä¸ »
opro to
å ĵ
Ġ" (
Sec ure
Ġr hs
num eric
5 48
d ffe
| <
ç ¦
Ġre ally
check box
å¼ ı
- ",
D ay
th ers
Ġbe havior
pk t
Ġp y
aly ze
T B
Ġ# -}
Ġe ar
ä¸ ĭ
CM D
- _
× ŀ
H S
g og
Ġf ew
25 2
U int
ĠG ame
Ġwh ite
ĠReg ister
mark up
Ġignore d
D ot
h air
i pt
im s
Ġinter rupt
C re
D iv
k sm
98 7
ĠPar se
ĠLO OP
Analyt Par
pr iv
smith y
ent ion
Ġ[ $
di ction
L ow
TH EN
RET URN
S IG
ut ors
Set ting
AC ES
Ġc aption
Ġ" =",
ĠT ok
Ġh is
Ġm akes
out er
Comp letion
cal c
) ([
h f
s ame
Ġcheck ed
fin ity
ç «
de t
cl js
ĠUn less
Ġt w
Ġs ound
bl k
col s
mo z
og raph
88 9
ic ol
74 9
th ird
IF DEF
T ex
p an
r gb
Ġ[ _
LIB R
g as
k k
n ick
t ar
ab ilities
66 9
08 8
Ġun known
P lace
ĠP ython
ĠLIC ENSE
d out
m icrosoft
45 4
env ironment
Ġf lat
lic ations
à´ Ĥ
Ġalloc ate
3 95
ate st
22 1
Y es
Ġs er
Ġs park
con sole
ĠA P
qu ad
78 8
0019 53125
" )))
b rev
N L
Ġc d
Col umns
h ard
ĠD raw
Ġse c
18 1
ç® ¡
] ):
Ġt id
44 8
uest fs
may be
Ġm ac
AA Fs
Phone Call
, </
V R
05 6
28 0
Group Call
spec ific
Ġcap acity
R andom
ur a
3 69
es cape
05 9
Ġpri ority
Ù ħ
Ġa ut
ĠC lear
ĠIn fo
US A
Not ebook
Ġdis k
39 0
= $(
å ĳ
log ical
E mail
th rough
sp ot
ĠRe place
FILE S
r k
y aml
Ġ. "
98 9
ĠUS ING
cre te
45 5
P y
æ Ľ
ateg ories
R ate
Con sole
Ġmap s
ĠP ASS
Ġf t
ĠL et
Ġge o
/ %
68 5
ĠPro blem
Ġhapp en
= [
ĠM Y
dic ates
medi ately
f ire
LO SE
ãĥ¼ ãĥ
L ear
ĠCreate s
Ġappropri ate
d ma
en o
Ġpar sed
-------------------------------------------------------------------- -*
ĠS ign
F ront
f m
{ #
Ġc ir
ĠLV CMOS
r g
Ï ħ
Ġst ats
out h
Ġsub routine
Ġwh ose
03 6
Css Parameter
Ġ' @
Ġde termine
Ġapp lied
Ġversion s
"""" """"
S calar
ĠS u
P ASS
ĠP C
UN T
e g
11 64
per cent
Ġdest ination
in out
ä¸Ģ ä¸ª
å¦ Ĥ
j ump
Ġ4 6
orph ism
Ġsim ilar
ĠRounding Radius
Ġs a
sub ject
/> \
script or
Vert ex
ct rl
back end
Q ual
se qu
3 000
le af
ĠC G
Ġ4 3
ph y
Lo gin
App end
cr ate
k ong
on ce
at ime
Ġsymbol s
ro me
Ġi de
un used
S aved
LOC AL
Hot keys
ro l
ĠPar ams
lo od
ĠW idget
25 24
Ġconst ants
Ġover load
SS L
ordin ate
Ġfeature s
` ;
------------ ---
+ (
ĠT ab
ĠD isplay
ĠM PI
h c
tt ot
ĠEn v
, &
P o
W M
ic a
lay ui
Id s
Ġso ck
ist ent
TERN AL
q a
44 0
istr ation
i ol
LE ASE
07 8
gog oproto
! /
bu cket
Ġre gex
ĠE mpty
ST ER
read er
Ġstart s
H int
ĠB ut
38 7
Ðµ ÑĢ
+ \
)) *
AL LOC
Ag ent
ëĭ ¤
ç Ĥ
de mo
IF Y
cap acity
C ast
è ¥
ĠP L
ĠH AVE
Ġm x
Ġk h
Ġc la
ĠRe quire
ĠVal id
) ^
A ng
Ñ Ĩ
ĠG it
; ">
Ġar m
M utable
d rain
ĠC T
DEF INE
flat ten
Ġ ----
Ġat tach
Ġ7 1
equal s
M ed
Ġth ings
let on
. <
f lash
g ate
Ġ\ $
Ġex clude
Ġt ile
Ġin f
44 6
78 7
Ġwe ak
F amily
Ġ, (
Ġdef ines
Conf irm
r ift
co res
pp ed
45 9
) \\
G S
P at
y B
if e
eb x
æ Ļ
sp ring
å§ Ķ
Ġpro vider
A m
B order
b w
15 1
Ġ! (
oot er
08 9
29 3
OK UP
o j
Ġre store
ad ded
pro log
clo sed
I H
Name d
Rout e
w eek
Ġp lane
ĠRe al
Module s
Comm it
23 1
Ar t
emp h
P adding
10 54
05 4
Ġ] *\
Ġz one
Ġdi ag
AT OM
Ġdefin itions
6 99
D M
Ġp ending
gr adient
Ġel if
K ernel
P i
Auto Config
Det ails
0000000 1
c urrency
an c
de m
std out
Geo Point
ĉĉ ĠĠĠĠĠĠ
he m
Ġse curity
45 0
target s
BY TE
BotInline Message
J ust
s leep
Ġ Query
Ġm ime
ĠC lient
ook ie
W orld
Pr ice
Sign ature
Ġcon version
Ġstr ip
cul ate
Child ren
ureValue Type
agnost ics
, \
ĠF raction
com ing
Ġim g
3 18
p fn
z x
Ġs z
25 1
98 5
------------ --
!! !!
Ġvert ical
' ll
Ġab le
Ġb ra
In d
ĠO K
Ġtrans ition
AAFs AAFs
S ta
ĠCon tainer
Ġaction s
] /
Ġ/ ;
per m
Ġread ing
T Jv
55 5
Group s
Ġ'- '
se ed
sp acing
Ġwh ole
ĠL D
09 5
ä½¿ çĶ¨
a q
å »
Ġse ver
Log ger
itect ure
) `
record n
Ġt d
ex pect
ch art
w an
Ġm ix
ache d
Sp an
G V
([ '
Sy n
Ġsupport s
eh icle
OPEN CV
H ide
j c
ç º
12 00
bu ffers
Ġen gines
page Block
Ġ? ??
n an
Ġ --------------------------------
me mbers
68 9
space s
an ization
Ġe quivalent
PRE SS
R a
ì Ĺ
ad s
=" -
ĠP lease
foot er
Sched uler
M H
Ġ} }
Bl ue
" ])
C AL
b and
79 4
Component s
u ro
é Ľ
ĠĠĠĠĠĠĠĠĠĠĠĠĠĠĠĠĠĠĠĠĠĠĠĠĠĠĠĠĠĠĠĠ ĠĠĠĠĠĠĠĠĠĠĠĠĠĠĠĠĠĠĠĠĠ
ĠT erm
ON ENT
Ġoper and
lo ur
Ġ{ '
ver batim
74 3
DE D
Sp acing
side bar
ĠIMP LIED
Ġde clare
Ġpos itive
con straint
Ġsource s
Ġind ices
F un
! ("
ra se
ĠSQL ITE
: %
Ġ" </
Ġg reater
ass ignment
67 6
Duck Hunt
CO PY
ĠRe f
Ġent ire
Graph ics
he st
V K
s oc
Ġc er
Ġp ick
IT S
48 6
ere f
project s
åĲ Į
ge ther
ãĤ ¤
sk top
fun ctor
] :=
ri er
comp ress
Tool s
f v
Ġde sign
Ġz ip
1111 110
æ ¸
co ord
Ġarray s
Ġst icker
1111110000 100000
8 02
ss er
Ġlabel s
************ **
E nt
ge s
Ġrun s
NUM BER
n w
il le
Ġfor ms
part s
Ġimplement ed
])(. )([
c les
Ġs calar
ĠT otal
ER ENCE
allow ed
H AVE
Ġc lick
Ġp m
ME SS
Ġro ute
ãĥ ĥ
ĠAdd ress
sec ure
(" /
44 9
') );
) ',
Ġd ict
ĠC ore
do cker
è¥ ¿
; *
Ġres pect
U i
ĠR CSS
ime s
Ġ! .
T OT
ĠP UBLIC
Ġcon cat
p as
åĲ į
Require d
B I
ĠM enu
#### #
gu ard
Ġcop ies
) >
D b
Ġ Ñģ
ĠRE AL
* ",
M ON
V O
Ġ engine
Tr igger
W T
11 14
ĠPage Block
ç Ħ
Ġs ilent
ĠC md
ment ion
Ex ample
Ġli k
F ill
L N
ref s
H y
ĠR A
07 7
ãģ Į
ĠCON ST
ten ded
Ac cept
I MP
000 2
amb da
st e
urn al
ph ase
ĠMessage s
Ġp ayload
um an
33 2
Ġprint ln
t id
05 7
B UT
Ġsepar ate
Ġi r
ING S
ãģ ª
run ning
Ġwork er
Pre view
h row
Ġre verse
ap ps
as sets
07 9
US H
clo jure
";" $
P aper
ig en
Ġpre dicate
Ġrel ated
Ġlong er
Ġb ags
config uration
comp atible
std err
trins ic
con j
ĠB ox
ĠW ORK
product s
> [
P ub
è ´
ĠS ort
ĠPos ition
M Q
m ultiple
arch ive
âĢ į
tra its
, #
C redentials
H U
ĠV ER
09 0
06 7
lat ex
sum er
F n
k v
ro ke
Ġpr ice
Ġtoken s
Ġinher ited
ĠF ilter
uc ch
L A
M ov
:: {
LE FT
07 6
Z one
a udio
69 4
00000000000000000000000000000000 00000000000000000000000000000000
ĠLIMIT ED
V m
tr ansport
ĠRe trie
ĠDe fin
fin ish
RAN GE
éĩ ı
th at
EN G
ĠST D
( **
V P
Ġup load
Sh adow
FORM AT
ĠOUT PUT
el low
pre ter
Ġ10 24
Ġ í
24 2
ï ¿
in et
Ġf lash
ĠO ld
Ġpri mary
Ġtask s
ucch ini
98 4
Tri p
ĠHow ever
č čĊ
Ġ$ .
Ġs core
LE MENT
DE TAIL
t code
AL T
loc ity
Dr iver
code s
Ġad v
T yp
00 26
vm linux
P lot
l ru
ĠP ass
Ġpro m
ifn def
Ġ]*\ /
Ġm v
Ar row
method s
Ġgo ing
r st
tr igger
ĠS ch
% <
ITE M
3 11
s ound
al ity
ar c
Ġm d
if eq
Mark er
Bound s
S F
n im
Ch art
sw ift
@ (
obj s
ĉĉĉ čĊ
Ġtest ing
ĠApp lication
sched ule
O wn
AC C
([ ],
[{" -",
Ġver bose
( +
ĠĠ čĊ
ĉĉĉ ĠĠĠĠĠ
Ġ` :
ys ics
OB J
* $
ĠC R
ĠP OS
à¥ į
Ġid entity
AC H
äº Ĩ
Ġsup p
ar ante
mark et
æ ı
Ġth umb
at able
ĠC l
(' \
IC AL
pair s
+ /
Y S
sc r
45 8
ĠComp onent
SER VER
åĲ Ī
D amage
F REE
c adr
Ġf ocus
06 0
ĠR ange
95 00
Ġany thing
P ush
x A
am ent
ĠO FF
ĠGener ate
Ġatom ic
ĠParameter s
: $
W E
W r
un icode
20 34
ĠW Script
p ull
Ġ energy
ch ip
Ġse ed
new command
avig ation
ï¿ ½
G LOB
Q I
l is
ĉĉĉĉ Ġ
os en
TR A
valu ation
ìĿ ´
M ut
h our
ĠP M
Ġ[ ::
iz ations
---------------------------------------------------------------- ----------------
over lay
Ġpri or
ĠAPP END
d ro
lu de
Ġgroup s
OB S
Opt s
in her
Ġd ot
Ġ] ],
]* ?
P D
× ©
ĠS ervice
200 2
Ġdis card
SIGN ED
ĠA RE
ĠP ol
qu ency
O G
x C
ry ption
S ch
Ġc txt
Ġp f
ĠV ec
` :
Ġhand ling
Y X
anch or
g re
Ġm ath
\" />\
Ġ6 1
{- #
p wr
mat ches
Ġinitial ized
Go al
capt ion
FIL TER
M apping
Ġs peed
Ġre striction
K it
ĠS ingle
äº º
Ġv s
0 23
Ġpub lish
Ġqual ified
pres sed
B g
U ST
Ġp lan
Ġo ps
Ġcon straints
32 1
ans wer
95 5
Make file
pol y
Ġme mbers
IT LE
rd name
> ';
W ide
er ation
Ġ1 99
USE D
fore ign
Ġa udio
ĠN EXT
ON LY
Ġse gment
Set s
68 7
tern ative
Ġsc ene
serv ices
ç½ ®
R AM
Ġs i
ĠB ot
Ġas k
35 3
U INT
Ġw a
ĠA C
ĠL E
Ġse cret
work s
20 84
àµ Ĩ
ins pect
v l
ĠP lay
11 54
44 5
Cap ital
l int
Ġsu ffix
( \"
m ig
Ġan sw
ens ors
print ln
lap se
L F
Î ´
Ġindic ates
-* -*
S park
Ġp lease
Ġr ather
io block
'' ''
M al
se gment
Ġal i
Ch unk
! ]
dd r
[ -
n h
Ġde precated
LI MIT
enum erate
play list
ĠInit ialize
J J
S UP
i sed
De stroy
éĢ ļ
> |
M id
Ġd ump
input s
t u
Ġ" '
Ġ' :
( ::
Co ord
Ġstart ed
' ])
T k
ist ers
om in
sub str
Ġiter ation
*& ---------------------------------------------------------------------*
r uby
Ġout side
Av ailable
Ã ¥
re try
ĠOP EN
P ragma
ank s
A ES
Ġ\ @@_
ĠW ord
hu ge
x ff
| "
Ġv e
88 8
SH ARE
Chat Invite
k b
Element s
Menu Item
ä» ¬
R S
ic ate
Con straint
ĠAss ign
ĠFraction Box
Ġp te
ĠS can
Con tacts
av en
fact ory
ver ify
65 3
tern et
\\ (
Ġ ĉ
Id entity
99999999 9999
ĠC HE
Ġtype of
P X
S ol
Ġ9 1
à¤ ¾
10 10
Ġvar s
47 6
[" \[
B old
t od
Ġ20 17
ĠEn able
Global AnalytPar
:: <
32 2
SL AB
scal ar
Path s
æĪ Ĳ
Ex ist
Write Line
5 34
W X
ine ss
ust ed
AN K
09 7
95 9
NE W
Det ail
Ġim mediately
L IT
48 8
ï¼ Ī
neg ative
Ġtri m
H C
f trace
Ġb al
Ġin crement
ver ts
ĠE VENT
gener ator
4 14
å Ł
Ġm is
map ped
]( #
Ġ## #
) **
j oint
Ġh ad
åº ¦
* ))
G N
Ġ um
Ġon click
Ġdif ference
D ynamic
R DD
Ġqu ick
ĠEd ge
semb ly
P lease
iz ers
im m
ĠCRE ATE
== "
Ġse g
æī Ģ
= ${
en ch
ot es
45 7
Ġu i
ï¼ ī
PACK AGE
éĹ ´
Ġf trace
Ġ) :
ass istant
Ġbl ue
ĠRed istrib
K NO
b et
Ġ ut
Ðµ ÑĤ
Ġnum eric
Ï Ĥ
ut ing
Te am
åŃ ĺ
id entity
Ġde al
im ing
err no
depend encies
6 10
mut able
D ROP
E cho
W W
Option al
bound s
B ison
me tric
ck s
Ġ] .
"} ]],
ĠCon s
Format ter
Ġh int
In tegr
Ġcom ments
b old
U CT
Ġb s
Ġd ays
ST REAM
Action s
match er
ĠCont ent
Exec ute
li ve
ĠD ir
os ition
Ġnot ification
pr m
[{ -
36 00
we ak
Ð½ Ð¸
3 66
S im
Ġm ig
Ġ< |
Sy ntax
3 19
M achine
v n
Ġa cross
up grade
13 14
ang ing
cri min
color s
HO ME
DECL ARE
- .
0 22
c w
c decl
ra ise
Ġle ave
Ġbu g
Ġ20 15
Ġxml ns
OS UB
l m
| %
ex act
98 6
K I
re cv
ĠS cript
Ġk ill
65 2
En coder
--- |
H IGH
N t
T OP
é ĥ
ĠĠĠĠĠĠĠĠĠĠĠĠĠĠĠĠĠĠĠĠĠĠĠĠĠĠĠĠĠĠĠĠ ĠĠĠĠĠĠĠĠĠĠĠĠĠĠĠĠĠĠĠĠ
Ġ> >>
Ġcomp ilation
WA IT
Ġremain ing
g if
Ġ' >=
ase d
Ġnot ify
h p
t ile
Ġ' #
[ ,
Ñ Ī
st ick
Ġ( #\
IC S
Ġ9 6
Ġcre ating
ext end
/* .
Ġ". /
Ġexpression s
S core
In i
B G
Des cript
reference s
ĠLI ABILITY
Ġf printf
ĠEx amples
Ġact or
b as
Ġc nt
Ġf ar
local ized
table s
Rem ote
Ġdescri bed
Second s
U IF
Ġh alf
lay ers
BU FFER
Ġfl ush
æĶ ¯
N ullable
ĠD ict
Ġcomp letion
Ġtra in
fra c
0 26
mark er
Resource s
IST S
F IN
P en
i ma
w k
ĠQ AST
Up per
h ow
Ġp ot
Ġe cx
ĠIN DEX
j ar
al let
In dic
27 3
37 2
s ur
Ø ±
ĠA ccess
ĉĉĉĉ ĠĠĠ
ub ic
mod ified
M ult
U U
f ollow
× ĳ
Ġq s
F h
10 84
)- (
i M
Ġresult ing
Dis abled
"}]} ]}],
se cret
if rame
to k
Ġoutput s
ĠLO CK
ub er
Style s
Ġdec imal
cour se
ID ENT
74 2
Ġ"- ",
document ation
FP D
ĠS yn
ĠC or
REC ISION
g lib
h old
ro y
Ġb rowser
ĠTO bject
) ")
H D
Ġre po
áŀ ļ
symbol s
I gnore
ft p
ç ±
Ġcon straint
Ġsystem s
sql ite
ĠAuth or
ĠClo ud
n ail
ĠĠĠĠĠĠĠĠĠĠĠĠĠĠĠĠ Ċ
Ġw on
IN VALID
DI RECT
wq e
åī į
an imation
69 1
Message Entity
Ġ20 12
57 6
aj or
b n
å ĭ
st o
us ion
Ġ/ \
ST C
AL IGN
form ance
Tr ansp
Sh ared
yg on
T ile
Ġg row
08 7
25 14
ACT ER
w c
ref resh
44 7
Ġbuild ing
Ġâ Ī
fu el
linear ize
0 29
} ).
Ġco me
(* )
Ġconfig ure
A utomatic
B AR
R ound
int ro
iz ard
model s
________________ ________________
Ġcer tain
ĠM ove
RE EN
ĠH ost
Ġexec uted
Ġwr ong
5 36
Ġ× Ķ
( /
Ġd ialog
Ġg p
ĠUn known
ĠP arent
CO D
cache d
pp ing
ain ed
KNO WN
3 25
is ms
De code
åĬ ł
COMM AND
\ >\
ç ¥
ĠC ustom
ind ices
Ans wer
B i
D a
Q L
é ł
N ow
ĠP layer
Ġ[ -
Ġ20 20
ĠPro gram
ĠDO UBLE
Ġh it
export s
AR B
Ġsuccess ful
Ġl ar
lock s
Ġread y
v nd
Ġde stroy
Ġ\ (
se en
Ġd d
Ġle ading
ĠIN TER
Ġstd call
desc r
Ð ³
Ġp refer
ĠF l
Ġg t
åľ °
ĠTIME S
] _
ĠĠĠĠĠĠĠĠĠĠĠĠĠĠĠĠĠĠĠĠĠĠĠĠĠĠĠĠĠĠĠĠ ĠĠĠĠĠĠĠĠĠĠĠĠĠĠĠĠĠĠĠĠĠĠĠ
Ġimage s
çĶ Ł
M V
Ġsort ed
Y TIME
w all
sb info
mk v
p ag
ou ch
\\ .
ĠCOPY RIGHT
ĠU RI
Temp erature
,--,--,--,-- ,
S pr
on ical
Ġ1 998
Ġg reen
Ġ/ ></
Ġsyn chron
m ime
s lide
not ification
Ġlog ical
invoke With
x D
Re gex
w m
28 3
Ġinstance s
Ġexplicit ly
T U
f req
AT URE
Ġ[ ^
IB UT
P B
t if
re pository
ĉĉĉ ĠĠĠĠ
Ġr v
ump t
as set
ra ct
ca led
Ġgu ard
+ "
H idden
Ġ{ };
Ġ4 00
34 0
Ġem ission
ä¹ ĭ
or ing
15 00
/* !
p lain
Ġcre ation
u h
Dis k
Ġi x
Ġs nd
ĠS IZE
ST ORE
ĠAl low
}_ {
Env ironment
//////////////////////////////// ////////////////////////////////
cir cle
b ash
ĠEn try
f lu
m q
il inx
Ġde t
26 2
div idual
hes is
w i
start s
49 6
å Ļ
æ ĥ
per f
Re cent
Un ion
CON D
Cl uster
Ġd amage
ide s
select or
ci pe
Ġdepend ency
E OF
f eng
l z
v ing
Ġ( ))
em bed
to Chars
? ,
oo ool
ĠRe ference
! =
m is
Ġfile system
Ġexec utable
p ct
Ġp un
ĠĠĠĠĠ Ċ
Ġop acity
az ure
V e
he ap
37 3
ĠRes ource
uff le
R F
IM AGE
_ -_
d ays
z A
å ¥
Ġ0 6
TY P
atime stamp
BUT TON
q s
re cur
Ġtr ansparent
Notify Settings
é» ŀ
Ġsimp ly
ĠProblem Filters
Ġ à¦
Ġde limit
ud it
Ġab ort
Ġlit tle
48 5
NA M
Br ush
im ated
ial s
lin dex
éĩ į
Ġo thers
ang ular
Per mission
ĠFIX ME
7 99
M usic
X T
f no
07 0
RO ID
j z
loc ale
Ġacc um
S cal
IN ED
Ġgu arante
Ġre lation
Ġr c
Ġpro duction
64 2
Ġun def
Ġsign ed
N ORM
ch k
=" ${
ab stract
fo g
Pri ority
Ġfur ther
h ist
(" .
Ġcomp iled
connect ed
Mon itor
Ġte am
Ġs atis
39 2
Ġgener ation
L n
Ġm map
ĠC S
Ġto gether
Ġ3 36
item ize
Ġsched ule
` ).
æ ¯
38 0
late st
Ġcalcul ate
TOK EN
S can
un finished
Ġfail s
3 74
B ad
C aption
W no
Ġh orizontal
pr ivacy
ĠPro perty
nav ig
Ġtemp orary
Dis able
Rot ation
Ġ Ð¸
**** **
ĠV ert
N F
27 2
I ABLE
dis k
Ġfre elist
D SET
iv ation
ĠL anguage
REQ UEST
is Empty
\>\ <#
C ert
U G
qu it
be am
Ġassign ed
- (
4 08
Ġan alysis
Al t
ĠD uration
Ġr d
Ġfollow s
ent ities
Ġ1 50
Sh are
Ġback end
% !
d z
l r
Ġd igits
out State
Ġel t
ĠSQL M
-------------------------------------------------------------------- ---
CL IENT
ĠInter face
pret ation
! )
COMP ILE
n id
64 3
Ġan imation
LI VM
'] ",
lo ss
AA A
IC ATION
ãĤ Į
An no
Ġlink s
Ġes cape
8 75
T x
-- >
iz able
Ġse p
list en
Ġj ump
! .
E VENT
a led
ĠP resent
Ġ(! $
BO X
<< __
T ip
u ed
69 3
Ġcy cle
H ook
ĠA WS
sc ape
éĺ ²
11100 1000
and alone
Ġcell s
lev ant
i Ã³n
var i
Ġdepend s
strict ed
k r
r ho
def er
13 00
Ġdev ices
m ultip
r ss
ĠG e
IE W
M FPD
V END
a que
in State
24 1
Ġnot hrow
Ġdo ing
lin feng
26 1
åį Ĺ
DSET est
D LL
t ell
0000 1
task s
Âł Âł
\ ]
ĠM ar
Ġse em
22 22
åı ĸ
der ive
Ġhome assistant
Ġb lack
ve st
06 25
Ġpre tty
ĠSet s
1111110 111001000
åĻ ¨
an cy
48 9
55 6
AP W
P lan
t bl
ĠS ince
," ['
part ition
me trics
RO L
depend ency
å¼ ±
it ute
Ġs sl
Ġre cent
ĠA g
Ġcon v
ĠW C
our se
39 3
55 4
AS C
arch y
ĠRec ord
pre serve
CI AL
Ġdes ired
Ġp eek
Ġb ook
)) (
=" &
ĠA li
Ġh ook
ĠD on
At tach
Ġslab s
Ġtr unc
st rees
Ġ" ."
Ġ{ -
ĠT ool
ĠD el
00000000 000000
45 3
ĠJ S
Ġmodel s
Ġpg off
d rag
66 2
test ing
sch ools
micro blink
ĠA SC
AT IVE
SP ACE
->{ $
fol io
p ic
Ġd y
Th en
br k
Ġcom bin
? ;
s il
Ġ( _,
ĠT ry
qu iet
drop down
T oggle
ĠC LEAR
Ġr t
ĠG RO
Declare Input
Ġm u
åĨ ħ
Look up
_ %
Ġencode d
er ator
co untry
Ġ1 23
pro f
Ġadd ing
Ġcol span
Reg istry
channel AdminLogEventAction
ĠChannel AdminLogEventAction
R NG
à ¹
-- ;
ma j
000 9
di e
boot strap
Ġpe ople
Ð ±
ter ms
Ġe qu
48 4
48 7
ë Ĭ
Ġw arn
V I
Ġre try
Ġle x
CL ANG
ĠArg ument
\ '
Ġw x
ig ure
ant ics
================================ ================
variable s
ĠId entifier
M aster
c go
Ġl inux
non ce
K B
L f
ie ce
j ulia
Ġh istory
version s
MA IN
cre d
0 75
æ ¨
ul ly
ĠI dent
li ps
RE LEASE
08 62
process ing
F M
ĵ </
Ġpol icy
Ġcomp let
Ġpar a
Al loc
conf irm
ĠUn ivers
Ð° ÑĤ
VEND OR
H AND
z n
Ġw alk
cur r
B racket
or atimestamp
Ġm ag
Ġlib raries
prev ious
Ex pected
Ġdebug ging
GO H
1 999
8 95
Ġe bx
Ġx or
St age
22 77
Ġal location
ãģ ¾
>âĨ ĵ</
C lasses
F ROM
H ub
ç ł
ĠS IG
pro m
Ġvar ious
ĠF ill
Ø§ ÙĦ
ĠUt ils
Ġm t
**************************************************************** ****************
initial ize
ĠRETURN ING
H L
f ragment
re pl
erm ine
APP END
F ix
Ġreturn ing
are ncy
load ing
Un ique
# "
å¯ ¹
G PL
x i
sub mit
h ib
un ce
Ġse per
Te ch
Clo sed
8 05
C annot
K UBE
M ULT
16 00
imp licit
Time stamp
C ar
AB S
Ġcol ors
ict ure
) _
G UI
U nder
æ ´
ĠG r
08 5
Ġdata Type
ĠIN FO
ĠPRO VID
" \
Ä Ľ
DE C
ĠSP ACES
Ġre write
Ġun lock
37 0
Ġpo ss
V irtual
h id
Ġ gs
000 7
29 2
config ure
xy z
Copy right
' !
ab ic
sub rc
Ġph ase
Ġgr anted
/ #
M W
ore ground
CT L
): -
å§Ķ ä¼ļ
ĠCHE CK
ĠO ne
Con straints
sub set
ĠTemp late
éļ Ĭ
ĠDate Time
b ined
ĠA CC
send Message
Ter min
4 68
Ġd u
ĠU sing
pol l
F ire
S kip
en a
ĠF T
ĠL emma
pre dicate
Ġan gle
46 3
mk dir
304 03
/ {
Ġf ault
File Type
Se parator
oci ation
R atio
ĠS PE
Ġlo gin
ĠSet tings
ĠLO G
pop up
initial ized
Ġm en
ĠE ng
art icle
En code
b k
à´ ®
Ġcom ma
S ervices
g w
ĠS rc
Ġ@ @
([ \
Part y
Ã§ Ã£o
ä¼ į
,"[' /
G if
Ġ= ================================================================
Ġ*/ ;
Ġtool s
ç¤ º
b re
am ble
. ";
ĠM IT
PO INT
Pol y
å¼± é»ŀ
6 16
C reated
st m
mo ji
Ġrecord s
o i
al v
08 4
Ġ<< __
MO VE
9 77
Ġdim ensions
W ISE
able s
19 07
ĠCL ASS
éļĬ ä¼į
G SU
ĠL en
ĠRes erved
æĢ §
çĤ ¹
b on
d ummy
o ct
Ġt aken
cref name
m Min
ĠP CI
27 1
End point
process or
ĠInst all
Trip Count
Ex tra
200 30403
enc rypted
ĠLe vel
æŀ ľ
3 02
m Max
al ty
åĢ ¼
K S
Ġmy sql
Ġdist inct
íķ ĺ
Ġst uff
Ġg c
Ġg ap
Ġ3 29
âĤ ģ
N I
N u
U IG
ĉĉ čĊ
Ġl hs
ĠG R
Ã© s
ĠMat rix
in str
Head ers
Ġconsider ed
6 26
ĠF L
view s
cat alog
de tail
Ġa ff
ĠN on
Ġcon tinu
tt t
mon itor
ĠMessage Entity
æ¬ Ħ
6 05
it ation
Ġp kg
\" ))
Sy s
Ġp od
ĠS um
ãĥ ª
MODULE S
oooooooo oo
Ġ( {
un ix
ĠA fter
IM ARY
impl ify
agnost ic
f ac
Ġd rag
33 1
Ġapplic ations
v h
Ġ( /
=" $
Ġlog ger
Read y
Ġload ing
Record ing
Ġfe ed
t cl
× ł
ì ł
åı¯ ä»¥
ĠR el
IS O
(( [
ĠCol ors
ĠLO OKUP
ç©º æ¬Ħ
D up
× ª
Ġ' {
ri ef
LE X
S l
co d
() </
no indent
DEF INES
Ġvert ex
ä¿ ¡
B M
Ġth ink
Con vert
ĠST AT
Ġunder lying
pri ority
D one
}, {"
Ġpar allel
æ ĭ
G reen
æ ģ
bu ff
ĠWR K
W K
VER T
Ġpl us
, (
b all
49 7
æİ ¥
= /
Ġ9 3
Ġper cent
Request ed
Q T
to Be
Ex ported
File Path
PT kZ
TEXT URE
PTkZ JR
j k
co in
ĠM AP
imp lementation
ĠRe port
å» º
F ACE
EN C
ĠLo op
éĥ ¨
ct ype
rit er
ĠSe ssion
AUT H
Ġc e
are st
Java Script
# !/
C or
H B
V X
ol t
ĠP ackage
47 00
0 65
Ġk w
TO OL
dot s
Ġm apped
ĠS tore
di ag
ĠStr uct
Ġinv ok
i h
ar ity
id le
14 00
29 1
ĠCO LL
vue js
def macro
ĠV oid
Ch ain
ĠY Y
å¼ Ģ
6 25
Ġ20 22
tool bar
æķ µ
map s
åħ ¥
ĠDIV ISION
S AT
å ŀ
é ĸ
se cs
un its
Res olution
åŃ ¦
æĸ¹ éļĬä¼į
7 28
R x
ĠI ND
to s
Ġat tached
Ġbu cket
require s
< :
a co
ĠW hether
E AR
c q
ï ¸
ĠI con
ĠO bj
Al so
ah k
Ġcop ied
/ _
ENT ITY
()) ,
sn apshot
Ġansw er
LE AN
94 9
MESS AGE
H and
al gorithm
ĠG FP
Ġse en
alloc ate
à¤ °
cy cle
M ix
z oom
} ),
69 2
@ .
U nd
77 77
NS String
Descript or
invokeWith Layer
74 1
ud p
char ge
PRO TO
è® ¾
sim ulated
- $
tr as
T N
Ġan not
000 5
TH ON
Pipe line
4 10
Z ERO
g tr
u ous
Ġd ark
qu ant
Ġint ent
ĠĠĠĠĠĠĠĠĠĠĠĠĠĠĠĠĠĠĠĠ Ċ
* ----------------------------------------------------------------------
V N
z Order
Ġbegin ning
Ġpath name
ĠR ule
Auto SA
Ġocc urre
Dist ance
$ ="
ĠS AS
18 00
ãģĻ ãĤĭ
Wrap per
7 33
U sed
g dx
Con s
38 3
war ded
4 66
8 64
u zz
Th rift
Color s
æķµ æĸ¹éļĬä¼į
T MY
Ġi ex
ĠC UR
ĠG UI
p ot
up dated
text area
ĠX ML
å¤ ļ
Ġhel per
Ġs low
tr an
ver b
state s
Ġfloat ing
åĲ İ
w f
Ġ" {
Ġm g
Ġprob ably
Ġ1 04
Ġstate ments
Ġexample s
Ġcache d
4 03
R A
lo gs
ĠIn valid
eps z
Mon th
M ore
] '
Ġf f
Ar r
Ġ] ]
Panel Label
ĠBY TE
ĠDAM AGES
= .
Ġ1 10
ĠT P
)))) )))
HEAD ER
UIF oreground
UIG low
ï¸ ı
j mp
Ġ" !
ĠP ut
Ġde mand
Sta mp
localized PanelLabel
g m
Ġa sc
ĠC ASE
ĠTh at
En c
Res olver
go al
Df Pipe
m ust
() ]
Ġ20 14
A IM
Ġf p
ĠA pi
ĠL a
ĠG u
ĠH OLD
net es
Ġimm utable
v r
Ġ< .
ĠM ESS
Ex ternal
command s
6 77
f name
ĠT ri
ME TA
To k
M ag
T Z
ĠF E
pro j
style sheet
å® ī
hav i
H h
d if
g fp
SC I
mach ine
Ġrepresent ing
åŃ Ĺ
Ġpreserve Aspect
uber netes
_ [
n ÃŃ
u ge
FF E
Ġj e
Ġadd ition
? >
SET Q
ĠAUT O
æĪĳ ä»¬
G IT
Ġc call
op acity
28 2
db g
Ġ× ķ
\ <
] </
ĠS c
59 6
po ses
Ġsu c
Ġimport ant
å· ŀ
4 20
end module
ĠD i
Ġ% _
(' #
Ġres olved
pc i
Ġ{{ {
ad j
mo ck
Ġout er
Ġfin ish
ĠOBJECT S
DeclareInput Text
Ġseper ated
E s
ib ly
Ġlist ener
ĠSo cket
O VER
gn at
Ġwrap per
a es
t b
er min
Ġ[ %
ĠF lash
top ic
æĹ ¥
n m
n od
ar u
Ġ1 80
as y
Ġr ank
ac ct
Ġz cx
V A
g ot
Î ³
ĠD irect
END CLASS
man y
Up dated
æį ®
z ÃŃ
Ġp atch
sp rint
Ġ20 16
ĠSt orage
Ð ¶
Ġ Ä
and atory
ĠC lose
ext ensions
ĠB l
AB C
89 0
Ġad reno
ì ŀ
Ġn ested
Ġmov a
proto buf
ì Ħ
host name
ëĬ Ķ
Ġin active
work space
Var iant
Ł ¥
Ġp ython
ĠF O
AN Y
vent ion
H LS
Ġth ing
type ID
") {
list ener
34 2
Ġpar sing
Ġab brev
met ic
cook ie
measured H
measured W
Ġc os
Ġst amp
Ġe mp
Transform Window
RGB Color
é Ķ
Ġf our
Ġpro cessed
AL S
Fail ure
f la
er ce
Ġre tain
ĠR oot
ĠN ormal
55 0
defin itions
ç¥ ŀ
Ù Ĭ
å Ŀ
ĠA lt
av atar
amp ler
min us
ĠIN ST
ĠPR IVATE
SA MP
Encrypted File
Ġdyn lib
Ġr ing
Me asure
message Entity
ud y
Ġlock ed
ĠTe ch
e of
f k
ĠM ust
fig ure
Se gment
à´ µ
ĠInput Media
Ġs leep
Ġ{ #
Ġpro ps
Ġex perimental
Comp lex
ffff ff
ATTR IB
Ġhig her
ĠB ind
ĠDe vice
34 1
Ġu uid
writ ten
FR AME
ĠConfig uration
N ov
Î ¯
Ġp ci
Ġbu ffers
T ick
Ġb tn
LE D
ĠP ATH
Ġg cc
Ġex tern
input Media
ĠSUB ROUTINE
regex p
0 64
en coder
Ġth ough
ma inder
35 1
Pr inter
T ot
Ġsh l
58 4
Ġ(. -
brid ge
Ġh ot
P ython
T V
ĠS DL
ĠPRO GRAM
Key board
Writ able
Ġexact ly
' ];
I p
er os
ĠS C
Ġlet ter
Ð» Ð¸
âķĲâķĲ âķĲâķĲ
b rowser
ĠFOR CE
ĠLoc ation
B P
T ry
g Q
Ġp aste
Ġme asure
Part ition
' ve
B EGIN
p ow
la unch
() `
Ġch r
bind ings
b ing
ol ute
ĠP RECISION
Depend encies
******** **
Con verter
Ð¾ ÑĢ
Ġdirect ories
illi an
ST EP
Ġ} ];
cl r
78 0
deep ord
Ġs size
Ġb roadcast
Ġin te
ig a
Form al
Check ed
vis it
åħ ĥ
c py
Ġn l
ĠC aption
else if
lin ed
cho zÃŃ
ĠRes ponse
Ġla mbda
Ġevery thing
3 77
W O
ĠB asic
Ġfollow ed
Exec ution
iv ative
reg istry
4 000
IN LINE
cl ang
Ġk sm
Data Value
ĠIN CLUDING
range s
4 17
M s
d g
re gs
se ek
Ġp res
Function s
Ġsuccess fully
ĠSH A
U C
pe ek
04 00
ĠDE LETE
p ck
ĠF ull
OR kl
Ġthread s
rot ate
account ing
Ġinstance of
Sign al
Q Q
mp ol
Ġl cl
ĠL ook
FF mpeg
trans action
opt im
ĠComp ute
ETH ER
s ld
Ġstd out
TOT AL
55 7
fd t
={ '
Rel ative
T AL
ĉĉĉĉ ĠĠ
Ġh aving
ance s
89 7
bt le
Reply Markup
è µ
Ġre start
Ġx xx
Ġvar iant
69 0
IL ER
Ġ× ©
Br anch
ç± »
4 64
ç Ń
Ġl atest
E K
EN SION
Ġchar ge
loy ment
Ġsupp lied
r hs
on gs
Pro cedure
Ġval ign
macro s
SHARE D
ĠL ANGUAGE
L i
O ct
ul se
ul let
ma k
Ġbl ank
clus ion
A Z
S el
v x
DE SCRIPT
Ġcomp arison
ble ms
ARG S
ĠCONST ANT
u j
Ġ ing
Ġpro duce
App ly
Su ffix
Ġhold s
p ragma
Ġ edges
ma ss
Ġch oose
28 1
à´ ª
second ary
DO M
Per cent
basic DataValue
measured Value
Ġatt ack
4 05
F old
Ġ9 7
hal f
WIN DO
5 07
w heel
// !
as ci
ĠRe lease
Ġcomput ation
v Ã½
with out
Ġtrans fer
ĠMESS AGE
ORkl HX
li ver
Not Found
ab e
qu illian
are t
Ġor ig
CT YPE
Ge ometry
ĠCOLL ATE
G UID
Ġp ast
ĠA LI
ĠL inux
qu antity
Ġro ll
B S
C k
F uture
ĠN ov
Ġun ion
Ġcreate s
ãĥ¼ ãĤ
> :
E ST
P ressed
Ġ" *
il lic
Ġreg ard
Or g
pub lish
_ |
ĠP ur
ĠM S
PS U
rout er
10 34
AL I
: @"
ĠC reated
ĠN il
IN C
Ġ| \
Ġ9 2
User name
Ġ× ŀ
ĠAb stract
6 36
H i
X F
h dl
to c
95 3
read only
input MessagesFilter
2018 0
Ġsever al
ĠMessages Filter
re cogn
ĠY our
ret val
sm art
ĠMY SQL
unt il
Ġal ignment
Ġun read
node type
gener al
ĠFI ELD
Ġinitial ization
illi seconds
ĠAUT H
4 15
ĠM aterial
(" ",
Un icode
Ang le
new s
7 26
39 1
Ġro om
cla imer
h at
en ix
wh at
ĠEX PRESS
7 66
c url
Ġ ONE
Ġ' *'
Ġsh r
ĠChar acter
ec lipse
Ġadd resses
58 0
cre dent
J K
V G
ge ometry
75 2
---------------------------------------------------------------------------- -
3 01
p ick
Ġcan vas
B undle
Ġa ge
GSU df
/ <
P ayload
em u
Ġg lyph
1111 1111
Test s
clean up
ĠBe gin
D h
Ġde clarations
log ies
58 6
([ ^
wh o
ĠCol lection
ĠSend MessageAction
P ress
Ġ* .
ri ent
max imum
. __
A tt
C AR
æ °
ĠA v
ĠCon d
Script Dir
' +
Ġ"} "}]}],
S IC
d igit
Ġ 999
Ġ ĉĉĉĉĉĉĉ
ĠS qrt
Part itions
Ġla zy
Ġselect or
stand ing
Ġf illed
ĠL EN
Lat in
ç¦ ¦
éĺ² ç¦¦
) ];
5 05
y z
ra c
Ġimp ro
ĠSt op
}} ],
Ġdistrib ute
Ð¾Ð »
v et
amp ling
EL SE
Ġ. ;
Ġpin ned
ç¼ ĸ
5 35
5 77
W I
] |
n es
Ġt t
BIT S
baz el
u do
Ø ª
not es
åĮ ĸ
kernel s
WH EN
b ank
Ġv im
and o
Ġ@ "
ĠG C
Ġar bit
ĠĠĠĠĠĠĠĠĠĠ Ċ
ãĥ «
Ġwindow s
Ġfilter s
Ġconnect ed
æĿ ¥
*---------------------------------------------------------------------- *
sprint f
éĺ²ç¦¦ åĬĽ
b um
c ular
Ġ 0000000000000000000000000000000000000000000000000000000000000000
}/ ${
Per iod
e quation
č ččĊ
ĠĠĠĠĠĠĠĠĠĠĠĠĠĠĠĠĠĠĠĠĠĠĠĠĠĠĠĠĠĠĠĠ ĠĠĠĠĠĠĠĠĠĠĠĠĠĠĠĠĠĠĠĠĠĠĠĠ
q t
Se p
Ġarg v
Ġconfig ured
ĠPar ser
Simple Plugin
ç¬ ¬
ens ure
Ġchar s
/ ${
M ATCH
5 98
ê °
02 00
48 0
present ation
ĠQt Quick
5 03
M IS
S UM
g d
s lash
Ġa ux
ab ort
ip edia
Ġsub str
cla im
ĠN im
text bf
ĠH ead
Pro ps
55 8
medi um
track er
Ġevalu ation
actual GlobalAnalytPar
Ġpro mpt
Ġspec ifies
ĠOPT ION
: _
f loor
ĠM atch
17 00
Name space
` ",
c string
p ast
Ġm aint
pt s
Ġon es
RO SS
connect Attr
*: *:
Ġinher it
% /
H z
Ġread er
Ð½ Ð¾
B IND
g id
v y
Ġs quare
ce ler
**** *
Ġde tect
Ġid s
55 9
man ual
Variable s
ĠPROVID ED
c j
Ġ1 36
Sub program
graph ics
æł ĩ
åŀ ĭ
A x
U sing
ĠM ATCH
pro be
Ch ats
SY STEM
åĬ ¡
T K
at ile
Ġde cl
__ ","
mb ed
Ġfin ite
5 20
o ch
re lax
Ġf amily
ith metic
ĠB ig
__ (
ĠH ex
85 9
Ġlevel s
Det ect
capt ure
B atch
L K
b undle
ĠĠĠĠ čĊ
er able
ĠS cope
ĠC alled
25 04
Right s
INIT ION
M u
P id
le a
de sktop
ĠS UM
Ġhe ap
Me trics
avig ator
T AB
] ("
re main
al so
), (
94 210
ish ing
Peer Category
Link ing
å¼±é»ŀ éĺ²ç¦¦åĬĽ
é ķ
B tn
è ģ
Ġin dividual
ach ing
Comp are
å¹ ¿
2 124
le ave
ip c
à´ ²
88 6
ĠSH ALL
) ')
an ches
Ġs in
De coder
Ġsh adow
Ġun used
Not Modified
Clo ud
ĠH H
dim ension
C lean
h it
y ou
Ġde clared
85 7
q w
ff mpeg
168 38
Ġb old
ãģ ĵ
SY NC
filter s
inger print
ç Ļ
ar ry
Co uld
spot ify
æĽ ´
g lob
Ġn p
lic ates
ne q
Th ere
å· ²
: ",
q x
85 8
reg ions
ĠApp end
A WS
ar se
Ġre name
ip v
06 2
place holder
ĠType s
Ġbind ings
player version
4 34
Y ST
s ites
Ġin i
ĠN IL
sy scall
from List
Event Listener
Ġdisplay ed
4 75
6 04
F LOAT
int err
w nd
Ġm p
ĠGet s
Ġap pe
ĠAd just
Ġ<$ >
Ñ ĸ
th umb
ĠG EN
ann ing
lect ron
Ġstate s
Trans ition
Over lay
Ã ª
ĠI gnore
ĠM esh
ĠLe sser
en ue
Ġre v
Ġd ummy
ĠS U
text it
pos ix
Ġexp onent
()) .
ĠÐ ´
thread s
L ang
z t
id ata
=( #\
D en
] *\
Î ¸
Ġv ol
get Or
Ġcon tact
Ġ& _
ip pet
79 3
5 08
k an
p aste
pack et
Ġbound ary
rece ive
S lot
editor Name
E v
Ġmid dle
( <
c uda
r at
In sets
ä¸ ľ
# ></
I m
V F
m art
st eps
ĠS L
enc v
Ð¸ ÑĤ
Row Box
Cur ve
wx STC
Ġder ived
H Y
c z
w ide
Ġre direct
65 47
Ġtrans lation
orre spon
real ized
dec imal
R ad
b v
w ater
la cing
Sk in
8 24
J s
] ])
Ġg ives
PR I
ĠWH ETHER
Ġmon itor
Ġpro du
Ġvar i
######## ####
Ġpr iv
ĠAn no
DR AW
707 106
Ġinstruction s
* ;
n ogc
Exp and
ĠContro llers
N M
f uture
Ġn op
ĠA m
SY M
slab s
Hel lo
Ġim mediate
ĠLI ABLE
k m
ë ¡
Ġv fs
00000000 000
58 00
Init ialize
b oost
P ur
Ġcomp leted
rd f
33333333 33
ĠCan vas
pro x
85 0
ĠJ String
Ġwrit er
ot a
?? ??
Ġ* >
ĠC P
De p
Ġunit test
posit ive
sig ma
atal og
[ #
o logy
Ġl d
94 7
Ġread only
spec ified
Or igin
215 4
A ux
P ane
h m
Ġ' &
ĠMessage Media
REF ERENCE
H AS
N Y
` \[
ĠS im
25 00
ID s
comp ose
Ġtext ure
Ġover rid
inc ip
D er
ĠR o
ser ies
Ð¾Ð ¼
Ġfin ished
1666666666 667
ĠBU ILD
L X
)) /
éĿ ¢
trunc ate
M RO
s pect
Ġp or
th reshold
ĠE q
la zy
ĠT ORT
Ġ} }}
pre amble
ann o
SET T
align ed
T ES
Ġm aking
Ġon Click
åı ĳ
LIBR ARY
vÃ½ chozÃŃ
j p
Ġt i
im it
28 57
7 34
x ref
se parator
Ġr map
EN S
ĠG en
Ġen counter
sub string
94 6
Ġconnection s
Oper ator
P aint
In c
10 44
02 1
äº İ
cor r
Ke ep
interr upt
, *,
en r
og ram
Data Type
Ġ20 18
Ġbet a
P IO
con str
ĠF lags
Ġext ended
ĠCONTR ACT
P x
Ġt c
frame s
ĠAR ISING
DESCRIPT ION
, ../
P V
Ġco untry
Ġstruct ures
8 000
{ :
ig rid
Con v
OFF SET
2277 660
V RR
h n
Ġin crease
áŀ Ķ
Ġattemp t
# >
D c
annot ation
Ġmark ed
ed s
Ġh ist
Ġde g
38 1
pos itor
)/ (
d on
ss h
ĠS ER
DIR S
5 88
ĠS imple
Ġl ift
Ġ/ (([
let ter
áŀ Ģ
dis card
])) /
Ġrep laced
Rep lication
M K
); "
be st
38 2
Ġsub type
limit s
Ġs eries
ĠP ower
src s
dat atype
5 28
a os
op i
ãĥ Ĺ
lear n
agn itude
V J
l on
com ments
cur ve
2277660 16838
an im
Ġc apture
Ġsh m
Ġsh own
5 44
99 00
75 3
Ġun set
scri ptions
Ð½ Ñĭ
" #
S ame
d j
á µ
ost on
ĠRe ason
ĠEX ISTS
Ġcl one
Sche me
+ '
at um
Ġ' ~
Ġco ck
ĠUse Runtime
ĠHE AD
ĠUseRuntime Linking
[ `
c ertificate
æ º
Ġ ĉĉ
it ution
ĠF in
\", \"
Ġindic ate
P OL
ĠG oogle
ĠW IN
Index ed
Ġhe ld
DI V
control s
Non Null
5 37
)) ),
Pri mary
XXXXXXXXXXXXXXXX XXXXXXXXXXXXXXXX
e z
ol ist
ĠPr ivacy
213 4
Tri m
CONT ROL
A w
R Y
Ġg as
ĠB r
out ine
68 75
>- </
p al
p ix
t re
~ \
st al
ĠD rop
ĠEX EC
vis ibility
umpt ion
( )))
f lip
ort s
sys enter
æľ Ģ
pol ation
Access or
211 4
y ield
ë ¥
Ġ" ../
Ġn x
Ġ' --
STR UCT
ëĭ Ī
é «
36 3
Ġ] *
ãģ Ł
ĠInter pretation
707106 78
\ ">
l hs
ar ily
Ġd igit
list ing
ĠU ns
21 00
efficient s
ìĹ Ĳ
g ro
p aper
Res ize
Ġper formed
po ch
MM U
Ġ[{ :
B W
h ore
n ight
Ġf k
Ġs urface
ent ially
ra ce
16 1907
EN TRY
default s
D rag
he at
Ġde ad
Ġget ting
Ġstd err
Ġref lect
date time
Ġoperator s
H ow
W arn
s an
Ġre cur
Ġre cursive
ĠI M
ĠM ac
Ex tended
67 1
Th row
Ġra x
TT L
; $
O rd
25 05
create Node
ĠEnc rypted
C tx
Ġfre ed
ĠJava Script
ĠFORM AT
4 65
K Q
w u
Ġs uggest
ap is
ĠD ES
ĠY ES
mov ing
æķ° æį®
pret ty
rece ived
aru co
70710678 118
8 333333333333
A CTION
b ian
d ig
ĠD r
(* ,*)
Ġdis claimer
Ġmod ifier
Ġsepar ator
D N
y o
up s
ĠN ull
58 9
ĉĉĉĉĉĉĉĉ ĉĉĉ
66666666 6666
G Y
_ &
sh rink
Ð¾Ð ´
Ġì ŀ
% .
Ġas set
Ġman ually
ĠOTHER WISE
LW G
ĠDest roy
, <
l sp
m ixed
25 03
Ġdo cker
46 2
Spec ial
l ision
Ġw atch
"," "
Ġcomp atible
67 2
Ġmod ification
Ġlink ed
* [
Z h
at ives
ĠD M
nd k
67 0
Ġtra iling
% >
f ly
Ġre comm
red irect
'), (
yp ed
ìĿ Ħ
sv n
collection s
Ġc li
Ġ1 07
em o
ĠD IM
,,,,,,,, ,
/ ****************************************************************
N ING
e u
t utorial
Ġs ing
Ġend s
59 7
dim s
Su cc
Ġregister ed
MAC H
Ġqs Tr
C os
E ta
_ ("
tr i
ĠO b
CH ANGE
ĠNE W
re start
ph en
include s
cs name
J o
T OD
e qu
f z
pur ple
5 78
v or
el s
Ġ' ')
ĠM o
can vas
ĠAt tribute
Ġocc urs
ĠUs age
4 18
f P
Ù Ĩ
Ġs amples
Ġtr ansport
Hot key
C AT
H ard
} ^
ĠS B
ĠM ay
": [],
art ifact
Up load
Mon ad
orph isms
4 19
n j
Ñ Ħ
var name
77 0
ĠCon nection
èĢ ħ
---- ---
ĠSet up
P lane
Ġr pc
OT E
". }:
Gener ate
éĺ ³
Ġrespon s
ä¸» ç®¡
et y
\" "}],
Ġproduct s
AAWwAAWw AAWwAAWw
g al
g amma
Ġt ax
el i
ãĢ Ģ
Ġarch ive
maj or
p ayment
Ġn or
Ġ1 01
th rows
ĠL IB
ĉĉĉ ĠĠĠĠĠĠ
CH O
WR AP
sequ ent
positor ies
DE ST
mod ify
t fa
Ù Ī
la ve
Ġb asis
20 50
ĠD R
ĠD atabase
}, "
Ġcomp atibility
PI X
ĠPR IMARY
Ġl if
85 4
lace ment
fil p
Privacy Key
H ASH
N ON
h da
de coration
ac er
are n
ĠCon tact
pk gs
Pack et
V DB
è Ī
re vision
ĠS A
Ġ5 12
Code Type
sol ve
as n
ĠN B
ll vm
é ľ
ä½ ł
labor ation
ĠInterpretation Box
Ġf ully
out line
CU DA
Ġproper ly
P ART
u o
es ome
end ian
LE CTION
Ex amples
arch ar
Ġass ignment
Sub Object
B US
on line
ĠR andom
25 02
Ġobject Type
fail ure
" ].
Ġ 000
un iform
ce eded
Ġ_ }
Ġint ro
DI P
ĠPro duct
WARN ING
F H
S in
all en
IN STR
Ġ20 19
mid dle
4 33
S ig
ic ult
Ġd word
ĠH ere
Mod ifier
uby te
%%%%%%%%%%%%%%%%%%%%%%%%%%%%%%%% %%%%%%%%%%%%%%%%%%%%%%%%%%%%%%%%
bal ance
i q
in lin
ang er
Ġcomp uted
Ġcount s
ĠIter ator
D MA
in use
Ġ* =
ĠC M
mo b
CC ESS
58 7
( ()
u an
Ġy ang
45 2
Ġlog ic
Ġref resh
å° ı
DIS ABLE
ĠBO OL
sp awn
ĠThe y
app ings
à´ ±
output s
GR P
LAB EL
ĠUP DATE
5 95
S ample
b q
w br
Ġt ick
ĉĉĉĉ ĠĠĠĠ
ik i
<= &
Ġconvert ed
Ġ question
Ġl p
ĠCon trib
Imp lementation
Ġocc ur
ĠSt ack
call s
>> ,
,--- ,
7 36
[ /
b ib
Ġm er
Ġal ert
78 3
Ġ", "
spec ifier
Ad just
Ġman ager
Ass ignment
Ġ'+ '
5 18
D ialogs
ĠS kip
ĠC SS
ĠF ix
(" <
To ks
EX TRA
ar a
it is
me sh
Ġne ar
filter ed
pri or
Mem bers
Ġpur poses
çł ģ
5 19
Ġd ro
ĠT ick
ĠC enter
te am
bu ilt
US B
Ġrece iver
ĠAc count
ĉĉĉĉ Ċ
Con tains
49 0
ee ded
PAR AMETER
Load ing
<< "
M AN
Ġh ide
Sup press
ï¸ı |ðŁ
¸ °
Ġn b
il ine
ĠAt tr
..\ ..\
B s
ç ³
Ġiter ator
/ '
4 25
8 99
> {
I W
n am
v w
Ġp en
ĠP DO
IN CLUDING
ee e
Line ar
ret ch
vis or
* }
B Q
in p
ĠF F
Ġexp ires
Up d
ali ases
ĠDef ine
6 000
D ispatch
K otlin
Pro j
inner HTML
åĽ ŀ
/ -
c ity
f atal
ign um
imp lement
45 1
HO W
Ġcontrol s
dn i
æĶ¯ åĩº
D G
Ġ Ã©
ĠR GB
Ġde tected
500 235
ĠSup port
T ail
c raft
Ġth us
ĠEx ternal
db c
DI ST
sys func
æĪ ĸ
quot ed
æ¨ ¡
00 04
Ġ@ {
pro blem
Stream ing
Num eric
/ ",
5 24
Q o
g f
z d
in crement
Ġsp in
Ġ'/ '
lis her
F x
F ULL
r h
Ġ' )
Ġto uch
ĠR ender
lv l
GLOB AL
4 09
s lf
Ġr atio
ãģ ¦
Ġbit map
4 35
R K
o sed
è ·
Ġ' *
Ġh our
13 04
ĠW orld
PRO JECT
NE CTION
j x
æ ĵ
od ing
ind ic
ĠCHAR ACTER
çĦ ¡
r dd
ov y
ater n
Ġ"/ "
sl ub
@ ,
N Z
} };
se mp
Ġc redentials
Ġ- *-
ĠF low
Ġchar set
) |(
H EL
json tag
ho use
Replace ment
7 25
Ġ á¼Ģ
Ġt xt
or ical
Ġp i
ĠM edia
Co ver
Ġdef er
36 2
47 0
ug ht
UP tr
Ġloc ale
Ġeas y
4 24
H OLD
L ER
05 05
SE Q
ĠY OU
Ġpart itions
VER AGE
ÑĢ Ðµ
11 24
Ġsh ot
68 0
CH R
Ġnon ce
pri mitive
Act ivity
Wh ile
cell s
Run ning
jo urnal
Ġc m
Ġa verage
95 2
valu ate
gorith ms
Ġattr s
lastic search
ĠUnivers ity
Ġ1 30
ĠT Qt
up les
IF O
ĠEND LOOP
Ġaccess Type
G fx
Ġt m
Ġqu ant
mod al
Ptr Size
":[], "
= #
C String
d ar
99 2
Ġk ube
Ġpoint ers
Ġed i
å· ¥
Ġpur pose
A ug
tr ansparent
ĠF A
ph ys
go ing
PH A
Sec ret
Rout er
J i
P s
Ġt ol
Ġ= :=
ĠC ard
22 14
tt k
54 9
Ġsub set
Top ic
245 14
N b
re served
Ġus ually
En tries
54 6
ĠRE DEFINES
ĠDE BUG
Ġmov ed
Ġview s
tech nology
ĠPDO mapping
5 15
5 04
5 60
Z a
} -
Ġl r
LE SS
do branch
platform s
J D
Ġa f
ĠR X
om ial
By Name
Ġcal c
F i
R Q
Ġa way
il de
ĠS N
tr ail
At trib
Ġ'. /
K K
Ġb undle
ĠN atural
ĠL DA
tt l
87 6
Ðº Ð°
Ġpack et
E O
c id
n pm
Ġc ent
me try
lo p
ĠÐ º
ĠSh ort
ĠSh ould
>` __","
L AST
s amples
á ¶
Ġp anel
ad c
Ġof ten
ĉĉĉĉ ĠĠĠĠĠ
In trinsic
S X
Ġ1 08
Ġet a
ĠS erial
us pend
07 2
not ifier
RAN CH
wr t
Ġlook ing
[ ])
it a
Ġ1 17
AT T
"," |
DE SC
Ġpun pck
6 35
æ ·
co ff
ĠS ound
comp at
Ġsub Index
ĠContro ller
hem atic
G U
ĠG OSUB
Ġ! ~
log ic
Ġ20 10
Ġtry ing
Ġclo sure
PY THON
Clip board
i om
u w
Ġp ress
con tinu
sub scribe
Com bo
Pl us
' m
d ash
ãĤ ¢
Ġcorrect ly
c amera
Ø ¯
ĠH it
ore d
it able
ab out
ENT IAL
igh b
Ġmat ched
Ġreplace ment
F Y
X ilinx
ĠU SA
Ġ~ ~
Dis card
A h
ĠT itle
66 1
av or
Ġsepar ated
adv ance
7 06
Ã ł
Ġs ender
RE AL
Ġnew J
Ġ"@ ",
2 0000
on y
Ġr and
tt i
man ifest
FO UND
Ġretrie ve
8 04
G dk
e ss
k n
w ill
Ġper mitted
Ġmo ment
havi our
I AN
98 0
Ġqu it
Ġvalid ation
åŃ Ĳ
C ref
T ASK
m h
p ll
co v
ĠD own
ĠM ore
Ġauth orization
o od
ĠE V
Ġwh y
ĠRe act
br and
UM N
åħ ³
/ +
L R
_ @@_
ì Ĭ
Ġn nk
Ġ1 09
ue abi
ers hip
Ġ` %
44 2
gn ueabi
run Cy
Back end
4 30
M i
ue ss
"> >,
ĠX XX
ĠVar iant
wik ipedia
omin ator
ATTRIB UTE
Ġ\ '
Ġl b
66 3
44 72
æ² »
4 29
5 13
F MT
re write
Ġf r
em ents
ĠF ixed
Process or
5 10
M ultip
Ġw all
ĠP RE
Ġh f
EX PR
89 44
Ġlook s
ĠDefault s
G ray
k p
u str
Ï ī
Ġc urrency
ĠR out
F ONT
Z oom
ER IC
18 75
UT ABLE
Loc ale
è¿ ĩ
4 27
r data
æ Ħ
ĠS che
ix O
CF G
Ġ"# {
ĠM ouse
SE D
78 00
ĠThe me
pri me
Valid ate
ĠRedistrib utions
Indic ator
= `
V s
{ },
const ants
F IND
ass is
UN IT
Element Type
encode d
ENABLE D
4 11
F d
I i
19 89
ip ient
Ġwe ek
Ġ"\ \
Ġ20 11
Ġmark er
ĠGRO UP
: *
Ġp kt
pro per
MEM ORY
:: _
ĠĠĠĠĠĠĠĠĠĠĠĠĠĠĠĠĠĠĠĠĠĠĠĠĠĠĠĠĠĠĠĠ ĠĠĠĠĠĠĠĠĠĠĠĠĠĠĠĠĠĠĠĠĠĠĠĠĠĠĠĠĠ
(' %
(' /
36 1
à´ Ļ
Ġgener ator
cap s
Work er
chron ous
Z W
ĠT EXT
vent ory
Ġman agement
Ġabbrev iation
v endor
} })
é ħ
// -
Ġcon t
res ize
SC AL
Chat Photo
direct ories
i ence
Å Ł
se udo
Ġd l
all ery
Ġcon tract
85 6
Ġauth entication
Ġlock s
ĠC MAKE
Ġg zip
ise s
IR Q
\/ [^
ç³ »
F W
s pe
---- -
co exist
iv ated
ĠM AC
68 2
Ġ× Ĳ
tool chain
á¼ Ĳ
ĠSpark Context
P erson
× ¢
st ub
ed en
Ġ20 21
EL M
R ULE
Ġl da
Ġ2 50
use package
Ġon to
RE L
ansp ose
ĠAR CH
asci i
8 09
p lat
Ġc string
24 00
vert ex
counter s
æģ ¯
é« ĺ
de legate
ĠS PAR
ĠW ide
act ivity
CP P
FB X
ĠAct ive
ë¡ ľ
5 000
Ġa ffect
ĠL P
DE S
Ġle s
ĠRe set
Ġhand led
70710678118 6547
4 39
C ir
E lem
å ģ
ĠL M
ĠB o
Ġreg isters
Ġdir ty
DD R
åħ ¶
Ġhigh light
C ull
ĠA F
od ies
om ite
áŀ ĺ
SL UB
E V
---- --
ĠS ys
ON CE
64 1
ip h
Input File
rypt o
std lib
ĠAR M
N n
j et
ch or
ĠP red
ĠR untime
Ġse l
upb defs
G OTO
M ay
U A
l q
Ġt sd
Ġf raction
AG A
Wh at
Loop Field
Ġinte gers
B eta
Ġn k
Ġ* (.
Ex perimental
Ġj o
77 3
Ġ× ĳ
R ank
Ġre pro
AL LE
25 01
not hing
æ² ³
++++++++ ++++++++
omite mpty
A ffected
u z
ì §
Ġ1 02
74 00
Gener ator
Ġnormal ize
Rect angle
ĠAnd roid
= ',
ĠT LS
to uch
å® ¹
Dec imal
I mm
l ated
Ġr gb
ty ped
De precated
lect ric
tern ate
Ġlog ging
O X
] ?
s nd
de tect
Ġ1 03
Ġm al
19 76
Ġj Query
Not hing
Ġext ensions
2020202020202020 2020202020202020
FBX ASC
Ġ* );
5 32
J ul
11 44
ĠD irectory
Ġapp lies
Ð¾ ÑĤ
ĠArg uments
5 69
K P
L ANGUAGE
â ĸ
ê ³
Ġb c
22 00
ĠJ s
MA STER
Encrypted Chat
YST ICK
Ġappe ars
ĠD UP
mo e
37 1
79 0
back up
Ġformat s
ĠBy tes
j ni
ì ļ
Ġp laced
Ġs izes
06 3
SC REEN
Hash Map
Ġevalu ate
6 17
U r
Ġ ĉĉĉĉĉ
ot ype
ĠP romise
add var
ĠIn Str
AD R
ãĤ ·
"/ ><
r nd
id a
ĠP rev
Ġch oice
54 7
pi ct
Ġrot ate
grad le
# ;
D id
V y
[ ];
x n
x chg
è £
st icker
cl j
Con tract
ong o
Ġen c
Com ments
Ġ Ø§ÙĦ
me ga
ĠT RAN
20 24
Ġ3 01
Ġ^ :
ĠComp lex
JO YSTICK
or a
ĠF ail
message Media
tl b
Fore ground
ele ms
6 34
s urface
Ġm ul
Ġ: >
ĠF D
(' .
55 47
IFI ER
4 38
O l
è Ĭ
Ġde ps
ĠĠĠĠĠĠĠĠĠĠĠĠĠĠĠĠĠĠĠĠĠĠĠĠĠĠĠĠĠĠĠĠ ĠĠĠĠĠĠĠĠĠĠĠĠĠĠĠĠĠĠĠĠĠĠ
Ġj av
men us
K L
T w
t body
Ġd m
am d
99 0
res olved
Ġwait ing
S CO
In to
pro mpt
68 1
pl ane
ĠSet ting
FI LL
8 98
B lack
F G
V ehicle
m ux
ex change
ĠP ayment
dir name
ĠAn im
Ġrow id
Document s
SD K
avig able
B lood
S heet
at o
Ġc ut
Ġre levant
ff i
Ġsh ipping
ãģ ķ
, _,
4 16
Y ES
Ġcontain ed
ĠST ANDARD
Ġtrain ing
W ER
Ġc um
ext ended
64 00
Ġlo ss
Ġext end
FIX UP
ĉĉĉĉĉĉĉĉĉĉĉĉĉĉĉĉ ĉĉĉĉĉĉĉĉĉĉĉĉĉĉĉĉ
credent ials
5 45
Ġ ])
Ġf loor
ĠS D
one y
check sum
COR E
. """
× ĵ
ot on
AT ER
88 7
Ġ---------------- ------------
ĠTE MP
F etch
V D
g ender
di gest
Class Name
les i
T LS
Ġt tl
Ġ( >
Ġc amera
loc ate
ant iation
INT EL
áŀ Ł
ĠRA ISING
navig ation
5 14
re spon
Const ants
normal ize
dest ination
ADD RESS
Ġpixel s
! \
CT ED
44 1
ĠRe present
dr v
opi lot
C amera
heck ed
Ġpre d
Block s
sc en
open ssl
Ġ'+ ',
C AN
Y r
l w
Ġr df
Ġpro f
RE QUI
Ġ4 228
75 1
ec ar
89 6
ĠEX CEPT
exec utor
tool tip
az y
à¦ °
ĠRight s
ĠASC II
% =
B io
u de
Ġto ggle
iv ot
ENT ER
aut opilot
Sched ule
. âĢĿ</
B al
e i
æ ¥
ir l
Transp arency
ecar lesi
s he
Ġp ic
un ct
ĠA utomatic
(" $
OPT IONS
ĠRO LE
Ġcon e
Ġadd s
ĠSt atic
Ġissue s
è§ £
I cons
P ATCH
S oc
i L
Ġblock ed
TI AL
through put
4 32
F r
Ã º
Ġp an
Ġ1 15
LOC ATION
Ġplugin s
éł ħ
( ~
/ $(
7 32
C ATE
R en
| .
Ġpro cesses
ĠCO UNT
Ġopen ed
Ġsn apshot
IBUT ORS
Replication Info
W arnings
p ayments
ĠM ix
Ġg rep
ms ize
ph otos
parent s
Ġsched uler
Completion Result
e ven
w ake
ì ĭ
up stream
ĠF ire
Ġlo gs
ific ant
Check s
@@ @@
Ġmacro s
4 98
F ar
F ragment
O DE
[ _
e ch
Ã ¨
ĠP eer
qu o
pro b
.. )
ĠV ideo
pc g
EXT MOD
Ġstat istics
Fore ign
n ullable
Ġm orphism
ry stal
Ġcomm unic
9 01
al gebra
ot imes
([ "
C W
e very
Ã µ
sh utdown
inter active
SO CK
ĠTag Box
Argument Exception
Wall Paper
4 78
k free
Ġb b
Ġb io
unt u
07 00
012 000
474 2
Ġemission s
5 22
6 28
Ġre ject
ĉĉĉĉĉĉĉĉ ĉĉĉĉ
ĠCh ild
Ġmean ing
ĠAli as
h g
ç ķ
Ġ lab
Ġ" |
Ġre sp
ĠR a
AN N
,,,, ,
See Also
ĠComm on
ograph y
' \
K G
P t
P INS
f ed
i ro
IN X
79 2
Channel s
ĠAD V
4 36
5 11
F it
T ITLE
` ),
Ġt v
ĠA CTION
ir ing
04 3
Ġsp awn
Auth or
H ours
P AT
g rep
ĠE OF
Ġe c
Button s
Ġproject s
Vert ical
Ġarbit rary
4 28
D ays
de ad
Ġl lx
99 98
de leted
Ġp cg
ĠI llegal
SE QU
ĠSh ape
chan ism
I ssue
d id
å Ĥ
per cpu
Ġclient s
245 13
ĠLo ck
Ġprevious ly
Ġhapp ens
& #
b roadcast
Ġ1 70
Ġ` $
88 0
request s
å¤ ©
åį ķ
éľ Ģ
S to
en k
tr ap
Ġst mt
EE E
Ġindic ating
Profile Photo
Lear n
+ :
C apture
M G
Q R
} (\
al g
Ġch art
SE L
à´ £
ED URE
istr ator
Ġ>> =
ier archy
Ġpass ing
, __
5 75
o ss
Ġv a
to oth
user content
format ter
connection s
pear ance
P N
} ))
07 3
Ġdate time
LIB S
depend s
4 12
_ {\
à´ ³
Ġgo al
4 99
7 24
U F
Ġs af
ĠC LOSE
op encv
ver ity
09 3
gr p
ãĥ Ĩ
Ġconfig ur
Ġag ent
å° Ĩ
G PU
I o
M N
b ic
c amp
CT OR
h v
t ui
y cle
Ġ1 40
24 74
48 3
Pred icate
S an
S afe
Ġt reat
Un able
æľ į
pg as
ĠSpec ial
ÐµÐ½ Ð¸
c ite
l k
re cent
Ġf c
33 00
ide d
right s
ĠCO DE
199 3
ĠN ON
Ġg amma
sort ed
spin lock
Ġappro x
Ġer lang
Allow ed
ĠVER SION
q i
in cr
Ġre ached
ĠB ASE
(" [
order ed
OP ER
Ġpri mitive
m irror
Ġs ervices
Not Null
Fe ed
AABbAABb AABbAABb
Q Y
Ġ" ");
Ġf il
id ing
ĠR UN
ĠB ody
pro tect
ST D
èĩª æ²»
Ġseem s
re di
as an
Command s
semp os
c df
Ł ³
he t
List s
ĠEx tract
ãĥ ©
Ġframe work
ĠSyn tax
g mail
l ations
se par
Ġ' </
ĠM icrosoft
ens ive
åı Ĭ
su ch
< $
h om
ĠC ACHE
Ġup on
INT ERN
bor ing
rient ation
7 14
N EXT
T v
j ac
ĠW ait
und o
Ġlimit ed
Ver bose
Q B
Y our
j b
ST AMP
sh al
UM ENT
For ward
temp t
(: ,
Bo ard
ĠEdit able
] ="
v ale
Ġin verse
Ġto k
pre p
à§ į
Ġparticip ants
4 94
E e
O O
n able
ar ound
Ġz eros
Ġinst anti
D W
c am
19 00
lat er
gr pc
Ġper mit
velop ers
uro pe
4 67
Ġ ----------------------------------------------------------------------
ĠT Custom
Ġth reshold
ĠA bs
sp i
Ġx x
Ġpro blems
log ging
Rem ain
!] !
C g
Ġ} .
vm f
run s
Ð½ Ðµ
Qual ity
8 08
P ad
c as
lo opy
Ġ* ;
READ Y
Ġsol ver
ĠPAR AMETER
Ġoptim ization
Ġin str
co mes
Ġw ater
Ġr si
EN U
23 00
åħ ¨
..... ?\
8 03
B AD
R V
T mp
Ġs cr
Ġin tern
ĠA ng
for ge
//////// ////
76 3
level s
BY TES
ĠÄ ĳ
ĠA ctor
55 55
igh ter
Ad apter
>> >
ig uous
Open VDB
Ġclo ud
ĠAuth ors
4 13
I J
s mp
pro gn
Ġex ported
Ġ16 0
(_ .
}$ .
ĠHash Map
è¨ Ń
, âĢĿ</
T M
et ime
Ġst roke
SE C
68 3
ĠTh read
start ed
9999 99
EMP TY
ĠSte p
inlin able
5 74
7 09
C la
e quiv
Ñ ī
st a
un s
lo s
Pe ers
ĠRES ULT
P ow
math bf
mut ation
Cache d
Ġscal a
8 55
E valuation
x z
Ġc f
ic ial
ve y
no logies
Dev ices
0 74
4 95
6 75
6 95
E Z
Ġch osen
cla ren
Method s
Dr ive
IS ON
Ġ(( (
char set
Ġbig int
âĢį â
L Port
N aN
en ant
str cmp
ie ve
Ġdup licate
ĠFunction s
Arch ive
4 37
g j
n ested
Ġs d
up case
Ġx si
Ġvar name
Ġlist ed
Ġthere fore
ĠNet work
s id
ar f
Ġc ert
Ġm ajor
pl or
/> .
Th reshold
SL OT
ĠNS String
" $
R and
l ite
app ers
ãģ Ĩ
IF N
ĠGener ic
å° ±
9 78
J X
g iven
s ender
Ġn av
Ġre ports
sh p
MP I
ume d
CRE MENT
FUN C
+ $
4 22
T G
m w
ed u
Ġme trics
lin enr
ĠSe cond
AUT O
$ -
4 01
7 35
p q
ĠG ithub
fl ight
ĠIS O
à¤ ¨
Image s
Ġ** /
REG ION
Ġ") "}],
cu ssion
ĠMem ory
pan ic
A rc
W Script
Ġin out
pp p
fd s
Ġlar ger
P Q
Ġre load
ot ed
Ġde coder
ĠD er
12 64
Ġr x
Ġex ports
ST Y
Ġon line
Ġco mes
Block ed
sup p
ĠValue s
ç½ ĳ
ĠâĪ Ģ
M acro
Ġbe come
14 74
cre asing
Ġover lay
Ġra ce
æĹ ı
<% =
ĠNUM BER
ĠEng ine
6 22
A mount
B ridge
M ID
h z
Ġm appings
0000 3
ag ue
65 1
48 2
Update s
ALLE L
D AY
t im
99 958
ov ed
Ġli ve
Ġla pp
Ġdepend ing
åĽ ¾
ad itional
ĠX X
93 75
Ġ[] ),
dim ensions
************ *
Ind ices
TOD O
éħ į
F lash
K X
g res
se ctor
Ġ1 84
count s
Label s
Ġparticip ant
ĠHOLD ERS
Ġc ro
Ġf ifo
78 2
ced ence
Rem ux
Blood Net
[ #,
f ingerprint
ou g
ãģ ĭ
led ge
Pre c
ĠCheck s
B j
b ag
Ġin fix
Ġ* (
Ġ1 0000
Ġto po
Ġ5 26
lib raries
ĠÐ ·
âĶĢâĶĢ âĶĢâĶĢ
w ave
Key Name
COMP ILER
abc abc
BloodNet AGA
7 05
Ġp ayment
ĠD ET
32 98
min imum
ĠRe gex
UN KNOWN
Ġformat ted
Ġret val
SV N
ç´ °
T ake
W Q
ĠR ichText
ist ency
mat ched
)))) ))))
Ġstr ide
opt imize
bs d
199 4
ĠâĪĢ (
Z N
Ġex ceptions
Ġme sh
Ġar row
ĠTh row
Index Of
env oy
App lications
ÑĢ Ð¸
se x
Ġs f
end macro
lic ated
CO MB
Gr adient
ĠAb ly
M erge
de coder
ĠS mall
ĠT utorial
Ġpro grams
group Id
AM L
ĠSy nc
ĠApp ly
Ġsys fs
å¾ Ĺ
å½ ĵ
V itis
Z ONE
] -
t ures
Ġi i
Ġw ide
Ġcon str
[{ {
47 2
ump y
Ġes c
æĸĩ ä»¶
B roadcast
Ġde scriptor
obj tree
eq l
PAR TIAL
Ðº Ð¸
SU FF
éģ ĵ
Spr ite
- "
F U
c orrect
r man
w est
Ġd an
Ġg ro
Ġ_ ),
ĠJson Node
ĠSPAR K
ut ation
ĠS cal
Ex tract
Ġ6 00
Col lect
ud ge
Al gorithm
Ġwork space
Instance Of
æĶ ¿
çĽ ®
Software s
# )
) },
d ifference
Ġ[ #
Ġh ours
28 00
ng c
ĠText ure
Ġrepresent ed
Ġpol l
pro v
ST OR
Ġ) );
cro p
Ġclean up
4 0000
b la
Ġb ro
head ing
]( ../../
section s
LD FLAGS
bas ename
5 25
f ort
z st
Ch oice
Ġcalcul ated
g ms
n qp
z o
er ing
Ġre mainder
as cal
ĠH igh
rc slf
\\ \\
Ġprint ed
Encrypted Message
ĠSqrt Box
pgas erver
rcslf pgaserver
* =\
7 68
M en
f q
g row
Ġb ats
em ber
Ġ[ ']
os ity
ec ause
ET A
inal ity
67 3
åĪ Ĺ
NORM AL
4 23
7 17
S leep
x attr
ab b
IN TR
pl ug
9999 16
Ad ded
direct ive
Ġconf lict
S ql
l ar
m claren
n ers
Ġs itu
id o
ĠS cale
ĠW M
}, {
ä» £
âĤ ĭ
å± ±
SPE C
ĠRequire d
* ?
4 06
; ,
T ouch
s x
s izes
Qu it
github usercontent
Ġinsert ed
Pixel s
* {
U K
32 00
27 190
Ġout line
77 2
OP S
PRO GRAM
Ab out
Cl one
Privacy Rule
ĠDet ermine
0 125
E moji
G oogle
n op
n os
re load
Ġc red
== '
ĉĉĉĉĉĉĉĉ ĉĉĉĉĉ
cd n
å® ŀ
ĠLI ST
rad ix
RESP ON
Und o
/ ><
j an
ĠC I
ĠA ns
SER V
Ver ify
Ġcost s
ç¥ŀ çļĦ
L ambda
N eeded
V IEW
a mazon
p od
Ġ1 06
ĠS ans
ĠT C
ĠP ush
Ġde ep
ac s
ĠG uestfs
04 1
ail y
Not es
ik a
Ġanon ymous
7 27
f rozen
at ial
ed Panel
ĠS K
as l
us hed
Ġe bp
ĠO PER
03 00
cond itions
ĠPro tocol
dr ive
ĠCreate Object
ĠCH ANG
mclaren vale
b rief
Ġt p
Re po
ĠUn ion
ĠAN SI
distrib ution
C e
Q k
W l
ĠS ORT
and oc
ra ils
Ġexp anded
std io
ĠEd itor
Ġsem antic
Ġtid ak
me tab
od ate
Ġk s
cond a
Ġcol s
Sc enario
ĠSup er
ĠHe ader
Di ag
Accessor Method
ëĭĪ ëĭ¤
B all
m ing
u ss
Ġ ****************
el come
ĠS print
ĠA tom
==== ===
Ġdo Assert
Ġj obs
cho ice
Ġ200 5
hy per
8944 27190
E qu
p ay
å ķ
ĠS ched
ĠP E
======== =
Data JSON
trans fer
An chor
Ġop code
Ġhandle s
è® ¡
Ġequal s
Ġear ly
riter ia
# .
7 12
R ATE
T s
69 00
lib lock
No AccessorMethod
Ġmethods For
ĠSH MEM
135 954
ĠMax imum
hook s
5 64
N OR
f our
p ure
s lots
Ġex ceed
ps i
08 3
Property Name
Ġdefin ing
Ġlicense d
åº Ķ
345 000
4472 135954
894427190 999916
4472135954 99958
% _
8 94
< !
> ";
A O
M ail
Ġn id
Ġh mm
Ġas m
78 1
Link s
Ġì Ŀ
ë¥ ¼
8 68
h ort
ĠP attern
": #
ĠG PL
be low
))) ]
Ġbutton s
o a
Ġt aking
ĠT D
In crement
ĠL ight
os ub
sh all
ber t
26 9500
ĠEn code
C ity
E U
d in
Ġm a
ĠP at
100 1
pri m
Ġlimit s
Ġgr ab
illa ge
L IN
g host
co ordinates
ĠF S
key words
27 00
ME DI
View Controller
Ġph otos
Ġ× ľ
ĠOPTION AL
5 67
H Z
V oid
Ï Ĩ
ĳ </
te le
]) );
enc il
Ġ[] ).
cap ed
äº ĭ
199 8
Sw eden
VAR IABLE
OPTION AL
" '
9 000
R ename
o ssible
p ersist
Ġs pre
ĠL isp
99 3
ĠU SER
par allel
(' _
Ġ> &
ĠST ATE
7 11
P ending
_ );
pe ak
Ġj mp
Ġexp ansion
=> $
CD R
æĹ¶ éĹ´
arb age
ĠCONTR IBUTORS
SETT ING
B SD
× Ľ
ĠR et
ĠR aw
ĠD ynamic
av util
Ġenv iron
!! !
ĠAd ded
---| ---
I r
X N
a io
ĉĉĉĉ ĠĠĠĠĠĠ
Ġl and
ĠB T
Ġu id
link ed
sr Plugin
Ġfix num
inher it
Ġbats man
M otion
Ã ¸
ct o
for Each
Ġcur r
ĠMem ber
AU GER
ĠAssign ed
M AT
al ic
al ts
co al
ĠA z
ĠF ace
ak t
ĠK e
UN SIGNED
ob ile
serv ation
)? ;
Ġrout ines
Ġto String
99 1
SP AR
Be havior
Ġauth ors
crimin ant
4 26
E ol
j d
to o
add EventListener
Ġcode s
Str ategy
SH ELL
quot es
ìĿ ĺ
æĿ ĳ
æĻ Ĥ
E CD
O s
Ġd om
Ġget ter
ĠWh ere
u ation
Ġf aster
pre dict
ĠPart ial
å¦Ĥ æŀľ
IFN DEF
4 07
6 33
n ce
u u
Ġc v
Ġ' *.
ia o
An notation
au ss
Ġhold ing
" (
D llCall
h ls
i log
y b
Ġt cp
Ġ" $(
ĠC ache
as semb
Ġde velopment
ĠG dip
ĠH O
TH IS
ãĤ Ĭ
Ġmaterial s
> ".}:
R PM
è °
al ive
an alysis
de scriptor
Ġ20 23
Sw itches
\> \""}],
D EN
s mooth
z i
Ġn y
ĠT US
Ġfunction ality
Ġpos itions
Le g
áŀ ı
Panel s
DIRECT ORY
7 10
R G
h x
v ot
Ġ1 19
49 3
ĠCO M
ane ous
Ġtermin al
ĠEdge Insets
6 09
8 79
F f
h list
at ter
ĠC he
Ġif True
10 74
Ġint ended
áŀ ľ
Ðµ Ð¼
Ġstore s
7 95
D x
g uid
Ġh da
ord ers
å½ ķ
' ></
m ttk
Î ¬
é Ĥ
Ġre pl
ĠG T
Code c
Ġoper ating
go od
Def ine
permission s
é¢ ĺ
mttk rp
" &
7 98
b ro
Ok ay
T wo
co ords
Ġ$ ("#
ĠN kind
ĠW ORD
av ail
Pro mpt
ĠUn ix
fl or
expression s
I ce
er ve
Ġo cv
ol f
ĠD NS
Ġcon ven
lic es
St ar
Ġch anging
check s
ĠPr ivate
Dim ensions
~~~~~~~~ ~~~~~~~~
5 06
L G
S AS
m end
Ġs erv
04 2
Ġnot es
(( :
ĠSt andalone
Change s
\. \
Ġinterface s
Ġ"; "}],
ĠDI RECT
ĠINST ALL
5 16
7 74
B h
E r
M ultiple
N im
o ops
Ġm ention
Sub type
Ġrange s
ious ly
Spec ification
termin ate
Del im
Ġmerge d
Ġinvok ed
âĢįâ Ļ
Q l
f printf
Ġs pell
ĠĠĠĠĠĠĠĠĠĠĠĠĠĠĠĠĠĠĠĠĠĠĠĠĠĠĠĠĠĠĠĠ ĠĠĠĠĠĠĠĠĠĠĠĠĠĠĠĠĠĠĠĠĠĠĠĠĠĠĠ
par agraph
res ume
77 1
ĠSt ates
SU CCESS
ĠMan ager
æı Ĳ
L j
b dev
d ashboard
æ ¡
er ms
Ġc apt
ĠĠĠĠĠĠĠ Ċ
Ġp lain
Ġg oogle
ãģ Ĥ
igh bor
sym link
eps ilon
Ġsection s
Ġhand lers
fra ction
C b
E m
F lat
er l
al ph
** /
Ġs olve
Ġ1 25
pre ferred
En emy
Pr iv
ĠIMP LEMENT
æĪ ·
è¯ ·
ĠÃ ł
clock s
Ter ms
Ġrect angle
ĠRetrie val
boring ssl
S uggest
h mm
ĠS em
ĠT uple
ĠA mazon
ĠG ui
gin ation
24 24
ING LE
Input Stream
Ġspec ification
[{" \[
UP T
STR ICT
ĠPO ST
Ġquot ed
6 27
M a
M z
Data set
do or
Ġ20 13
ĠObject s
ĠIP v
ĠLog ger
Ġpipe line
DU CT
LET TER
' })
( ?:
f ork
p pt
tr usted
ĠC lean
13 94
24 01
à´ ļ
Ġcan onical
AND ROID
Ġ\\ \"
dip lus
Ġident ify
7 75
Y W
y l
ĠI PT
ĠC MD
con tain
ĠM EM
AN SI
47 3
12 94
ĠB L
Ġ! $
ĠIn v
79 1
Ġstr ategy
Ġact ivity
à¦ ¾
ĠSu ccess
8 06
Ä ĥ
ĠM id
ĠDEF INITION
' *
V H
ĠP awn
5 65
C ross
M is
M IO
ER Y
00000000 00000001
refer enced
Log ical
bt coexist
access ing
Ġrot ation
ä¿ Ŀ
Ġfall back
por ation
= ,
J U
u y
Ġ1 14
24 02
ãĥ ķ
record s
ARCH AR
ĠHex block
4 69
s quare
ĠT Thrift
Ġ' [
33 78
Ġ/ .
44 44
Output Stream
Since Kotlin
9 75
e o
h ind
h pp
ĠP HP
col on
comp letion
Sub subsection
/ ../
d ut
m z
al ax
)) {
Re fer
22 34
IT ER
Ġport s
0 66
Z z
ç ¾
Ġf ragment
ĠC U
Col lision
ĠCon tains
Ġla unch
Ġes p
å¹ ´
hand led
ĠPh one
j obs
n if
} ',
Ġl l
ĠW arn
ĠIN C
Un signed
Input Document
ãĥ ĩ
SS C
Sup ported
PROC ESS
æŃ £
9 69
V ol
p ause
08 1
Ġloc ally
Cal endar
802 11
h ig
v bs
} =
Ġs pr
Ġb t
Ġb racket
20 54
ac lass
PE D
ãĥ Ń
exist ing
çĦ¡ ç´°
çĦ¡ç´° éłħ
5 39
y our
è «
48 1
åĲ ĳ
sem antic
7 39
H o
M j
Q p
ĠĠĠĠĠĠĠĠĠĠĠĠĠĠĠĠĠĠĠĠĠĠĠĠĠĠĠĠĠĠĠĠ ĠĠĠĠĠĠĠĠĠĠĠĠĠĠĠĠĠĠĠĠĠĠĠĠĠĠĠĠĠĠĠ
Ġend do
06 00
46 1
AV X
éĩ ĳ
eli ho
n om
Ġt a
Ġc rop
Ġp ause
ib o
IC ES
ĠFor ce
Pol l
Ġsig ma
Ġsec ure
' |
Ġd md
Ġis a
od al
12 54
Qu ote
Or iginal
Ġ"; "
Ð² Ð°
================================================================ ============
9 100
F act
b ur
ê ¸°
19 88
cc c
ĠJ oin
App le
>âĨ ĳ</
_ ?
=" '
def var
ĠG PU
LE S
ick ness
,---,--- ,---,---
} `
Ġ Ð½Ð°
Ġc le
Ġc he
ĠP S
ĠP op
75 00
Ġ] ];
åı Ĥ
æ± Ł
ĠSTAT US
,---,---,---,--- ,---,
S dk
l h
10 18
Ġ2 40
Ġcon current
RE SET
ag use
ld ots
59 0
ĠPar am
Ġwrit es
help ers
I z
× Ĺ
Ġre vision
Ġh i
IT ION
ag ger
Ġlo ff
\\ )\\
He alth
B k
C andidate
s ures
Ġs at
Ġs ense
Ġb i
Ġ1 18
ĠA udio
Ġcon ver
Con tinue
UR CES
ĠAr abic
sk y
Ġtop ic
äº ĳ
Ġcur ve
direct ives
NB Ptr
Ġfe el
7 15
Ġthe ta
ĠP ack
ĠTH RU
ĠSec ure
ĠSW AP
8 11
D at
O V
b prm
en ate
Ġ1 74
Ġ1 21
sp orts
ĠB LOCK
lock er
ph rase
Key word
ĠApp le
pipe line
áŁ ģ
################################################################ ################
M F
j r
v u
Å ĳ
ĠT X
29 00
IS H
tax edge
ient ation
Ġsmall er
Ġlik ely
5 657
H UD
` $
le e
Ġre ach
ri ed
-> [
Ġ/ @
PP P
termin al
ĠPer l
B a
[ @
c annot
k ube
Ġp x
Ġth d
ĠB ASS
ard s
Message Media
ĠCell Label
Ġhow ever
ĠON LY
B OT
n pc
on ed
Ġ1 24
ĠD ATE
be a
96 3
idx f
Lim ited
Ġ< ?
05 00
49 2
ie f
Ð¾Ð ±
Cap s
5 99
G FP
N a
ĠT W
)) :
ĠD X
ec c
Ġkey board
Ġqu eries
Ġoccurre d
A nt
Ġa hk
Ġb er
Ġ# +
Ġ% *
sh r
let s
Ġal ph
est ing
O H
s uggest
ĠT ARGET
RE PLACE
(' $
Ġres olver
Ġdr ive
`]( @
< (
E mbed
F lip
Y u
z ucchini
=" ">
ĠP I
ĠD ay
oc c
ne cessary
PRO PER
sl ider
Ġrefer enced
E st
Ġp ayments
Ġb lob
Ġ' ^
ILE D
andid ates
ĠCal culate
ALT KEY
00000000000000 10
æ¥ Ń
redi ent
j y
th ree
mm ar
IF ICATION
47 1
57 1
valid ator
ĠSh ared
è¿ Ľ
9 66
C nt
Ï Į
de b
Ġo pp
ĠD oc
ĠB ad
ov es
Ġpre dict
valid ation
Ġcom bine
å® ¶
Ġman ip
Ġdr ivers
c xx
th an
ĠR ot
per c
ject ive
ãĤ Ĥ
tin y
ĠFI RST
ĠSe lection
Ġplace holder
INS N
AAAAAAAAAAAAAAAAAAAAAAAAAAAAAAAA AAAAAAAAAAAAAAAAAAAAAAAAAAAAAAAA
5 27
V k
t ik
å ¢
me l
Ġ1 31
95 1
config s
Ġ~ (
bit map
Ġhard ware
åĭ Ļ
'] );
NS U
Ġconf irm
^^ ^^
B oot
N x
Ġimport ed
ĠVariable s
\ (
Ġ gsl
un link
ĠL EF
64 09
Ġreg istry
åĪ ¶
Ð» Ñı
gp lot
4 60
S amples
} </
Ġ1 26
ĠB order
ĠO CC
AL PHA
Ġclass Name
IT UTE
Text Line
Ġact ivate
Source s
eric a
Ġcallback s
ãģĹãģ ¦
Ġf ire
Ġfor Key
ag g
Ġqu irk
84 3
Ġstr len
ĠDis able
G W
L inux
Ġ5 000
Ġ× Ľ
Ġio block
ĠKey boardButton
6 14
8 48
S z
or se
Ġp ref
Ġa ir
Ġn om
Ġh over
pro vide
Ġcomp ound
Par agraph
Ġgo es
DEP TH
I K
L ag
R SA
in finity
re cursive
Ġv p
ile s
col lapse
08 2
ore m
bet ween
7 65
b an
Ġin finite
ĠM SG
Ġse ll
Ġstart up
func all
Ã¡ s
Ġmo ck
And roid
×Ļ× Ŀ
ç¤ ¾
6 07
t ol
at trib
de limit
Ġun icode
AC L
"] ],
ĠDes cri
irm ware
Ġident ical
ĠAuto Spacing
icol on
Ġsuc ceed
æº Ĳ
7 20
D s
x in
set Generic
ĠB ound
Ġname idata
row se
so ftware
ĠASSIGN ING
@ [
re serve
le c
ĠS RC
EX TERNAL
Be low
dat as
ureValue Error
A ff
C ROSS
D ig
r um
DO UBLE
Ġag gregate
æ´ »
R N
T ap
V IR
b asis
Ġ- }
ĠS he
tr action
Ġan im
áŀ Ĭ
fl ux
Ġacc ur
BL ANK
latex release
C a
W atch
re w
ar able
ce stor
Ġpro of
Id le
UR S
Ġmin utes
mov ed
SC AN
RC U
Sw ap
Ġvector s
Ġdoc s
Ġcounter s
! >
B H
M J
r z
s un
ĠE S
read able
Ġup d
86 3
Act ivate
H our
P ix
k ubernetes
p ins
q g
è ª
ĠF lex
09 2
Ġvis ibility
Ġ33 957
Ġeffect s
hw nd
/ __
H old
t g
Ġd ns
con tract
ĠN at
ST M
Comp osite
[^ &
ĠData Type
Default s
Attr s
PAR ENT
4 79
B anned
^ {-
j w
m ma
Ġwh itespace
UN LOCK
76 2
clar ator
ĠCL K
plor er
6 12
M agnitude
st one
In ner
In Panels
ĠF actor
ĠE kind
Ġcomp ression
)( ?
$/ )
ĠPer mission
9 15
B ut
is or
pre view
LE lement
"," \
emp t
Start ed
Wh ite
Auto Styles
VV V
: `
D om
e lasticsearch
de ath
ĠC ap
em ale
Ġl in
ĠU T
cap ital
Ġyear s
ĠShow AutoStyles
IZ ATION
hot key
AAFsAAFs AAFsAAFs
ĠCor poration
D OT
j peg
x ray
× §
Ġn g
sh ake
ree k
************ ***
Pa lette
æ¬ ¡
gls lang
5 26
B RANCH
L u
d raft
Ã ¦
Ġ= ================
ge om
ĠP Node
Ġ, ("
"] ]
Ġstr m
bus y
Ġclip board
, /
u ced
ct r
out come
are s
man aged
PI PE
Ġph ysical
ĠWh at
ĠÎ ´
Dest ination
ä¾ ĭ
2 164
B rowser
I LL
al a
al ter
Ġf req
ĠO VER
19 87
ser de
:= ",
font s
NOT E
ĠStr ip
Ø§ Ø
ĠGraph ics
O E
c ms
re ng
Ġ' :'
im in
af ka
obj c
Bu iltin
áŀ ¢
Ġspecify ing
7 18
c group
p aint
ad os
comp iled
Un safe
CON F
Ġ"] "}]}]}],
Ġcons istent
æĺ İ
1110 110000
ĠFl utter
J un
S loc
g diplus
er g
it to
Ġf b
ot or
ab et
03 1
man ent
ular ity
Ġorder ed
Ġaccount s
fr m
Valid ation
mob ile
ĉ ĠĠĠĠĠĠĠ
ĠD ialog
Input StickerSet
$$ $$
Ġfore ign
Conn ector
" ->
h ol
Ġp md
Ġin coming
int el
con cept
ill s
comp any
ĠCon verts
Ġmov q
istrib ution
ĠAn alyze
Ġrender ing
ĠTe am
ĠOpt s
ĠSPE CIAL
allen ge
D IG
I mg
v illage
Ġd out
ate ver
10 11
66 00
lab ility
éĻ ¢
Ra ise
D igit
Ġm ail
em ons
******** ***
Ġcon j
à¤ ¿
PACK ET
Med ical
SUP PORT
ĠRepresent s
1110110000 010000
6 38
Y i
Z ip
": /
ĠB inary
ĠĠĠĠĠĠĠĠĠĠĠĠĠĠĠĠĠĠĠĠĠĠĠĠĠĠĠĠĠĠĠĠ ĠĠĠĠĠĠĠĠĠĠĠĠĠĠĠĠĠĠĠĠĠĠĠĠĠ
23 54
Ġun iform
map hore
88 5
UR NS
host s
ĠRem ote
track ing
ĠSp ace
foot note
Sn apshot
8 78
G l
N z
n q
p ud
lic a
49 1
ĠRE PLACE
ops is
C ookie
G NU
Ġc as
Ġ1 12
is ation
ĠT Jv
Ġ% .
DI M
56 3
Al ways
IP S
Ġglobal s
Ġsem antics
) ";
7 22
M andatory
T i
T oo
b read
k d
un pack
12 74
(" ${
nt il
print k
DO C
EC B
Act ual
Ġ à¶
Ġ1 11
ri st
oc used
mb v
88 4
Ġ<< "
Ġdocument s
Ġ200 8
Layer Entry
ivers al
rel ated
ĠHel p
orrespon ding
N Q
v irt
å ĥ
Ġe fficient
ser if
CH ILD
Ġrequire ments
Ġshow s
ii i
8 15
P romise
S ink
_ `
Ġ1 16
)) +
ul ative
ĠR T
up er
par sed
Ġcr qp
ĠReg ular
Widget s
invalid ate
Ġdep loy
menus Okay
menusOkay InPanels
' ")
8 65
B J
æ Ł¥
ĠB oston
Ġlanguage s
measure ment
å± ħ
ĠBack ground
Disp lacement
C LOSE
N H
c log
r ating
v q
v fs
z ed
Î Ń
or ach
Ġf igure
ĠB ar
Ġen emy
comp ressed
OT HER
Lo gs
adi ents
Ġcom bined
ĠSe quence
cb las
Ġjust ify
Ġsend ing
á½ ·
ĠSw itch
. @
E val
W ire
j query
Ġre strict
ĠF un
Ġst ickers
AT AL
Ġch o
OS S
CON TEXT
iter ation
ĠAdd s
Ġexec utor
Ð¾Ð ¹
Ġframe s
------------------------------------------------ -
Lock ed
fil led
oh n
Pin ned
Ġbal ance
X s
b idden
m ine
n ment
» ¿
Ġ" :=",
Ġa ac
Ġ1 37
ĠS croll
Ġx m
") :
Ġval s
]} ;
bit ops
ĠÎ »
è¾ ĵ
O ps
P END
a json
ê ²
Ġc ss
Ġb and
and box
ĠA nt
Ġbe comes
15 54
Ġag greg
ins ide
199 7
ĠVer ify
Ġprefer red
N W
s at
Ï ĩ
ir th
Ġe ver
98 1
Al go
cs r
Ġarch itecture
in formation
th ere
ist a
sh op
tro llers
Ġsign ificant
ĠST C
tfc flor
Ġdetermin ed
"""""""" """"""""
Ġkw args
tfcflor ae
R H
T ube
w y
or av
ĠI E
Ġal ter
65 74
Sh ould
57 0
]] ]
Ġtemp erature
BO SE
6 03
G MS
Ġm ind
av c
Ch assis
98 3
57 3
Ġread s
mod ifier
`, `
-------------------------------------------------------------------- -
LIC IT
OBJECT S
) ';
6 11
F atal
Ġc ourse
Ġs ink
Ġn n
ĠI G
Ġ< #
ib ling
09 09
87 0
dis j
Ġmode s
ĠError s
ĠEN G
Notify Peer
I EN
d ct
j Query
Ġde tail
qu ick
(" _
ĠK ind
Res erved
[^ >
Ġencounter ed
P lain
y an
Ġb p
Ġsql ite
N y
S ing
x m
Ġs g
ad ic
ĠF inal
IC ON
\\ \",
ĠÐ ¼
Man agement
---------------------------------------------------------------------------- ---
Integr al
q k
ra x
ĠB ook
Ġpro g
Ġal u
26 00
AM D
Ð¾Ð ³
ĠSP DX
bor row
æĮ ģ
ĠP lace
Ġr dd
ĠB f
ALL Y
cons istent
Sign ed
Ġ329 17
% )
E kind
W EB
s ensor
Ġc lang
Ġm us
IN ER
min or
Ġz oom
Comp uter
--- @
ai lability
As set
600 219
Ġprop ag
Ġul ong
8 16
Y Z
h am
Â »
Ġ --------
Ġc ookie
Ġn c
Ġ: $
Ġlib x
request ed
æĸ¹ æ³ķ
Ġing redient
ĠLEN GTH
ame tric
ĠS plit
et her
Ġ) {
Web Page
ï »¿
de mand
ur r
ĠP refix
ĠN R
get Value
ĠDE ST
Ġvm linux
GR A
199 6
Ġcir cle
/ :
C iM
F eb
j u
str ide
ĠD atum
000 8
Ġ; #
94 3
IGN ORE
Ġes i
uest ion
D ump
P ID
m Type
è İ
Ġm r
use Scene
com bine
AD C
40 101
Ġsub sequent
IO C
Ġra m
ĠAdd itional
CU ST
Ġnorm ally
useScene Config
L Z
R Z
T a
f rag
h ours
IN CREMENT
TH READ
Ġmov ing
Ġstandard Generic
166666666666 57
incip al
5 23
V a
s ma
Ġf riend
is set
Ġ' |
ĠF LOAT
AR IES
Ġ% +
35 00
ep och
++ ,
CON S
lt as
ATION S
600 352
Ġ"- "
COMP ONENT
rw sem
ĠTensor Flow
0026 87
SUFF IX
s alt
er ase
co eff
05 3
29 87
vert ising
Tool bar
bic ubic
6 06
L ike
g ait
z m
od d
Ġg lob
fo reg
Ġbuild s
ĠComp ile
(. *)
ĠTele phone
tod o
R oom
o X
Ġ# $
Ġy r
}{ $
áŀ ¸
}} %
Ref resh
?? ?
scr atch
ĠDM US
% ";"$
8 34
M IC
d ue
re nd
st ic
10 80
Ġr id
sc aled
(' --
38 00
Ġso ft
Ġfun ctor
199 5
LOCK ED
sched uler
Ġgfp flags
}| {
0505 14
8 66
q emu
w as
Ġ qr
le ms
de scribe
ge m
Ġ' ../
Ġv t
Re act
Ġ_ ("
ho le
Ġâ ī
948 68
ĠCHANG ING
? (:
B K
F u
f an
Ġa k
Ġb ench
14 04
oo ser
Name Link
POS IX
Ð» Ð°
Ġcar ry
ĠIMPLEMENT ATION
ar o
); \
Ġm ass
ĠS I
ri o
ĠJ an
ĠAr ch
Ġprocess or
Tool tip
ĠCur sor
316 227766016838
3298 050514
94868 3298050514
6 30
B and
C rop
G M
\ $
f j
g pr
u lo
Ġm c
ĠP H
fo x
key boardButton
Ġk malloc
De ep
2017 11
Task s
dark theme
ĠDocument ation
m isc
IN F
sp arse
ĠH ERE
var phi
io ctl
not her
Ġqu iet
62 25
4 100
5 33
7 04
Q w
S g
ul ing
gs ub
fa ke
TH E
INT EG
Ġstr ong
An on
dr ivers
Test ing
Ġinstall ation
foreg round
6 37
A i
Q Z
in fix
str a
Ġe p
ve al
Ġx t
59 1
ĠMO V
mod s
interface s
ĠAR G
ĠNot ify
0 69
B w
H M
Î ®
an de
Ġf ac
li x
ĠL AST
string ify
Ġnew line
ence s
right arrow
AX IS
Ġman age
Ġrelease d
Ġevalu ated
Alpha Value
High light
HU GE
ĠENG INE
K W
X R
r illic
or row
ĠP OP
ta iled
loc ations
48 00
56 2
Th umb
binary Relation
Depend ency
Transparency Object
6 13
7 16
O rientation
Ġ" )"
Ġres ize
ĠIN CLUDE
ear ly
Ġoff line
Pos itive
SY N
åı ·
ä½ ĵ
ï¼ļ </
Da emons
//////////// ///
K nown
P AD
X ml
] {\
on a
Ġ" :"
Ġre cogn
ĠT T
ri se
STR A
ĠVert ex
: ]
Ġ ----------
Ġs r
11 01
PC W
Te le
|ðŁ ĳ
Ġhy per
áµ ĥ
% </
7 23
8 12
N s
b if
n ag
ib er
22 64
Str ict
register ed
Launch Daemons
n P
} &
re pr
ad oc
Ġ@ $
ĠV ARCHAR
input Peer
Al ert
part icip
client s
../../ ../../
Over flow
Ġrad ix
Ġcontrib utors
remain ing
atern ion
. %
W nd
ĠD iv
ĠL ear
Code s
Ġsp acing
ds ql
ASS IGN
éĢ Ł
æł ¼
alyt ics
ĠWrit able
ĠGrid Box
8 25
lo re
pe m
ĠS ame
ĠT imer
Ġ' ''
), )
cc cc
Part ial
Ġ200 9
FB S
âĤ Ĥ
Ġcap ital
Ġposs ibly
W eek
s izing
× ¤
å ĸ
ç µ
le ader
ĠC lip
um ing
AT FORM
Set Capacity
à´ ¸
"] }],
'] ['
4 77
er al
ĠP a
16 11
lev ation
Att ack
7 69
L H
T CP
k malloc
ing u
get env
Ġe quation
pro grams
05 1
STAT IC
fra k
éľĢ è¦ģ
enk ins
5 66
6 15
D y
H orizontal
t ap
y ond
Ġs ays
**** ***
Ġ) ->
da emon
sd l
Ġown ed
éĻ ¤
ĠConst ant
# _
R ND
g k
p vec
v im
Ġp ow
co p
tr ay
Ġh l
ĠG ra
08 333333333333
State s
Le af
Log ging
inv ite
mult im
Ġbel ongs
$ )
5 17
st ickers
ĠF unc
ĠB ump
sc m
Re play
res olver
Error f
87 1
Ġsw itches
Wh ere
ĠÂ ©
Abs olute
FIN AL
INTEG ER
" ",
7 29
H arry
d og
an cing
Ġ= <
ac iÃ³n
45 00
ãģ į
Ġunt yped
Pri mitive
ĠTra ck
ĠNe ed
indic ator
8 10
I MM
ĠD OS
Ġe ase
ĠO rd
ĠEND DO
76 1
QU ERY
soc cer
'''' ''''
ĠKe ep
J P
X k
è ī
Ġ( >=
he alth
un ist
mp i
ĠP lugin
om an
EX E
ĠUn ary
ven ue
B lob
J an
g v
k ing
r gba
er ical
Ġ( ?
Ġb x
ver sed
to Lower
oriz ations
Ġinc orrect
Ġappro ach
N pn
or ange
ic ies
Ġbu iltin
ĉĉĉĉĉĉĉĉ ĉĉĉĉĉĉ
tree value
SY SC
Trans lation
å¹ ³
COD ER
F LOW
O m
W as
Ġ" ("
Ġb ag
Ġm utable
ĠS TE
": [
000 6
head s
88 1
Exp onent
need s
ĠLL REG
N av
R pc
^ (
s low
Ĥ ¬
st h
Ġm i
Ġnew ly
($ /)
ĠDo es
Ġassume d
åĵ ģ
B ip
m ind
ro utes
Ġ1 13
Ġw ild
ch ase
ĠD LL
55 2
run ner
(_ )
ĠComp iler
ĠEn ter
Token s
Ġloc ations
Bl ank
7 67
V U
Ġ$ _.
ĠE ns
om it
14 14
os h
ĠCon f
ĠCon nect
DI O
ÑĢ Ð¾
ì§ Ģ
T ray
Ġa a
read me
cr pp
STAT S
Ġinv ocation
Ġplace s
ĠDIS CL
ä¿¡ æģ¯
B et
f ee
q K
ct n
Ġin ference
ĠP latform
ĠIn formation
Ġun expected
åĮ Ĺ
template s
flu ent
starts With
ĠLEF T
L y
65 00
Ġpar agraph
ĠRe ply
do es
Ġsub class
Des ign
xx xx
ĠPre lude
ĠOr iginal
-*-* -*-*
Ck N
Soc cer
multim odal
Ġre ported
es is
as InstanceOf
ers core
ĠDe code
style s
Ġrow span
Build Context
Ġvis ual
widget s
6 32
: **
> ".}
G CC
L ANG
S a
p ss
r as
Ġ ÑĤ
Ġ1 92
Ġv enue
as c
con straints
Ġst a
Ġ` "
=' ../
AP PL
View s
prec ision
ĠWh ile
Bl end
Connect ed
soccer net
Soccer Net
8 28
F ALL
Y R
b oth
un read
Ġin voke
ĠM eta
AC COUNT
cal ib
the mes
ĠAss ume
DIP SETTING
7 38
E VAL
b ullet
n oc
al ignment
Ġpro vid
An not
PH P
å¸ ¸
Ġart ifact
. [
9 1666666666667
G D
M ER
m Tag
è ³
Ġ ####
it t
Ġp add
es c
ĠN orm
59 3
Ġext ent
button s
Method Problem
6 74
W V
Ã ´
In her
AS CI
Package s
Ġtech n
+ .
D lg
Ġo dd
Ġ1 52
ĠM ut
am il
ĠW arning
Con structor
RO LL
Ġsu itable
ä» ĸ
Ġ'. '
ĠCOMM AND
Ġquick ly
8 45
E FAULT
P ick
Q os
R ing
X P
t rees
Ġd g
ĠB SD
13 64
ref lect
ph ishing
ĠJ O
Comp act
ä¸ İ
aw esome
áŀ Ľ
Part s
ĠLine Box
Ġvert ices
W ind
p icker
u er
Ġ( ,
ul p
ĠD ROP
ĠĠĠĠĠĠĠĠĠ Ċ
ST OP
RE V
ĠU rl
05 2
ĠIn dicates
Ġsecond ary
CkN PTkZJR
M ENU
v k
ë ¦
ame l
ol ang
Ġ, @
Ġal ternative
XX X
ĠCon struct
under line
cr qp
Last Error
cul ation
8 07
Ġ( ),
Ġcon cept
ĠM AY
ç® Ĺ
Missing MethodProblem
ĠIllegal ArgumentException
F K
H u
Y PT
ĠE ither
add Class
DE PS
09 00
37 00
áŀ Ħ
Ġfilter ed
render er
Ġfre quency
Axis Alignment
messageAction Chat
flatten ed
è®¾ ç½®
å·ŀ å¸Ĥ
WRAP PER
; [
ë ĵ
re ject
Ġf ol
pe l
44 00
76 00
PER M
INS IC
Ġtyp ically
æµ ·
L ATE
P c
l ift
y ml
ex cept
ad or
Ġh ack
com bo
OD Y
()) );
çĽ ¸
Ġscal ing
J e
V i
m Id
âĢ Ķ
STR IP
after Hours
ĠEvent s
Ġfact ors
6 39
Č Ċ
ĠE ffect
os able
Type Info
58 3
Dir s
copy right
access or
Def ined
Ġcover ing
$ "
6 24
R AT
d olist
ĠP lot
11 43
PE G
Comp leted
Ġsup ply
Ġmin im
Sub scription
Ã¶ r
ĠAB S
Ġsatis fy
4 02
N r
S m
z k
ĠF R
ĠD T
Ġas pect
Ġen coder
Cy cle
æĮ ĩ
ç¼ĸ ç¨ĭ
] ->
ç ¡
er ance
Ġp ersist
Ġs ans
85 2
cal led
po ssible
common s
Ġgr adient
Ġalign ed
ACC ESS
7 13
| _
å ł
Ġ1 22
ĠL iteral
Ġ` ;\
ĠH W
Ġlist ing
SI B
ĠAr t
ãĢ İ
ãĢ ı
cr t
ene fit
lv es
ipt ype
ç« ¯
oug ht
9 39
C u
d get
q e
Ġc ategories
Ġi ss
ol or
10 14
Ġlo t
89 2
Ġmin or
ĠAl ign
ĠCont in
Ð» ÑĮ
Ġcustom er
dem os
9 23
G Z
W a
} ^{
ge th
int s
ĠM ulti
22 24
39 00
ĠVAL ID
) ');
9 25
D UP
F a
c cl
j n
} ]}
st y
ch er
Un supported
gr ant
Ġ$$ .
Ġnormal ized
C lock
E VER
S pell
U AL
x ffff
or ry
Ġex change
ĠSt ats
Check Box
ĠInput Peer
$$ ,
REG EX
MAC RO
SK IP
) ::
8 13
V L
d am
ar ter
In voice
te c
Ġ3 60
ng x
PRO P
è½ ¬
reng th
9 11
> ãĢģ
H AL
h ack
j v
tr ast
IN AL
85 3
Ġlimit ation
hi er
Ġfl utter
rot ation
æ± Ĥ
5 02
9 28
F ast
lo pe
Ġd in
ĠS ie
11 84
ĠL ang
ĠB in
Data Source
unc hecked
67 00
Ġhere by
ĠĠĠĠĠĠĠĠĠĠĠĠĠĠĠĠĠĠĠĠĠĠĠĠĠĠĠĠĠĠĠĠĠĠĠĠĠĠĠĠĠĠĠĠĠĠĠĠĠĠĠĠĠĠĠĠĠĠĠĠĠĠĠĠ Ġ
Cy rillic
F o
H ave
M ass
T unnel
set global
Ġl c
ĠL wt
88 3
94 1
'] )).
air s
cmd s
aj ax
×ķ× ª
9 45
a udit
l ator
to ks
59 00
äº Į
DX Vector
Ġpop up
ĠOr g
ĠNim Node
SYSC ALL
H J
æ »
Ġ ur
Ġn im
ĠL ET
ĠU nder
SE S
55 3
98 2
54 1
86 1
Ġyour self
MY SQL
Ġip v
Ġwr apped
Ġweight s
. },
6 29
G lyph
N J
v ity
ic i
co a
str y
be at
Ġus ize
Ġcode c
Ġprint ing
annot ations
Ġbl k
GH C
ĠRout e
q z
de veloper
Ġ( ).
0000 2
Ġ2 10
ĠL INK
create Element
Ġvm f
Ġ"; ",
ARG V
SRC ARCH
Ġdid n
Ġrespons ible
P ersistent
n ore
if th
CT X
85 00
àµ ĭ
ĠSw ift
) ](
7 19
å £
st b
ĠS lice
ke leton
par rot
Le ave
çİ °
Ġbra ille
A sc
L ab
X i
ĠG HC
Con t
AP H
with in
temp erature
æľ º
Work ing
Ġgu ide
................ ................
9 33
9 34
R ew
W L
g ag
Ġo pc
ap a
ĠN A
ĠB ecause
sh iptype
Ġcomp ressed
sol id
Ġclo sing
hex pm
Ġtermin ate
Ġsticker set
m Is
v ia
Ï į
Ġw ake
ĠC ATCH
Ġe poch
oc ab
15 44
Model s
Ġpol y
Ġobtain ed
ê° Ģ
Foreground Color
8 35
> ',
B ra
Q S
Ġp ract
ĠP DF
ĠM B
ĠL imit
def module
Ġid le
77 00
sub subsection
]] ],
Ġq w
Ð¾Ð º
ĠMon ad
E h
F all
L ive
O Z
S ORT
j h
Ġt l
ĠB its
(" -
ĠU INT
07 1
card s
âĢ ¦
Ġtrans actions
ĠZ ero
Tra it
oooooooo ool
Ġcor ner
9 22
K o
ĠG CC
di a
Ġback up
mut ed
SO URCES
Ġ'; '
Gif s
! ):
5 30
} ${
Ġs mooth
10 101
ma int
ĠM ult
34 00
55 00
call er
cp us
spec s
las hes
PRE S
ĠIMP LICIT
Ġown ership
ĠCOPY ING
Ġbo ard
å±ħ å§Ķä¼ļ
Ġ2 20
:: ~
Ġr n
Ġle af
CO S
card inality
KE EP
PAR EN
å® ĥ
Ġà´ ª
Ġhost name
dep loy
lips is
Ġpercent age
( ":
8 20
8 23
J OR
s co
Ġh uge
Ġco ordinate
ens us
57 99
ãĤ ī
block ing
Ph otos
Next Atom
ffic i
Ġcalcul ation
ĠPh oto
ĠTra ce
Ġvb Cr
Fin ish
ĠSTD ERR
) []
. `
P OP
V iol
Z T
m Depth
y ellow
è ĭ
Ġ1 32
Ġv irt
tent ion
89 3
,,,, ,,
Ġstream s
weight ed
Sk ill
Ġleg acy
Q X
d igits
r is
Ġe b
pp pp
ec urr
":" -
inter cept
(_ |\.
Ġobj var
Document ation
Gui Control
SCO PE
6 20
8 29
U ART
m otion
(( ?
ä¸ ī
her ecurr
!!!! !!!!
p one
~ %"
Ġd as
ĠD D
pre set
Ġun i
MP S
no DB
ĠPro perties
rag mas
math frak
ç» Ħ
F re
O SE
P atch
q y
ĠP adding
sh aker
Ġro bot
Ġover write
COMP RESS
Red irect
alle st
Ġcomplet ely
/ ?
8 38
O h
Ġc ertificate
ul ong
ĠP lua
87 3
ĠZ END
Channel Participant
Ġaccept s
INTER FACE
Cover ed
æĿĳ å§Ķä¼ļ
6 18
C at
F printf
r ated
Ġ" ::
Ġi llegal
Ġv iol
ĠA RR
Ġbe yond
Ġor x
27 08
Ġcol on
97 1
Version s
ĠĠĠĠĠĠĠĠĠĠĠĠĠĠĠĠĠĠĠĠĠĠĠĠĠĠĠĠĠĠĠĠĠĠĠĠĠĠĠĠĠĠĠĠĠĠĠĠĠĠĠĠĠĠĠĠĠĠĠĠĠĠĠĠ Ċ
Plugin s
cut s
Neg ated
% (
8 67
> ?
j Y
in verse
__ )
ĠIN VALID
Un iform
àµ ĩ
DEP END
Ġmaint ain
ãĥķ ãĤ
9 70
D on
y d
ĠT ermin
Ġif def
Ġse ctor
59 2
63 6409
open wrt
ĠDO M
CONT ENT
STRA INT
N avigation
ĠĠĠĠĠĠĠĠ čĊ
ĠA pr
set Method
Ġg or
89 45
With out
phone Call
Sl ider
Requested Info
636409 399
A u
J u
S ur
m II
s bin
v Y
Ġt ot
Ġp aint
ad apter
ch a
ĠU NT
CD ATA
Ġorder ing
bt c
img dir
à¥ ĩ
ĠSER V
- '
> ()
B Z
q X
id ence
em i
64 32
Ex e
Comp ute
ĠNOT ICE
NN NN
æĶ ¹
íķ ľ
Ġsay a
Hard ware
prov ince
P g
R CT
Ġ1 93
ĠT S
ĠT Ext
ip ment
FI RST
Check For
Ag ents
æĹ ł
Ġsequence s
ĠMake file
ĠNum Get
Ġrespect ively
ĠOPER ATOR
7 000
] &
me th
ĠL S
RE PORT
58 2
Ġfont Size
åĪ Ļ
Ġcond itional
writ able
Ġ33 956
curs ively
Report Reason
Ġcomput er
ĠOper ation
mMin Latency
mMin TripCount
mMax Latency
mMax TripCount
mIs DfPipe
P kg
ĠM ARK
IN ET
IN ATION
row n
Ġen force
%%%%%%%% %%%%
">< #
ĠTABLE S
Ġdim s
Cal c
+) (_|\.
Ġintegr ation
CCCC CCCC
ĠCUR RENT
@ {
P lex
d ual
w ip
Ġ1 29
St udio
19 64
py pi
ĠPRO F
FFFFFFFFFFFFFFFF FFFFFFFFFFFFFFFF
K IND
o enix
ĠP UT
ĠF lat
Ġ3 20
Ġpro tect
19 74
ĠH OW
Ġ|| =
FA M
Ġ200 4
Ass ociation
Collection s
La TeX
Feature s
Ġins pect
: ~
C void
C ertificate
F oo
Ġc ritical
ct ls
ĠS SL
iv al
Ġh im
EN CY
comp leted
fer ent
Par ametric
Ġtrans formation
)= $(
clo sing
INIT IAL
ĠCHAR SET
BotInline Result
: {
C alled
M ig
e ast
re strict
Ġf atal
Ġf rozen
co ck
Ġ1 51
id i
In struction
RE P
ber g
\" "
tab ular
Ġ": ",
Declare Text
FOR CE
download s
tick et
ĠCOL OR
:::::::::::::::: ::::::::::::::::
ĠDefin es
n X
ar ator
it ize
=" <%
ĠE r
19 63
88 2
Ġ(( =
ui ui
df d
Ġman ual
ĠEl m
ĠTab Order
Ġorx JOYSTICK
ĠUNT IL
è ¢
in ity
la m
Ġw ish
List Item
Ð° Ð½
Sp am
ret ty
export ed
2017 12
, $(
C ut
G as
N l
f ab
v z
to List
bu fs
74 99
mb tools
pos al
Ġgener ating
su c
Ġlicense s
ĠMod ified
,: )
7 64
I y
V Z
W d
Ġm icro
RE SH
Ġsub program
57 2
Ġcell padding
Ġclo jure
ĠCom ics
æŃ ¤
HEL P
Discard Reason
Ġrepro duce
K ill
u ol
In ternet
oc b
Ġme chanism
ps z
ï¼ ģ
Local ized
ĠFill er
6 08
C Q
c af
se lves
str ategy
=" ",
ĠC D
im mutable
St ick
Un ix
num bers
ĠST OP
offset s
ĠText Style
inf os
Ġest imate
Ġcause s
getOr Default
% ","
) <
O cc
q os
Ġd type
Ġto do
us pen
68 00
ĠCON NECTION
Ġmat ter
Ġdepend ent
åĮ ħ
chart s
camp us
ĠJO IN
8 33
N i
b ab
ar ith
Ġo mitted
Ġre names
ĠT Bytes
=" ")
87 2
ai ro
ĠID ENT
std in
ĠCOMP UTE
Ġident ifiers
Ġcorrespon ds
Ve locity
8 26
F PS
p info
z u
se ss
Ġl u
ĠTh us
irect Music
IS C
mem set
Ġpre dicates
ĠDe v
_, _,
ĠNot ebook
G t
ĠD ump
.. <
Ġ200 6
pa lette
ĠREF ID
Ġbg color
f id
t alk
Ð Ł
Ġc g
ĠC ar
Ġan notation
PRO DUCT
tra de
uc libc
Opt im
Ġut ility
8 32
C NT
] >
q n
or al
Ġc url
il it
ant ial
Pro f
ph ere
ie ces
Ð¸ Ñģ
åı £
SA VE
ĠTime out
dh cp
Ġlik eliho
Upd ater
oton ic
8 18
P icker
k obj
Ġ Å¿
in struction
ab ling
"> (
Ġan aly
Ġ, ('\
85 1
Ġro unded
58 1
gen sym
DEF INED
Ġsuper block
FR ING
lim ate
dq a
åĨħ å®¹
ĠFE ATURE
ĠBl ue
uclibc gnueabi
5 94
C pp
J l
ic mp
Ġb v
ate way
"> >
SE LECTION
Lo aded
On ce
Ġdiv ision
ĠSec urity
IQ UE
C d
re ach
Ġc make
Ġre use
Ġv an
Ch apter
ass oci
omm u
uto ff
åı ĺ
199 0
author ization
ĠValue Error
Ag gregate
Work space
Ġsl ub
hard ware
9 10
H A
q f
Ġ utils
re me
ar bit
Ġs an
Ġ1 34
ĠD S
Ġsh utdown
box ed
dim en
Ġguarante e
Q WP
p wd
r tos
s ilent
w ant
Ġw ants
Ġh ol
ĠN L
." ))
over view
leg end
dw arf
294 3378
Ġserial ized
Ty ping
ĠDep end
Sem antic
I RECT
r ng
v Z
x w
Ġ urb
re stricted
ĠT Type
th ough
Ġde let
Ġcomp ress
cc s
Comp ilation
ãĤ ¿
Of Service
tutorial s
STY LE
6 78
7 78
9 27
æ ¶
Ġf x
ĠH adoop
Ġad c
83 2050
{\ @
RR F
Ġload er
anon ical
Ġeffect ive
/^ \
0019 6225
çŃ ī
ĠDIM ENSION
5547 00196225
2943378 44
832050 294337844
554700196225 229
( ..
9 26
E t
W AY
j m
if neq
ĠA xis
Ġst e
type p
SE SS
scri bed
The ta
åı ¸
Ġinvalid ate
vers al
Ġeas ily
ĠDocument Attribute
Ġmag ic
A pr
J w
P COM
X L
o auth
r si
s ensitive
v tk
z illa
é Ń
se il
Ġ1 33
ĠT JSON
ĠG iven
54 3
pat id
Vert ices
ĠSY STEM
Ġali ases
. );
9 65
C mp
E p
T d
Ġt b
Ġ' >'
12 75
). "
qu is
ĠW rap
AL TER
fa de
av at
File System
ak ed
88 00
Error Message
}{ %
conf lict
ĠTele gram
] $(
in cluding
un tries
ab sl
Ġfor k
==== =
Ġpro duced
Re actions
Ph ysics
document Attribute
Frame works
Ġwrit eln
GENER IC
Ġpot ential
V f
} @
ĠL at
qu irk
Ġy s
[" \<
work ing
we ibo
inode s
server s
PATH NAME
.} :
pict ure
ASCI I
G Lib
O UR
Y N
j t
z w
In voke
Ġle ad
60 24
CON NE
à¤ ķ
ĠComp any
Ġsche mes
åĽ Ľ
Properties Window
Dup licate
metab ase
H F
R f
S i
S NO
h ar
Ñ į
lo ff
ĠIn ternet
Ġ20 4
ĠUn ique
DB us
Ġph i
}. \
åĲ ¯
Wh itespace
)? (\
å§ ĭ
SEQU ENTIAL
P ot
Ġf actory
Ġp ay
ĠT RL
urn ame
ne eded
ook ies
Bu cket
}} }
P SS
S MMU
z s
ĠP ORT
ĠG PIO
EX TERN
}) $
vert ed
ĠST RE
ĠSh ift
åħ ħ
Sec ureValueType
TIME OUT
Bind ings
COMM IT
Side Effect
Art ifact
Ġnop rint
ĠTRL BAR
G n
J n
J ump
P ref
n te
ar quillian
Ġo c
ab seil
14 2857
Ġpro j
Ġcheck point
we ep
Ġgr ad
Di agnostics
tor ch
unist d
' };
C ent
E MENT
X Z
b fd
g ence
de clarations
ro py
ĠR IGHT
"," /
List en
98 00
79 00
Ġsub mit
43 00
53 00
Ġsign als
qual ity
ÑĤ Ð¸
cover age
Ġ---------------------------------------------------------------- -----------
Ġembed ded
moz illa
STOR AGE
ffici ency
) ="
E type
s am
z p
Ġ ub
Ġt reated
ĠR AM
ĠD AT
ĠM U
cl in
Ġ__ _
63 00
mark down
Ġcache p
ĠInst ance
Ġdelimit er
ĠDel ta
(*,*) '
SLOT S
ĠCU DA
, )
> ();
E FF
P res
W s
Ġt abs
la ps
ĠS DK
ĠT YP
ap ers
ĠB s
Ġwe bs
ne ar
Ġ? =
46 00
8 40
9 20
Y C
e abi
j Z
m os
q ml
an cer
ir ation
12 24
ĠB US
orm ap
IT CH
Ġj peg
56 1
PL ATFORM
Ġpas ses
âĢį ðŁ
è· ¯
L J
Ġf lu
comp act
obj p
Ġkey words
DO CTYPE
")) ,
hand lers
ĠINT ENT
Ġdetermin es
8 74
H x
W i
l tx
y t
Ġa z
Ġm om
Ġto ks
19 68
======== ==
De fs
IS P
Bu ilt
fore st
å¤ Ħ
ĠInst ead
ĠUt il
ĠPrimary Term
LIBR ARIES
ĠARR AY
z ier
ì ľ
id f
ĠT Transport
list item
quest ions
à´ ¦
88 88
year s
è¿ Ķ
writ eln
ĠBe fore
ãģ¾ ãģĻ
O LEAN
Q UE
Ġp ersistent
ĠM ost
(" @
Ġ% >>
api Key
ĠPro gramming
yn omial
mon ster
CR IPT
Ġiter ations
Ġorg anization
ĠArg v
åĽ ½
Ġquot es
Cref name
æĦ ı
FRING EMENT
! ");
9 16
C rypt
I VER
O CC
è ©
Re verse
Ġco efficients
OD S
}{ #
mi i
array s
Sub ject
Ã¡ l
ah a
ĠWAR NING
DIS PLAY
conn ector
Lear ning
IH N
3333333333 343
) ">
B AS
J ar
N PC
O ID
Y G
c ps
f ar
k es
at an
Ġ1 90
ĠĠĠĠĠĠĠĠĠĠĠĠĠĠĠĠĠĠĠĠĠĠĠĠĠĠĠĠĠĠĠĠ ĠĠĠĠĠĠĠĠĠĠĠĠĠĠĠĠĠĠĠĠĠĠĠĠĠĠ
Ġk gsl
Ġj c
ãģ ı
Input EncryptedChat
ãĤ ³
Page s
ah r
Ġpo ke
Hash Set
Render ing
XY Z
nat ural
ĠSO URCE
Dem o
ĠDET AB
un wind
Ġb a
im ap
ac ed
fa v
Ch ip
Ġen crypted
Ġle a
DEF UN
Ġform ula
ĠEn abled
EE P
Ġcell spacing
è¯ ģ
ĠÃ ¤
COMM ENT
Launch Agents
q v
á ¿
al o
ĠC re
ĠC LI
ĠC annot
Ġ# ;
to ur
qu id
24 512
38 889
Ġ7 00
Line Number
Start Pos
free pointer
çİ ĩ
D u
L Q
j ak
m ill
Ġwh om
ĠIn voke
Ġle mma
Num bers
Ġge ometry
TIME STAMP
Ġstop ped
Vis ual
ĠChange s
recogn izers
èĬ Ĥ
ĠAz ure
8 14
H s
H w
T IM
b el
t uit
ca de
env iron
exp ansion
PRO G
leg acy
PAR ALLEL
Ġparse Int
Ġê °
B ank
d D
Ġc prefix
Ġ1 85
Ġm eng
con c
ĠM acro
gin ary
Ġsh uffle
Co ords
Se g
bo ss
Input GeoPoint
box es
inter section
\\ /
43 75
system s
ĠSQL F
Ġì ł
Ġ---------------- -
Ġ(-> >
HAND LE
9 38
H ist
J Z
P an
f ancy
k z
t ure
le ading
Ġs pi
Ġn ip
ĠA VERAGE
Ġh err
Ġ3 30
13 05
ĠO wner
ance ll
Comp ression
light s
ç» Ł
typ ename
NAM IC
è¢ «
G CM
H v
M p
P reference
c art
s af
Ġin ser
ĠA G
ĠN V
ist ance
Con version
sub tree
86 01
man agement
alloc ated
Symbol s
ĠSpark DataFrame
disp ose
Ter rain
Ġboot strap
Ġhig hest
Ġear lier
Negated Atom
m om
× Ŀ
Ġ" ../../
Ġf avor
Ġ1 75
el if
ĠR FC
OR IG
ac a
Ġx la
73 00
Ġac quire
CR YPT
Ġeas ier
mix in
WINDO W
9 74
9 09
M UL
s pell
Ġf name
Ġw id
pre empt
Ġ9 45
æľ Ł
Ġman aged
Ġcy cles
Ġaccept ed
ĠPROC EDURE
/ @
S he
f alloc
n You
q b
re pos
ID X
00000000 00
reg ular
Un lock
54 2
const itu
2018 02
ç» ĵ
ĠSTRE QUAL
9 64
9 40
P f
Ġp wr
Ġd ig
ĠL OSS
Ġbe hind
ox y
ãĤ Ī
56 00
ĠPro vide
,' (
doc comment
ĠEX T
exec utable
Frame work
release s
Ġsym link
1976 38889
B OL
Ġf ake
Ġ1 44
Ġh uman
ĠM D
add Button
Input Photo
index library
END IAN
ĠRE QUI
PL UG
cat box
Ġsc enario
Ġpattern s
9 02
J Y
ë ı
ĠRe search
Ġcheck sum
Ġport ions
ä¹ Ł
Clo sure
RET URNS
oll ar
Ġcover ed
Ġpres ence
e tr
â ģ
Ġ ç¼ĸç¨ĭ
at k
In tro
Ġres ume
so lete
ĠDe veloper
Ġad apter
Ġformat ting
gen e
can onical
now ledge
Cur r
Pass port
fluent ui
8 47
B DD
c rc
m ir
ut ral
Ġ{ })
ĠN ative
Ġ2 47
im b
ĠW A
Ġ$( $
UR ATION
Ġlo st
âĢ ĵ
Ġreg ions
Ġtra it
ĠBu f
gb m
ÏĦ Î¿
Ġanch or
IFI ED
ĠEnv ironment
Ġdiag ram
8 17
8 22
M Z
R y
z el
ĠS ervices
we et
Ġinter mediate
ĠProcess or
lectric ity
6 64
S CH
Ġ1 68
ĠS HOW
Ġst ock
ĠJ ob
sw p
Ġtest ed
update Chat
Tra cker
ĠFont Weight
rupt ed
ÑĨ Ð¸
ĠPhone Call
; -
? âĢĿ</
E scape
K Y
m DfPipe
at ively
Ġi l
20 26
ĠR PC
Ġg uess
St roke
app a
face book
ãĥ §
áŀ ¼
Order ed
dat um
Exec utor
jo y
ĠEncrypted Chat
9 12
V o
a W
Ġf uel
ad ir
ĠT CP
iv ial
": -
ĠW RT
ĠIN SERT
msg cat
äº ¤
cir c
æ¸ Ľ
Measure ments
Rad io
H alf
] "}],
l val
q m
Î ¾
Ġo ct
li very
art ist
Ġr ng
(" ")
nt hesis
be havior
ak a
Ġwhen ever
ĠEx pand
87 23
ï¼ Ł
stat istics
Ver ification
çĽ Ĭ
Ġtyp ed
Acc um
Mid dle
Ġoverrid den
Ġmention ed
( [{
: )
E OL
é ĥ½
Ġm ar
ĠC Make
ĠF eature
pre f
Ġch ip
ick y
lang version
ĠÎ µ
Gu ide
' _
J B
L b
w data
00 10
ex clusive
EN CES
RE MOVE
AG AIN
top level
End Pos
Trans fer
free ze
ĠGener ated
Cur ves
Mo unt
Ġreason s
9100 04
Q i
X MM
tr ansp
Ġ' ='
ĠC s
ir med
ĠO f
Ġdo or
IL T
Out line
Ġlock ing
Const Evaluation
Intrinsic ConstEvaluation
6 23
Q V
g oo
å ©
Ġi pc
ĠI WORK
IN V
__ .
SE G
cy ri
assert ion
GENER ATED
Ġbel ong
ĠAP Is
æľį åĬ¡
! '
I U
m ute
Ī ĺ
Ġs v
Ġa utom
ex cel
ĠT L
Ġ' \\
Le ss
000000 1
serv able
WH ERE
ĠUs ers
* [\
E i
U ME
d put
h alt
Ġc i
ig o
if x
ĠC String
ĠP assword
ĠL AB
Ġr sp
Ġpro t
Ġas semb
Ġal most
AS M
char acters
Ġinter pre
Up loaded
Frame s
emo ji
V OL
n Index
er lang
ss p
Ġ1 35
ĠD irection
Ġe a
55 1
vm w
Ġgener ates
su do
\"\ >",
gp io
YY YY
ĠIND IRECT
ç±» åŀĭ
aditional Form
7 02
D z
M c
Q P
d type
q d
is ions
-> _
Ġr p
Ġr dx
Re covery
operator s
Ġdirect ive
Ġ'< '
Rece ive
8 39
H ere
P aste
c ategories
s By
en ance
me ds
"> ///
pp m
Ġle arning
ĠRe p
wh itespace
[{" \"\<
ĠCON SEQUENTIAL
mt p
Ġinter pret
Dis allow
äº Ľ
ĠClass Tag
Ġconstruct ed
TYP ES
æ¯ ı
ĠCONSTANT S
ĠEns ure
. |
M UT
l port
Ù ģ
Ġ( ($
ct est
Ġcon struction
Con struct
Ġk o
Value Allow
96 2
CRE T
ĠPrint s
ĠSTE P
$ =
H r
S printf
q h
r ich
x sd
è ¶
Ġt ex
Ġm illiseconds
Ġv i
ĠP ipe
get Next
ĠL ua
par m
format ted
àµ ¼
ĠLine ar
Ġshe af
ĠPOS IX
æĹı èĩªæ²»
ĠPROF ITS
P as
W B
w B
ur y
Ġl ru
Ġse d
OB JS
áŁ Ĩ
Ġdecode d
Rot ate
Prev ious
SOCK ET
IEN PTkZJR
éŃ Ķ
9 29
T lv
T xt
s imp
Ġin dependent
ch ats
ĠA rc
ĠL F
ĠCon straint
cr on
Ġ-------------------- ---
ĠSA FE
& +:
K F
c aret
l if
é ª
Ġ âĢľ
me mo
Ġi c
Ġn atural
ĠR c
15 38
Ġ` @
lab s
org an
96 1
LI M
Ġshould n
ĠCurrent ly
ĠExec ute
INTR INSIC
delimit er
meds kip
) ==
D ark
F OLD
R d
-- [[
st ers
Ġt bl
Ġs lots
Ġn uts
tr ip
up d
ma le
DE M
100 11
right ness
ãĥ ¬
UP P
×Ļ× Ł
Ïģ Î¿
tv b
Edge s
çī ¹
Ġtensor flow
J T
b ond
g Y
ë ©
an i
Ġh ar
get Class
Ġcon vention
ĠH er
ĠEx tra
Ġany way
Char set
alloc ator
Query Database
ãĤ¹ ãĥĪ
gre y
" +
9 08
I OS
W alk
Z Y
Ġt on
Ġs as
Ġw ww
20 220
Ġpro d
form ula
ax es
IG ENCE
input Privacy
Ġper f
ĠDe cl
ĠInput PrivacyRule
channel Participants
Ġloc ated
Ġindic ator
GO ALS
COMM ON
Ġsk y
ĠPrimary Factor
ĠPrivacy Rule
. ');
9 05
I v
V w
c ad
t unnel
Ù ĩ
Ġ' ');
Ġh d
St ub
St ress
64 33
ip w
âĢ Ĥ
inst alled
VER BOSE
}] },
@ $(
ë ł
Ġ1 42
Ġde coration
IN ESS
14 24
De ad
Ġsh rink
Ph ase
Ġ"/ ",
ĠError Level
WN ER
Ð´ Ð°
èĢ Į
CheckFor Null
, @
B ag
a el
u C
st aging
ion e
Ġf lip
ME T
List ing
Ġle arn
For Key
TER M
stream s
GL IGENCE
Ġbackground Color
ĠCOMP ONENT
Ġ---------------- --
Ġpack ed
zer os
7 60
j ack
Ġf ine
Ġw ays
ĠC X
ĠF loor
Ġ2 25
Ġg ui
Ġsh aker
Ġso on
Ġwrit able
%< *
ANN EL
SESS ION
' /
D NS
J y
X en
[ ]]
f ish
f riend
or ch
Ġf so
Ġp our
Ġo l
ex tr
ĠP F
ra ck
ĠF rank
Ġqu asi
Ġ---------------- --------
åº ı
Bl ur
Ġrecomm ended
ĠAng ular
6 02
A FLAGS
B FE
C it
V Y
h aps
r ations
Ġ( ~
Ġc ls
Ġw p
um ask
IN FRINGEMENT
ply r
Ġserver s
Me Url
Pri or
Byte String
ĠCG Float
H G
T urn
W o
\ )
k c
k ern
un set
Ġ@ (*)
ĉĉĉĉĉ Ġ
Value Disallow
ĠEx port
Ġback ward
ASS ERT
Print f
You Tube
Ġsim ulation
Îµ Î¹
ĠSTR ICT
æµ ģ
Ġtw ice
8 49
D OS
f I
Ġc sr
** :
Ġre fs
Ġd ensity
Ġex clusive
form ats
00000000 00000
Qu ant
Ġmin ute
Iter able
Ġremov ing
ĠNE GLIGENCE
ĠOTH ERS
NU MA
Fin ished
Ġclause s
éĸ ĵ
FFE CT
dar win
; <
O ra
S ID
p num
=" %
Ġpro gramming
ec ycle
Ġhe at
Ġnext Token
tmp actualGlobalAnalytPar
Ġhelp ers
Ġinv ite
Ġdescri bes
cost s
Med ium
Enc ryption
C LEAR
Q gc
Ġd ur
Ġd raft
ig gers
Ġde mo
ĠL TYPE
ens ing
ĠSet Length
SH ORT
number xxx
ĠID s
oy stick
R l
j X
ĠS creen
ĠP ixel
ĠB G
Ġpre view
gr ab
Ġread able
ik er
Ag QI
shape s
road Surface
ĠMet adata
æĬ Ģ
ĠSche ma
avat ars
A da
Q z
Ġb re
Ġd p
ĠC AL
OR B
qu ential
13 01
og en
Table s
Ã© r
åħ ¬
pat subst
feed back
ĠPO INTER
Ġide a
å¥ ½
Exported ChatInvite
ĠEV EN
" <
J z
K df
N K
O o
Ġs al
Ġs light
Ġs lug
ĠS F
ac quire
"," ","
AG IC
IL TER
MA Y
db a
MAKE CMD
Ġseg ments
Ġtrunc ate
Ġprodu ces
ç¤¾ åĮº
MAKECMD GOALS
D IF
_ *
f ld
t iming
} ];
ç Ĭ
ĠI I
Ġg ray
art a
om ap
() }.
pp c
00000000 0
ifi able
94 2
round ing
Ġcheck out
ĠOn ce
rw lock
SYMBOL S
å¹ ¶
Dem os
ECB AgQI
8 36
> %
C MP
L m
L AT
M x
P ause
b ignum
q id
æ ®
Ġre serve
ad ate
def constant
Ġ5 266
File Exists
AB I
bo unded
(* ),
... ,
ĠKey word
æĶ ¶
qq qq
ĠLL VM
ĠCond ition
continu ous
( ****************************************************************
- +
6 19
U Y
f ana
h adoop
Â ¯
ĠP ub
ĠE VAL
Ġare n
Ġqu ite
Str ain
vis ual
Run ner
Ġmut ex
9 76
E PS
F SSC
O c
p ac
Ġt im
Ġf la
ĠT ITLE
ol i
ĠA k
ĠN f
ĠSystem s
à¸ ²
ĠDes ign
éĹ ®
" ))))
9 68
H ID
w arnings
Ø ©
Ġc header
ĠS in
==== ==
Ġe in
scri ber
ĠK UBE
To Str
Ġap ps
ctx t
Meta Data
Ġserial ize
Ġcombin ation
< &
D t
I Y
L x
ad f
per form
act iv
Pro tected
Ġlet ters
Res pon
ãģ Ŀ
He ap
flow s
'] =
ins n
TA INER
ãģĹãģ ¾
ç®¡ çĲĨ
8333333333333 3
A k
L s
O w
h box
al bum
it o
Ġc u
Ġb lit
ex perimental
Ġch an
lin ing
Start ing
READ ME
OPT S
Ġder iving
ĠGo al
æł ·
################################################################ ############
hematic a
Kdf Algo
0 99
: >
H DR
R s
T ape
U b
t an
Ä Ł
is leaf
ĠI mm
ĠD EL
ĉĉĉĉĉ ĠĠ
Data Set
ĠTO TAL
"} )
block ed
}{ \@
Ġunder stand
Ġsome times
float ing
Dim ension
WR K
XM gbm
Ġadv ance
ìĦ ľ
ĠUnary Expr
IHN ld
constitu ency
% '
F REQ
[ ["
č ĉĉ
us able
ON MENT
out standing
pen alty
86 2
áŀ ·
Sub section
ĠComp are
ä½ į
)$ .
ĠÃ ¼
åı¯ èĥ½
è¡¨ ç¤º
C ube
U l
W F
i ra
Ġ ################
Ġ{ (
Ġw allet
Ġbe haviour
ST ITUTE
ĉĉĉĉĉ ĠĠĠĠ
06 1
case s
group Name
å¤ ĸ
alt label
àº Ļ
ĠAt tach
Ġobtain ing
æĥ ħ
? ",
G uid
h b
p dev
co ef
co lour
ul ner
Ġ2 30
iz z
64 75
ĠU ri
Type Name
comp uter
url s
pc yB
ug ar
cr qc
ĠSub Str
ĠDet ect
pcyB ub
A f
\ :
c ipher
ĠT s
ĠP G
ĠP IN
In noDB
ID L
ust ers
Ġcall J
work ers
ateg ies
Ġformat ter
Ref Cell
ali en
Ġxxx numberxxx
ĠÐ· Ð°
6 79
; )
M g
c addr
~ )
ad vertising
es ian
19 83
IC H
))) );
Input GroupCall
Ġexec uting
åĪ Ľ
Ġqual ity
ĠAUTH OR
ĠSU CH
A ir
D st
{ })
ç ¶
ĠP URE
ĠP erson
ĠP USH
Ġ\ &
get s
ĠB us
ĠG reen
======== ===
ix ir
Ġup grade
Text File
àµ ½
à¤ ¤
PR IVATE
Ext ensions
na del
ben nadel
ĠTrans form
ĠDef ined
percent age
èģ Į
Banned Rights
. *)
8 69
M b
] *)
b by
m Norm
r an
Ã ¢
Ġi se
Ġs ch
ĠS ized
ĠH L
Ġac cessed
limit ed
Auth entication
mig rate
D Z
G I
K u
è ²
č ĉ
Ġc log
ĠP od
19 72
ĠH and
mit ives
Input BotInlineMessage
inter sect
lear ning
Ñģ Ñı
Ġdb g
Ass oc
attach ment
Ġaff ine
Ġupd ating
åĥ ı
C li
L AY
S v
S OR
S OL
T u
V z
e lapsed
s To
Ù ī
ĠG G
Ġnot ation
Var i
Test Page
è® ¤
Defin itions
Ġgraph ics
Ġest ab
Ġplatform s
ĠSign ature
7 30
H t
W y
m ad
Ġs il
Ġin voice
ĠT V
ĠT AB
ap pro
Ġ[ _]
Ġ+ :
"> [
57 00
CON DS
update User
cr pc
enum erable
Ġimplement ations
Auth orizations
Vis ibility
æ³ ¨
âķĲâķĲâķĲâķĲ âķĲâķĲâķĲâķĲ
ĠvbCr Lf
J f
W Y
l j
st ab
get opt
15 58
Ġch apter
AN C
49 00
yn chronous
93 00
Ġq q
dis connect
real time
serv es
éĢ ī
ĠCl uster
ĠOCC URS
9 35
C am
K R
L ua
M any
g ather
Ġt vb
or i
Ġn avigator
Ġre n
ĠA W
Ġh al
Ġan g
Ðµ Ðº
': '
ĠWH ILE
Ġcr qc
delay ed
Cur Pos
åº Ĩ
ĠAL IGN
Fl ush
Ġregard ing
mNorm Tag
* ]
C ro
C red
E mp
R UPT
de leg
Ġp df
ed d
Ġb ank
cover ed
StickerSet s
ĠTrans action
Ġmig ration
9 04
9 44
A utom
g uest
Ä ħ
Ø ¹
in ject
de clared
() "
09 1
55 48
Res olve
Ġz swap
Ġsub scription
Pos ix
Ġvalid ator
Mod ify
çĽ ´
ĠDEF INE
éĽ Ĩ
p Y
ĠT Protocol
Ġnot ifications
MP L
Col s
Ġup stream
check out
over nment
Ġmin us
Ġ200 7
Import ed
ĠAc cept
TRAN S
F Q
Q ID
] ]}
Ġ çļĦ
de lim
ir i
LE G
enc rypt
84 2
ĠPro c
sd am
çĶ¨ æĪ·
enar ios
ĠPOS SIB
9 14
@ )
N w
a ui
l al
Û Į
st p
me ters
Ġf oot
lo de
Ġre duced
ĠP V
In compatible
10 20
sp lice
Ġme d
Ġ, @(
time line
dr m
ĠNode s
Font Size
writ ers
ĠRem oves
Margin s
166666666666 657
DEL AY
ĠonClick ed
ĠAF TER
A a
I e
R ENAME
re cipe
ĠE A
Ġex tras
ick ed
Ġsy scall
Ġbu ff
MA JOR
Ġstyle s
Ġcap abilities
Ġdesc end
Stop ped
Permission s
ĠTick et
. &
= [^&
A j
J G
m ts
ì ķ
se a
ing e
Ġp d
ut c
Ġ[ ].
od o
oc v
var list
eng ers
94 00
enc lient
cal endar
Ġdocument ed
sol ar
>. /
edit able
Ġ(+ )_
àµģ à´Ĥ
éĻ Ĳ
labor ate
Ġdat atype
tik z
] ()
c global
Ě Ě
Ġin cr
Ġin vest
mp c
Ġ# '(
Ġpro jection
AR GE
De leted
ms gs
SH OW
Des cri
DR V
ĠRead NextAtom
Null ness
Ġdraw ing
Ob server
att ack
Ġassume s
ISE D
Under lying
> $
Z e
c fc
p our
u art
{ .
la h
id ir
ST MT
Re cur
-------------------------------- --
Ġun pack
54 00
ĠSt at
87 00
Array s
ĠBack end
oj IENPTkZJR
Ġve locity
Attach ment
å© ļ
) ":{"
C t
t ur
w en
é Ł³
Ġt ill
Ġf wd
Ġ' );
Ġh a
Ġen sures
mit ter
96 00
Imp lement
Ġbreak s
Dis criminant
dist inct
ĠSE QU
vs code
è® °
Secure File
ĠSTD METHOD
CiM gQ
ç¤¾åĮº å±ħå§Ķä¼ļ
, ""
B ro
D WIDTH
H g
e lectron
f ence
de struct
lo it
ĠD K
av id
Ġprint s
83 00
Ð¸ Ð¼
Match er
çľ ĭ
A UD
A verage
M n
P ull
Ġb odies
ĠS calar
ĠA sync
ĠH old
85 94
px or
ãģ £
Ġsub tract
89 00
Add itional
Ġact iv
NO W
dn l
ograph ic
plat ial
ĠEXCEPT IONS
dct erms
Parametric Nullness
ĠTYP ES
B IG
B oth
E y
d lang
s ense
an aly
Ġn ice
Ġn avigation
Ġ' ${
ĠF e
get lb
to Int
19 38
ome tric
js ref
ãĤ µ
bl ur
}} ]},
ĠAND ROID
æľ ĥ
æľ Ī
Ġâ ķ
ged ge
æ² ¡
Pop up
ĠVAR IABLE
C ERT
G amma
Ġ( \"
Ġv y
ask ell
Th an
``` [
energy Link
plan ation
Hy per
Cir cle
5 01
R ock
W ater
Ġ' ['
Con sumer
bu st
Col on
ud ent
ãĤ Ń
board s
As String
Man ifest
Ġver b
Ġquot a
ĠRECORD S
å¹¿ ä¸ľ
trail ing
è° ĥ
! ")
H a
U d
W ave
s en
z ZX
ab y
ĠR ad
.. '
ak u
comp ilation
ĠSt d
Cell s
=> "
Start up
Ġra ised
ĠAm erica
+)(_|\. )(?
8 27
k x
s al
w ell
at i
Ġ1 45
str len
ĠR uby
ĠF MODE
om orphism
66 696
ĉĉĉĉĉ Ċ
84 00
Form s
CP TYPE
clo sure
sn ap
assign ed
ĠLib C
æĶ ¾
Ġperson s
unmap ped
9 24
9 06
9 37
Ġin ject
ĠS to
Ġv host
ĠM ail
Ġan no
comp ression
86 00
user Status
PO ISON
Ġiter ate
ĠAd min
ĠUser Status
period ic
Replay Buffer
r q
w v
Ġt iny
Ġc k
Ġn ginx
Ġv ote
ublic ense
Text ures
ĠUn its
sys fs
CP ACK
Ġstd in
ĠMsg Box
Ġund o
à§ ĩ
ĠINTER RUPT
Cull ing
' ].
C p
D ll
I l
N f
] ?\
li ze
Ġ2 48
ĠM apping
Ġe ff
pro cessed
Ġper l
Request s
PO KE
ĠSQL COM
Ġì ķ
Op acity
ĠELSE IF
Ġbr anches
MODE L
Ġgra ded
ĠGit Hub
LIVM X
Ġlapp end
Â¯ Â¯
K n
S erv
Z v
x html
æ Ĵ
Ġc andidate
ĠW AY
Ġan t
Ġk on
84 1
mi um
ĠMO DE
æľ ª
ĠCL AIM
fold l
Ġflat ten
WINDO WS
161907 64
ãģķ ãĤĮ
F il
T z
V Q
d Stickers
Ġf rag
ro tt
ĠS pr
ue s
=" $(
Ġh ierarchy
12 50
decl s
åĬ ³
Ġcare fully
\\( \\\"
! ",
8 44
L z
c wd
j f
Ġ layers
in voice
Ġp v
ĠR ED
ĠV OL
sh ader
Ġ== >
UT ER
}} .
)= [
Gener ated
Ġenum eration
velo ped
ĠClo sed
Serial ize
Ġinf late
ĠUns afe
S s
j q
Ġc uda
Ġ" "}
Ġl n
19 73
struct field
PO WER
Num Get
ano seconds
GENER ATE
Az ure
V oice
ç ģ
ĠL T
ĠInput s
ĠInput FileLocation
ĠCol lect
Tra in
Spec ific
compile s
Draw ing
à¥ ĭ
Ap pearance
s urname
x h
ro unded
Ġp ressed
Ġre positories
Ġv id
ĠP id
ac le
List View
ĠK EEP
ãĤ £
Out er
FE F
ĠPRO PER
BO UND
Ġbot s
ev t
Equal s
Delay ed
ĠCur Node
vd CB
L java
a ur
Ġp la
Ġ- *;
ex gen
ĠS ig
ĠT Value
ch ant
16 106
cre ation
Sh ooter
END FORM
open ed
Buffer ed
Ġbind er
ĠÃ ¶
ç» ı
Word s
Ġmk dir
train ing
Participants Filter
ĠPass port
) ","
k ar
Ġd amp
20 48
ĠE MP
ĠL AN
Ġun changed
Ġdef late
mi use
EE K
chron ized
ĠEnc rypt
å¿ ĥ
åŁ º
gro ovy
è« ¸
O d
U ntil
g db
n orth
le ad
Ġ1 38
ĠT F
ĠT urn
), %
ĠĠĠĠĠĠĠĠĠĠĠĠĠĠ Ċ
Ġcomp iling
ĠRe pository
ĠEx ported
Edit able
IME D
Ġeps ilon
toLower Case
K T
U z
Ġ" ="
Ġ" *"
co ordinate
ul b
ĠP A
Ġde ltas
ĠB F
for ced
Ġtrans ient
Ġtra de
IV ED
Ab ort
wind Direction
å½ ¢
Ġ"~ >
yB DT
åĲĪ åĲĮ
Ġpot entially
5 0000
9 13
A ut
a verage
r ices
de activate
ro ck
Ġa es
is y
Co untry
Al ready
handle s
ĠBy Ref
YP TO
fall back
ĠHel per
Ġsynchron ized
ê³ ł
ppt pd
nore ply
ĠHOW EVER
D ummy
R i
k CF
s ap
Ġs ublicense
Ġb ow
ĠT enant
ht able
Ġval array
ĠTH REE
Instance s
Valid ator
ĠDEF INED
prom ise
ĠMATCH ES
RULE S
V x
W u
w Y
an ta
Ġw ind
ĠC ertificate
ĠP y
ĠM ULT
ĠM UST
19 85
Ġblock ing
ĠEX EMP
URE MENT
ĠWork s
9 36
l ng
Å ¯
Ġ' ()
am i
ĠW ill
ll ing
ak s
ãĥ Ĳ
}{ {
Ġsign ing
ĠDE AL
Inter action
Link er
quot a
ĠQu antity
Ġke pt
Ġmac font
èİ ·
+ ((
0 204
C n
I x
re newcommand
Ġf ld
Ġb all
Ġm as
99 95
pri se
ĠÐ ±
Ġparent s
Ġcre ator
FIL ENAME
Ġ-------------------- -
ĠOver ride
8 37
D raft
S AM
V u
W b
p ane
ĠF ast
Ġ. *
Ġg round
pro tection
ĠH AL
min ute
comp ound
Al location
du c
Ġinter preter
ĠTr aditionalForm
TO M
ĠQ ual
Status Bar
Ġfree ze
Max imum
Ġpri me
àº ²
lz IG
zZX QK
vdCB zZXQK
F z
R PC
S ITE
e ight
n ak
w N
w off
Ġ --------------
in cf
Ġa ch
ĠA x
ãģ ł
OS X
update Read
Ġge m
Ġmark up
acc um
Pri me
FAIL URE
Ġsubst antial
aco bian
éķ ¿
éĺ³ åİ¿
[^> ]*
7 684
A IMED
c S
k art
ĠC ir
Re store
65 78
ans i
cal culate
ĠUn ited
cla uses
Stream Page
ĠID irectMusic
Ġopen ing
Ġà´ ¸
Ġrad io
">( </
* ")]
= ?
[ <
] `
w z
ed Map
Ġo o
Ġre cipe
%% --------------------------------------------------------------------
Con str
SE CTION
Ġun likely
PE AT
PO INTER
Ġenum erate
Ġà´ ķ
diction ary
Ġthumb nail
gag roup
ancell ation
B est
f asl
st an
Ġpro ceed
ĠU TC
arg o
cr umb
åĲ ¦
../../ ../
à¦ ¿
Pri m
Ġequal ity
AIL ABLE
Ġprom ote
IDENT AL
Ġdro pped
ìĬ ¤
olf ram
- )
S olve
X S
f ips
Ġt ight
Ġin set
Ġv ers
as sembly
Ġpro log
Ġwh atever
CH AIN
The se
update Channel
SH IP
éĩ Į
å¿ ħ
6 01
k al
ss y
urn ished
Ġl isp
": [{"
ip itation
Error Level
Ġu dp
Sub mit
Ġq qqqq
sk in
lt z
ĠIS uper
ĠWeb GL
åľ¨ èģĮ
Light s
quival ence
ĠVis ual
Ġguarante ed
ĠPur pose
8 19
9 32
T ax
p z
s mb
Ġ* __
Ġre duction
Ġd ashboard
end csname
as pect
con current
ĠP ho
ĠF ilename
Ġst ar
out ines
av y
Ġspec ifier
orre nte
append ix
Stats Graph
kw args
PROTO COL
Ġcommunic ation
ĠINC IDENTAL
9 79
C urrency
T Q
f ies
æ ¹
Ġm b
tr un
and y
ĠL SP
Ġr ho
"> .</
dd d
Ġtr an
Ġ? :
UN USED
ãĥ ī
ĠRE L
áŀ »
Ġcopy ing
Ġcal endar
As sembly
Ġoverride s
,,,,,,,, ,,
game s
Den ominator
ĠADV ISED
mine craft
O g
` (
g olang
Ġt uples
ĠD F
ri ends
Ġg iving
Ġend foreach
ME D
ãĤ °
ãĤ ¸
ĠST A
->{ "
Ġimport ing
å¤ į
Ġ/^ \
dispatch er
ç§ į
ĠDAM AGE
Ġwebs ite
G iven
K Z
P AS
w id
ct ime
Ġp itch
set Attribute
pro cesses
ĠU UID
(' -
Ġdata sets
ens it
ĠEx ercise
view er
Ġmov es
oooo ol
ÑĤ Ð°
As sets
Ġthrow n
ĠTR Y
Op nd
]+ \
Ġdi gest
ĠâĢ ĵ
night ly
ĠFail ure
èī ²
ãĥ§ ãĥ³
æ¸Ľ çĽĬ
M v
O t
T LE
U k
ĠT y
int ere
Ġimport s
ĠForm Box
append Child
Ass oci
Handle s
"/ ></
ĠAUTH ORS
Ãµ es
L arge
n ual
Ġ1 69
age s
ĠF etch
AD J
Ġà´ µ
Ne eds
ä¹ ī
åİ Ł
âĶ ģ
ĠVis it
ĠSERV ICES
ĠPOSSIB ILITY
8 77
d ax
ĠD iff
ri a
() },
Un checked
MA IL
Ġqu antity
Ġover lap
EC F
Msg Box
Equal To
Ġverify Not
Neg ative
çĦ ¶
ĠLE VEL
alax y
D if
S at
T alk
Y e
æ ¢
ì Ĩ
Ġs caled
ig ature
op aque
Re v
ĉĉĉĉĉ ĠĠĠ
To Int
ĠIN SPE
89 1
view port
'] ))
cu it
ÏĦ Îµ
Fold ers
+ _
A ge
C srPlugin
ĠF our
ĠM achine
Ġan s
Pro vide
97 00
Log ic
show case
Ġ^ (
199 2
sec ureValueType
Ġinv iter
ĠSec ureValueType
clip board
è½ ½
Cre ation
è³ ĩ
& "
V ot
í Ļ
ut ive
ĠS aved
cl ic
ĠB reak
sc ue
ĠIN TERN
Ġmax length
à¦ ¨
ĠChannel Participant
ertific ates
deg ree
è¿Ļ ä¸ª
ĠSized Box
@ \
A re
D J
M er
V t
_ ),
Ġs fx
Ġm l
ĠS ci
ĠE very
Ġsup press
Peer Type
ìĿ Ģ
ĠComm it
tick s
ç§ °
ĠCA USED
Ġasc ii
Ġroll ing
ĠPho enix
: ]]
C Z
G i
I ER
h an
i ate
de clarator
me ans
ĠS ol
)) **
ĠR W
ĠD C
per formance
Ch oose
ne ver
($ (
du ces
Ġinter section
._ &
Link ed
non atomic
Ġman ifest
è¿ Ĳ
fill Width
deep ly
Ġinterrupt s
vet ica
Cit rix
S caled
_ }
` ;\
j unit
Ġc rypto
ĠC AP
um ount
ĠĠĠĠĠĠĠĠĠĠĠĠĠĠĠĠĠĠĠĠĠĠĠĠĠĠĠĠĠĠĠĠ ĠĠĠĠĠĠĠĠĠĠĠĠĠĠĠĠĠĠĠĠĠĠĠĠĠĠĠĠĠĠ
ag gregate
Pro d
Ar m
ĠSt udio
off line
---------------------------------------------------------------- ----------
ĠFont Size
ĠSpec ifies
ĠUS AGE
ĠCom ment
Ġscr atch
F b
F AC
\ {
c ff
ç Ī
é ĵ
Ġb oost
ig id
Ġ@ {$
def ines
key board
Ġro utes
Ġmin imal
ump ad
Ġcons ume
COL UMN
hy phen
ĠPer form
Ġtech nology
Ġ---- -
icult y
A J
C he
S vg
T cl
p ers
w at
w sdl
er as
Ġ" //
con version
Ġr w
Ġr cu
Ex tent
ĠK ernel
lu ence
Ġmov u
Ġâ Ķ
ĠSUB STITUTE
Ġedit able
166666666666 67
ĠDefin ition
SCAL E
9 07
F J
S er
X B
d os
al ready
Ġb ridge
Ġ1 88
Ġof fer
ĠP ool
Ġ\ +
ri opt
At Index
An alysis
Cell Tags
channel Participant
Ġauth entic
nn nn
ĠReg Ex
fre ed
Ġ../ ../
ç§ ĳ
separ ated
ĠDEAL INGS
9 18
9 67
on um
st ation
Ġt alk
al location
Ġ" >
iv o
ĠN aN
add itional
ĠH FILL
UN C
Bu mp
Ġdi agnostic
åį ģ
ĠSp awn
Ġrelease s
land ing
Cre ator
CUST OM
ĠBUS INESS
MUT EX
D g
D ST
K r
d ur
Ġt ro
it i
Ġa kt
Ġw rf
ag o
res olution
ĠCo unter
Ã¡ nÃŃ
instance s
serv let
667 36
Light ing
çī ©
ĠBUILD ER
ĠCMD WIN
m usic
// ;
ĠĠĠĠĠĠĠĠĠĠĠ Ċ
Ġse x
are f
De g
tt tt
100 2
Ġop aque
Read Only
su ite
weight s
Dialog Peer
PSS cript
A o
C LEAN
G s
| -
le vo
Ġin direct
def generic
Re start
ID S
ĠRe ce
88 59
Ġlo s
([ ]
UL D
script edPanel
AAAA AA
func s
NE G
Display Name
Byte Array
Inv ocation
ĠAL TER
ĠThere fore
]*? <
ĠInterface s
ĠSum mary
ĠTP DF
4 31
P z
h ai
r fc
Ġ[ {"
ĠR OM
Ġend ing
Re action
Ġcol lapse
Ġ20 1
Ġoffset s
Ġ^ =
Parameter Name
Ut ility
ĠGO ODS
Ġperform s
AMP LE
mgr Vm
Scal ars
flip kart
geth ash
çĬ ¶
4 21
E J
O Y
Q s
w izard
Ġt ensors
al ist
0000 01
13 07
Ġsh aring
TR ACT
ĠSt icker
cat ter
Tra de
Tra iling
ĠOn Click
ĠTR tti
orph ic
selection Set
mult icol
Ġden y
Shape s
åıĤ æķ°
éĢŁ åº¦
Xen mgrVm
à¸² à¸
F Z
F y
L t
X enclient
he ses
ct ors
Ġa us
tr ial
ĠA IR
Ġg nat
(" &
com bin
Ġun a
ĠIN TERNAL
for th
Sh ipping
make file
Ġcom Citrix
ĠTHE ORY
mail box
Ġapply ing
Ġupper case
ĠPol y
åºĨ å¸Ĥ
Xenclient XenmgrVm
ĠcomCitrix XenclientXenmgrVm
A sm
B ear
L IGHT
T c
T REE
] ^
c ddr
p ig
ë §
ce il
Ġ1 58
ĠS OL
ĠT Z
Ġ} ).
Ġis o
ĠF ront
get Name
ma ven
ĠB AIL
%% -------------------------------------------------
Ġsh ard
ector s
For warded
lex ical
Ġlib avutil
No Units
Trans late
Ġform al
BB BB
METHOD S
SPE CIAL
Tex Coord
ĠNON INFRINGEMENT
Ġintern ally
V IS
Ġ ****
Ĺ ı
ur t
Ġ1 55
if old
ap prox
Con tain
Ġinter pol
sys ctl
prop ag
Ġdec ision
Ġpl ant
ĠCall back
;;;;;;;;;;;;;;;;;;;;;;;;;;;;;;;; ;;;;;;;;;;;;;;;;;;;;;;;;;;;;;;;;
C AA
T icks
d as
s ct
Ġ1 65
if s
pt l
Ġde veloper
), "
bar rier
Ġgener ally
Ġem ot
Script ing
util ities
Sup p
anon ymous
SUB DIR
vers able
Ġtrigger ed
//////////////////////////////////////////////////////////////// ////////////////
ĠThrow able
A im
C f
C dn
H k
J x
S END
c pe
i ated
á Ī
ed b
Ġv oice
10 25
ri al
ĠL ED
ĠH istory
pp f
ang ul
34 56
ĠRes ume
ĠZ ucchini
Check sum
å® ¢
Act ors
ĠNot es
Ġunt uk
Ġclose s
merge d
ĠGEN ER
Ġpriv ile
åĤ Ļ
åķ Ĩ
PROPER TY
R c
p Z
ad b
ĠT Mal
od b
pro duction
og g
erial ize
UD P
dup licate
Adv Audio
ĠPROC UREMENT
ker as
stick y
Ġregard less
è¿Ķ åĽŀ
L ARY
L emma
[ %
s mo
Ġn u
Ġe of
nt l
sh aring
port al
Ġas sets
ere g
oth ers
Ġskip ped
Player ReplicationInfo
Ġtermin ated
Ġturn s
Ġvalidate Parameter
MACH INE
H dr
L azy
t ips
v pn
get All
Ġl int
ĠL C
Ġme et
AC ING
ms i
Ġpre cedence
++ ]
Sp awn
Ġsee k
2018 03
Ġalloc ator
245 11
language s
ĠAcc um
ĠScal a
ĠEXEMP LARY
]*?< [^\
M k
P Z
P u
Y PH
in el
Ġre li
Ġd ans
end R
ab a
Ġe ss
Ġg arbage
14 55
Res olved
Ġno translate
Map s
Ġ() ")]
FE E
Ġlink er
xB F
Back up
Ġbox es
Ġart icle
DY NAMIC
æ¯ Ķ
ìĭ ľ
Ġsitu ation
E Id
U J
m time
Ġ á¼Ĳ
re y
Ġ= ================================================
Ġ1 53
Ġk m
rd party
Ġindex es
Ġrequire ment
mon o
Per formance
Ġmut ating
à· Ĭ
Ġcle ared
PSScript Root
D w
H om
P od
V l
Z END
Ġ ------------------------------------------------------------------------------
Ġ ---------------
en ÃŃ
Ġt ries
ĠT ASK
ree mpt
db us
NAME S
account s
101 00000
ĠImp lement
DIS P
Ġ**************************************************************** **
ĠRedistrib ution
Ġequ ations
ãģĵ ãģ¨
Qo S
ĠDown load
ĠINTERRUPT ION
. ","
D igits
e us
Ġc n
ĠS GT
Ġg reat
Ġ4 04
ĠH K
AC M
DO CK
Dis c
UI Replacement
au ge
Oper ations
adr atic
ĠRest ore
Ġattemp ts
9 17
@ ",
K h
L d
X u
s lave
x ec
Î ²
re moved
Ġd ma
Ġend Group
**************** ****
ĠIn f
Ġ"\ <
Th at
ug ment
(* ,
Ġ200 2
Ġalloc ations
Ġes pec
Mon o
contrib utions
Ġprob ability
ĠCloud ify
P MD
U u
g zip
i lo
m ic
en es
Ġp ump
Ġi OS
Ġa e
Ġd Ã©
ĠS hell
Ġh ole
sp r
16 77
Ġal gebra
ĠJ ul
Ġstart Group
tx n
temp a
man age
wr apped
ĠHe alth
jo urn
Ġê ²
Rece ived
C LO
] )))
p ared
× Ł
Ġ* _
ap at
ĠP T
ĠR CT
Ġde leg
ĠF ore
99 96
16 667
ĠB rowser
ĠIn dent
54 266
db l
EL DS
vis ited
ĠĠĠĠĠĠĠĠĠĠĠĠĠĠĠĠĠĠĠĠĠĠĠĠĠĠĠĠĠĠĠĠĠĠĠĠĠĠĠĠĠĠĠĠĠĠĠĠĠĠĠĠĠĠĠĠĠĠĠĠĠĠĠĠ ĠĠĠĠĠĠĠ
Ġview Box
met al
Exec utable
è¡Į æĶ¿
ĠExt ension
Ġam ong
Ġattach ment
D FF
E W
G c
M d
u fact
Ù Ĥ
Ġ( ==
ro gate
Ġd ates
ĠS INGLE
set Timeout
01 000
comp osition
Un expected
Key words
comm unity
Ġpoint ing
exp onent
build s
Ġtra verse
Ġlink ing
atom s
Ġsuper group
Mod al
Ġorg an
Ġcoll ision
æį ¢
åı¸ æ³ķ
åĪĽ å»º
V c
i Char
j g
y ank
{ (
Ġ Ñĥ
Ġc art
Ġp icture
Ġo u
Ġ1 82
ĠR pc
ĠR ole
Ġfor ced
not ebook
ED IT
tag ged
Ġ× ¢
æľ ¯
Ġsys ctl
ĠNot ification
RI SE
Found ation
fold ers
Abstract Vector
Ġadmin istrator
soc ial
' ",
; /
_ '
pe ople
ag greg
ĉĉĉĉĉ ĠĠĠĠĠĠ
Qu ad
ĠType set
Atom Is
ĠSp ider
Second ary
Ġnv im
æĢ ģ
ĠDEST INATION
è«¸ ç¥ŀçļĦ
9 60
: ='
N c
N ER
Ġ ubyte
Ġt rees
Ġi k
il legal
ĠS olution
ĠA I
ve cs
ĠH ot
"] [
check er
ĠPro xy
ä» »
Ġpo sed
Effect s
Ap ps
TEMP LATE
: <
L ex
Y L
Ø ³
Ġre view
Ġre stricted
ĠS IM
Ġ' ]'
ul ating
ĠD amage
>< #
AS US
ush ort
ãĥ £
Char acters
exec ution
bot Inline
åĪ Ŀ
ĠDo main
.* ;
writ ing
ĠÎ ±
Ġconcat en
ĠBot Inline
Ġslight ly
3 0000
R ating
ut ility
Ġi e
ss on
Ġb h
Ġin come
is i
ĠS k
ĠH y
Pro of
Get Value
CE LL
áŀ Ļ
Ġag ar
From File
Stack Trace
ga XMgbm
ĠSize Of
ĠMon itor
GP IO
ĠValid ate
8 31
> @
S cores
` );
e valuation
f am
Ġ 9999
re de
ĠT oggle
ĠC ross
ap ons
19 70
De ps
Ġar ithmetic
be g
Ġun seen
map per
85 60
exp anded
ĠQ U
Inst alled
Ġ200 3
So Far
Mat ches
termin ated
Ġplay ers
cls id
åŁ İ
ĠnewJ String
ĠDISCL AIMED
B at
B ODY
C RL
M ust
P refer
Ġpro be
ĠV MA
import s
SP I
AM B
parent Node
20202020 2020
Ġ\\ (
Ġ") "}]}],
Ġshape s
ĠSpec ify
ĠUS B
TAG S
PW M
ĠField s
Ġfast cgi
ĠLa TeX
ĠTri m
ĠSim ilar
ĠPred icate
\\)\\ ),
reach able
H j
R AD
W Z
f X
p ip
ion es
Ġre member
Ġ$ ?
ĠI W
Ġco verage
Ġfunction al
est ure
(( ))
OP CODE
cp i
mt u
Ġcom bo
Bot s
cmp xchg
integr ation
Help ers
Ġliteral s
PW D
Termin al
Ġannot ations
Foreign Ptr
Annot ations
âĶģ âĶģ
F ooter
J m
g q
or adate
ing Box
Ġs pe
ĠP ersistent
ĠN U
ĠF ailed
Ġl ate
Ġpro tection
19 84
23 07
Ġper m
addr s
DO UT
Ġsome one
Trans itions
cap abilities
web page
Î± Î¹
Ġretrie ved
Ġmix in
ĠFL AG
ECD HE
hig hest
? |\
E CHO
F TP
O OL
S qrt
m msize
s se
ç Ł¥
Ġo v
Ġn m
Ġn est
id end
ĠS EL
ĠT MenuItem
ĠC SV
ma cs
Ġ3 27
start up
++ ){
top PeerCategory
base line
à¤ ®
Ġstream ing
Ġcache s
Pol ygon
Ġë °
ARG N
399 2
CHAR SET
XML Schema
ĠTop PeerCategory
Ġ-------------------- --
ANCE L
ĠAbs olute
: .
A st
M irror
P or
Ġt il
Ġc od
Ġs lash
Ġs ensitive
ce c
el d
Pro totype
AB ASE
mem cpy
Ġimp lies
Comp ressed
US Y
ĠDe lay
Range s
Ġ200 1
ĠEN C
SERV ICE
IMM UTABLE
Ġprovid ing
" ?>
; //
F ac
H older
N j
e per
è Ń
Ġp Ã¥
ĠT ail
ĠC AN
Ġde liver
ĠB oot
IC olor
new varname
Ġsy mp
class id
Key pad
Bu ffers
Qu antity
ĠFile Name
GR ect
300 2
Det ermine
Gr adients
nod oc
éª Į
F loor
l ut
u ched
Ġt ls
00 20
ct s
Ġp le
Ġ1 47
In s
10 50
ĠE C
IT AL
sub s
Message Type
Ġ20 2
init ely
MO V
'' ],
Di gest
éĻ ķ
Ġ105 00
çī Ī
Fl utter
Ġdefer red
Ġlikeliho ods
> ).
N v
_ =
Ġs lide
pe ers
)) ])
ĠI Bus
ĠC Int
Ġ2 17
19 75
Ġun e
Ġcr ash
pack ed
Connection s
Bo ss
èĢ ĥ
effect ive
celer ation
particip ant
D v
d an
w arr
Ġ` #
ĠH ome
input StickerSet
CON TAINER
Qu aternion
mov dqa
eq n
ict im
Ph ysical
Option Value
aa a
pub lisher
Front End
A e
B CD
F IFO
L INES
b id
ì ĺ
Ġm alloc
ĠT ake
as ar
Ġ2 13
ri p
Ġg pu
om b
Ġse maphore
ĠV ars
100 1611
SP ARK
ĠZ LIB
åı ª
pth read
ĠLO AD
cor ded
æī ĭ
Ali ve
ĠNum Put
ĠRa ises
Ġposed ge
= [^\
N AN
W x
s amp
de tach
Ġf ee
Ġa wk
Ġ1 79
10 16
que t
input BotInlineMessage
print er
ĠInput BotInlineMessage
Ġav atar
CR YPTO
Ġdiffer ential
Ġdist ingu
Ġdep ot
éĻķ è¥¿
2 144
U Z
i B
p print
q rc
ar ia
Ġ( <=
Ġp fn
Ġ1 64
Ġm ach
ĠT Code
ĠT Super
pr une
Ġas ynchronous
Ġ__ __
ĠData set
Rem oved
Sec ureValue
COMP AT
Record s
Ġrender ed
ĠCOMM ON
Ġtemplate s
Ġ"_ "
Ġdesc ending
+ >
; ",
> .</
A bove
Q g
{ <:
è Ļ
Ġ ĉĉĉ
se verity
Ġ= "
Ġs x
Ġ$ #
ab ric
ĠM ask
19 60
CH G
du cer
IP P
temp ts
bot s
rs a
ĠReg ion
pare n
loy ee
Rel ated
ĠSec ret
DU MP
PASS WORD
Ġsa id
mig ration
æīĢ æľī
Ġdestroy ed
á¶ ľ
ĠIBus SimplePlugin
) ],[
@ _
H DL
\ ")
d ac
i la
al am
Ġde sktop
sp lash
"> =
Ġun ix
ov a
Ġreg istration
cb c
Ġet s
ĠState ment
Ġsymbol ic
è¯ ´
Ġmask s
NB X
Pack String
á½ ±
á½ »
syn opsis
ĠExp licit
Pair s
Ent ities
Pub lish
ĠBr anch
ĠINTERN ET
E PT
X O
f put
n row
Ġ( |
Ġf ig
Ġf uzz
Ġb at
Ġ1 49
In str
ĠL ow
": {
De cor
28 03
DE CODER
69 69
Se par
ĠJ o
******************************** ***
Ġass oc
ĠSt reet
build ing
1111 1100
Ġoper ate
Ġmod ifications
Ġuint ptr
NE ED
ade s
Ġrender er
Space s
vid ers
Ġdelay ed
Ini Read
éĩį åºĨå¸Ĥ
F g
L and
T J
d se
d eref
n io
Ġ1 83
Ġm it
Ġm irror
ĠS lot
ĠC ELL
ĠF ifth
Ġe yes
Ġ! >
Ex cept
Ġj ni
36 36
last IndexOf
lob ber
script Box
RR RD
press ure
ital ic
Click ed
ĠClass Data
ĠGNAT BIND
land s
ĠMethod s
auss ian
ensit ivity
E z
R z
] ].
w av
x v
re cover
ul atory
ĠC E
th ick
16 84
ĠB est
ind s
ay a
sh u
ref count
Ġus hort
IL Y
for all
Al gebra
ĠDE P
car ded
Ġtag ged
æĺ ¾
è¯ ķ
ĠUp per
è¨ Ī
Ġali ased
ÂłÂł ÂłÂł
increment al
Ren aming
ĠFrank lin
$ ('#
C i
C int
D yn
S J
W izard
b cc
k on
q Z
ce an
// %
Ġr ating
und ant
RE ATER
new page
EX CL
Ġad apt
IM AL
cap ability
################################ ################
NE INT
Ġmark et
}$ ,
C atalog
P n
S cr
m ong
r lf
r di
Ġm time
ĠC int
ĠM erge
65 63
Ad am
PL US
ĠAn imation
Ġaccess ible
Man aged
ãĢĤ "
Ġcr pp
Case s
}$ -
Ġty ping
COM MA
ä¿ ®
ĠBind ing
pix buf
S OFTWARE
d atab
i en
in box
Ġp b
Ġs aving
Ġ1 86
ĠT Bold
ch oose
ld ap
red is
target FileName
Ġoper ands
ä» İ
Ġ'$ '
yy yy
Ġdec ide
It alic
Inf os
Ġgrow th
REQUI RED
Band width
8 46
A y
G OSUB
P k
P AGES
T abs
è ¼
Ġre draw
get Message
ĠG D
ĠH AND
ĠEND CASE
áŀ ħ
Ġold er
Ġì Ĺ
Tree Node
Inline Only
Ġte le
ĠSup press
Ð¼ Ð¸
Ġinsert ion
Normal ized
ĠFace book
- ${
G K
t panel
Ġ ------------------------------------
de termin
ĠS S
ĠC yr
Ġ3 000
art icles
qu ent
Ġex peri
Ġk ong
ne y
AD V
Error Action
state ments
]] ></
Chat Admin
Ġà´ ¨
Public Key
scene UIReplacement
lix ir
Ġ(\" \"
H n
g un
Ġ -------------
Ġn umpy
ex ceptions
Ġ1 77
Ġw er
mp y
ĠS an
ĠM L
ĠM ID
Ġ. \
sp ital
pro etale
Ġset ter
ĠCh rome
Ġrun nable
Trans formation
wait ing
fi ed
Ġassoci ation
å½ ±
men ian
Ġenter ed
Ġmultip ly
hist ogram
9 03
> );
B RE
C ADR
N ested
P p
V ote
j ll
ĠF lu
Ġst and
Ġr uby
Ġend case
und ay
ib ble
group ed
buf nr
ends With
lan gs
Ġ02 110
Inline Bot
åĽ ł
INST ANCE
ENO ENT
éļ ı
ĠVert ical
Ġìŀ Ī
ĠSK IP
` },
Ã ±
Ġa mb
un ary
Ġn ic
id ad
ĠT A
Ġg gplot
Ġr r
Ġr cx
($ _
Un defined
ts k
work bench
Ġindex ed
ĠAl ways
ĠLO CAL
pop ulate
ĠRead s
éĿ ŀ
HAND LER
coff in
% );
M r
N OP
f resh
g reater
Ġc sv
iv ado
ra i
op ens
ĠF older
Ġ` .
Ġwith Scope
log ior
net data
tra verse
Format ting
ĠLe g
Sw ift
Edit ing
writ es
gate way
Ġlar gest
CompletionResult Type
Ġconven ience
Plex Connect
20220 901
6 21
Q uestion
b ias
t head
Î Ķ
on us
st g
Ġf g
ub untu
Ġde tection
get Property
ult aneous
Ġg ithub
und ament
18 18
De clarations
Ġmov d
sol ver
ARE A
Web Document
ĠKey s
Ġvis ited
Ġob serv
Ġà´ ®
áŁ ĭ
Ġpresent ation
Ġ27 6433
callback s
cir cular
Ġwidget s
ĠCOL UMN
Payment Credentials
Place holder
implement ed
ç³» ç»Ł
Ġ276433 1143
b ang
Ġ ********************************
Ġs ly
ĠC ancel
Ġ2 15
Ġe lapsed
Ġe laboration
ta i
bu mp
Field Name
Min us
ä½ Ĩ
ĠInter rupt
ĠNS Color
Long Word
pattern s
Section s
Wait ing
rect angle
serial ization
Ġadjust ed
åįĹ çľģ
ĠLOG ICAL
Ġcontinu ation
Remain ing
ĠRet Val
9 19
: ${
C art
C amp
F v
G J
H q
N m
Q D
_ $
k bd
p Bitmap
t gt
he art
Ġ1 41
is co
str t
In p
ow l
IN UX
pro cs
ĠV LC
SE ARCH
unit test
sr v
ĠIO Exception
Me tric
HEAD ERS
Ġleg al
ãĥ¼ãĤ ¿
Ġdeg ree
/ [
= <
E g
F mt
R amp
S q
Z I
] ["
j dt
n link
æ £
è Ĥ
Ġ" ***
Ġp iece
ĠA M
ĠR ate
ĠR OW
eng er
Ġ:: =
Ġsub string
ĠCon sole
73 74
Ġfloat s
Reg ular
Ã¡ t
SL AVE
çĶ ±
Ġhead ing
]* [
typ group
ĠMA J
P icture
Æ °
st ors
Ġs impl
Ġin fer
ab brev
ĠR C
ĠR ails
11 98
ĠM AIN
sp read
12 21
Ġx yz
ĠG MT
27 27
Ġ8 18
map car
Ġj ar
69 444
Error Code
Comp ound
Pos itions
PRO VID
No Break
MO USE
prec ation
FIX ED
Ġenable s
Ġder ivative
ĠChannel ParticipantsFilter
ron ic
Ġturn ed
ĠPart ition
unic ations
éħį ç½®
( ...)
8 01
C iv
F ollow
G y
H Result
Z f
d ry
re mark
Ġp lug
Ġ1 48
et ched
ĠP Y
Ġde signed
000 10
UT ION
cond itional
lib hdf
Ġpre defined
Ġinter est
iss a
match ing
ordin ator
hy dro
åĩ ½
Ġchunk s
ĠPrimary Expression
intro duction
< ()
B z
M ute
W p
` "
f ord
j boss
de vel
Ġc aching
ur st
ĠC AST
ap ed
ĠF N
ĠF oo
Ġst ub
dd it
(' <
lib name
ĠEx tended
àµ Ģ
BO ARD
æķ Ī
Ġdiv ide
Ġpop ulation
Vis itor
RGB Controller
Ġpe ers
ĠASS ERT
ĠVer bose
éĶ Ļ
âĸ Ī
RESPON SE
åħħ èĥ½
D SP
H RESULT
I w
J OB
K C
b abel
v it
Ĭ ¸
Ġ( ));
un load
ĠĠĠĠĠĠĠĠĠĠĠĠĠĠĠĠĠĠĠĠĠĠĠĠĠĠĠĠĠĠĠĠ ĠĠĠĠĠĠĠĠĠĠĠĠĠĠĠĠĠĠĠĠĠĠĠĠĠĠĠĠ
ore s
sub title
Ġsub tree
Ġlocal ized
sup press
RGB A
arb on
ìł ķ
9 30
E LEMENT
M t
M VM
R m
c dd
c sharp
m us
q ast
v iz
Ġ lag
Ġ ORDER
se ll
me ss
=" __
ĠC lock
ĠC ost
ĠP ango
ĠM AT
ĠU IT
02 0000
SP H
Ġtemp or
Ġinitial izer
sd ay
ĠSM ALL
Ġaut oc
Blue tooth
Ġhook s
yank ed
O v
Y z
f emale
ĠT w
ĠC ould
ĠD V
EN UM
ĠV irtual
pre ference
Ġat trib
input ReportReason
Comp ress
DI FF
Ð° Ð²
Peer NotifySettings
EB USY
Ġindic ated
íķ ´
assoc sym
effect s
Ġdelimit ers
ĠReport Reason
/ ">
8 60
U e
Ġb ene
ĠS ample
ĠT K
11 04
Ġl ife
ĠM X
Ġg old
Ġr di
Ġr bx
for warded
pect ive
Loc ated
msg v
Ġel imin
cd c
ĠKey board
Go od
ĠId entity
Screen shot
Ġemit ted
embed ded
vari ants
%%%%%%%%%%%%%%%%%%%%%%%%%%%%%%%%%%%%%%%%%%%%%%%%%%%%%%%%%%%%%%%% %%%%%%%%%%%%
het ic
> ")
P UBLIC
R t
W z
b ol
Ä Ļ
Ġin et
Ġre cover
ĠS n
Ġ< *>
set ter
Ġ\ ""
ĠL ike
text ures
lin eno
Ch an
ey e
mem cg
ĠAl locate
å® Į
Ġdescri bing
Ġgover ned
Ġhel lo
Ġwx Window
U y
â Ī
è ±
Ġf resh
Ġn am
co uld
In spect
Ġ2 70
ĠE moji
Ġst ay
round s
ĠCON V
áŀ ¾
Read ing
Ġshow ing
Ġthem selves
AV A
Custom er
Ġweb page
syn th
éĩı è¡¨
Ġenc ryption
6432 75
["\< \"
ĠCyr illic
C redential
E AC
M orph
U x
t ensors
re map
Ġ( ..)
Ġ' ("
=" @
con sumer
ĠP rep
Ġde tailed
ĠE QU
28 50
Pro jection
LL OW
Ġqu ad
ner gy
Ðµ Ð´
Ġlog ged
Ġallow ing
çĶ ·
Ġge om
ĠReg istry
Ġbr ing
subst itute
Dem and
]:= ",
ĠAUTO GENERATED
ĠPur ple
Ġdeg rees
Schedule d
Ġinterpre ted
O z
P iece
Q c
W g
h ang
| $
and ra
ab ove
Ġl ic
Ġex c
06 797
Ġlet s
che m
Ġpre diction
Ġtext area
---------------------------------------------------------------- -
//////////////// ///////////////
ene ss
iy a
maz ing
serial ized
Stat istics
glyph icon
D DE
F la
L in
M m
T utorial
a ign
Ġt re
Ġ{ _,
ur ther
con ver
ĠD isp
ĠE co
ĠL ines
Ġg v
ĠG LOB
Ġ% /,
Ġ! [
ere ference
EX CEPT
áŀ ĳ
ĠDE C
ĠInt el
Ġlib gsl
~~ ~
Mark et
ny a
ãĥĥ ãĤ¯
ĠACC EPT
èĪ ¬
á¶ ł
ĠTTransport Exception
0204 16667
643275 463
@ ;
B N
G h
H over
Z m
p j
Ġb ash
ir ty
ĠB lack
66 96
Ġ! !!
Ex ceptions
Ġcomp utes
ĠX XXXX
dev mem
Ġ... ,
Ab ility
è¯ ¥
Ġder iv
Sent Code
Ġorigin ally
11100 10011
Ġprom ise
PIX EL
sticker Set
Bio me
PLUG IN
ĠGG ML
1110010011 010000
F w
H V
O A
U CTION
b ss
n est
al u
Ġf urnished
Ġ1 78
Ġ1 76
ĠR S
Ex clude
io v
ne ighb
(& _
long rightarrow
BU ILT
User Info
/** /
exp licit
auth ors
DB G
Web Api
Ġ---------------- ---
(@ "
Com ma
BL K
ĠReg Exp
PK G
pixel s
============ =
ĠCl one
4700 69444
Ur ls
INTERN AL
éĩıè¡¨ åħħèĥ½
8 995
H d
K w
S implify
f ib
n or
re present
st ash
lo red
Ġn t
Ġ1 39
Ġ2 19
ĠM ultip
Ex change
br anches
Ġì Ħ
Ġperform ing
ç» ľ
ĠUN IQUE
708 95
QK B
,*, *
AAWwAAWwAAWwAAWw AAWwAAWwAAWwAAWw
C atch
st ory
ck ed
ap l
th m
Ġ2 12
ĠM issing
ĠB ank
item decl
ass ume
min utes
SP LIT
Part icle
ä¸Ģ èĪ¬
99999999 999
ä¹ Ī
á½ ³
ĠTEST ING
Ġser ve
Ġpan ic
Ġcred it
E u
E QU
R u
W error
x r
z swap
| &
Ä ĩ
al p
it ary
un register
Ġin cre
Ġ1 72
ĠS PI
ĠC ategory
ĠM P
Ġ| {
RE CL
28 32
Ġun quote
wh ole
her ent
ĠPro file
Ġback wards
mod ifiers
({ -
åĪ ©
google apis
å± ķ
Ġ**************************************************************** ********************************
Struct ure
rece iver
ĠâĢ ¢
Ġcard s
Ġmount ed
oratimestamp ltz
aos ase
ĠLear ning
ãģĹãģ¾ ãģĻ
åĩ½ æķ°
S b
S quare
T FD
a ma
Ġf m
Ġf ib
Ġre cursively
ĠA DR
******** *
Ġst ops
Ġg ather
OR G
Ġx p
Ġse ar
sy nt
Ġobject ive
CH ANNEL
]} },
Ġoption ally
Ġ"" ))
à¤ ¯
Ð¾Ð ¶
DX Matrix
rows ers
ĠPre view
oct et
ç¬¬ ä¸Ģ
ç½ĳ ç»ľ
( /\
H l
J k
in active
un stable
file system
ĠH i
Ġres idual
VE C
Ġhe alth
arg p
we ather
FORM ATION
cent ral
Ġâ Ĭ
Ġtool tip
ĠOB S
DISABLE D
ìļ ©
1018 52
ç¡ ®
$ :
F p
Y o
an imate
Ġa i
Ġa ffected
um in
---------------- -------------
sp atial
ĠB X
qu ared
ĠV S
com b
Ġ\" %
ĠEN ABLE
bra cket
Ġsn ippet
658 101852
Git Hub
C w
G ORY
a code
b enefit
r td
x link
Ġs vg
Ġ1 59
Ġ: (
ra ku
get Style
ĠW all
AN CY
rd r
Ð½ Ñĥ
Reg Ex
SW AP
ãģĹãģ Ł
Machine Learning
èµ Ħ
ĠDer ivative
Qp DT
D l
D istribution
I g
K v
V b
Ġ Å¾
re view
Ġ( []
Ġs sp
ol ves
ĠI DE
ĠC lasses
Ġor ientation
Ġun stable
IG lzIG
bo y
Ġne ighb
Ġ7 3992
inter lacing
ĠÃ º
Gdip Get
ĠCF String
Download Settings
Ġregex p
Prec ision
Ġtopo logy
äºĳ éĺ³åİ¿
2987 6475
. ')
S lide
d mo
st udio
is Nil
am t
Ġg uestfs
ST ABLE
are ns
Ġ_ :
urre nce
Sh ade
ĠInput Message
ĠInput StickerSet
\. ((?
ĠInst itute
Ġ/^ \+
ĠUN KNOWN
PG M
ç¬ Ķ
Spark Context
å·² å©ļ
ĠHEAD ER
ĠìĿ ´
æ¶ Ī
ë© ´
) }.
C ls
P m
h uman
m unmap
s ale
Å ¥
Ġt an
Ġp k
co w
Ġ1 66
Ġ1 46
ĠT I
Ġde structor
dd a
Ġwith CString
ain er
cre ator
mov zx
vert ices
ĠQ ueue
sk b
æĸ Ļ
BO OLEAN
Ġhand s
bound ary
å° Ķ
æŀ Ħ
Mut ex
å¢ ŀ
jak arta
ĠDK IM
+ [^>]*
R ON
V v
Â «
Ġs implify
ent e
is hes
Ġl ng
ĠE D
Ġe g
99 94
av r
Ġun map
ĠIN F
Ġne q
ãĥ ĸ
Ġreg ression
ĠPro p
sw ish
Ã¡ v
cloud ify
Ġbin aries
oratimestamp tz
Pur ple
Bal ance
èİ· åıĸ
ĠINSPE CT
P v
Y y
a head
n Ã©
w ers
en ed
me p
Ġs ends
Ġs heet
Ġb ias
co ol
Ġ1 94
il ib
ĠS VG
ĠF INAL
ĠE DIT
fo od
De interlacing
RO LE
ph oenix
ell er
Ġpr ices
di agnostics
Ġpart y
Ġassert ion
COR RECT
Ġcorrespon d
SV G
ĠREF ERENCE
Ġrec ipient
Transport Impl
è§ Ĩ
ðŁı ¼
Ġtech nologies
*:*: *:*:
Dispatch er
éĩıè¡¨åħħèĥ½ éĢŁåº¦
D ONE
G g
re li
ex c
age t
th s
ĠD one
Ġ# >
St retch
") }
Co ck
update New
Ġremov es
LET ED
bread crumb
( ...
F rozen
J Q
o is
s ive
v in
z ing
-- )
Ġa h
Ġ1 73
Ġre covery
ra form
ĠN Q
ve h
RE SOURCE
ache s
ĠTh rows
ĠRE ST
Be an
ĠAl ignment
bb b
DQ S
éķ ĩ
don trun
loopy d
. -
5 21
U m
X m
Y aw
Z y
[ ].
f its
Ø ¨
er gy
Ġf dt
ab al
ra vo
Ġ2 34
Co lour
ND RC
ĠDe ep
FA ST
click ed
ĠMaybe Source
Ġer l
Ġpa lette
Rece iver
Ctrl Enum
Art icle
QUE UE
06797 7499
) !
j Q
p la
Ġt icks
Ġp ivot
Ġa u
lo ut
ĠA CT
ĠP res
ĠR ENAME
Ġde veloped
ĠE nergy
ĠB IN
lic ative
inter p
oper ands
Ġinter polation
App Update
Ã© se
Mark down
Ġ---------------------------------------------------------------- ----------------
Ġdiag onal
coord Last
æĵ į
) };
c ds
g fx
g uestfs
Ġt utorial
Ġw ave
ĠT ER
ĠN avigable
op sys
Se ek
comp arison
div ide
Ġper manent
ĠDe velopment
]( !
Ġtable Name
sol itary
ĠIP F
Inv ites
IST ER
Doc s
Ġimplicit ly
ĠâĢ ĺ
sheet s
Ġrecomm end
artifact Id
ëı Ħ
D uel
K t
w al
ì ĸ
re ports
Ġn cq
Ġin p
ĠT Binary
if True
Ġ< --
as er
ĠL ower
sp er
() @
Id List
Ġar ity
Ġun necessary
Ġtype def
ne utral
raw line
ãĥ ģ
Ġ.. \
Ġlib s
Ġph y
cy c
expr s
ĠĠĠĠĠĠĠĠĠĠĠĠĠĠĠĠĠĠĠĠĠĠĠĠ Ċ
web site
Ġexpect s
Web API
Ġver ification
ĠBu iltin
Ġfl ux
\": \"
Ġ'< %
Account s
ĠUp AtomIs
Ġca used
ĠGu ide
thumb nail
H N
O mega
d cache
} ->{
re ement
de a
Ġ( ()
Ġ1 54
Ġ2 16
Ġr isk
AT ILE
text Field
ĠH o
Ġun able
AG G
(( (
Ġspec ies
led on
cho mp
SH AD
byte vector
Min imum
ä½ ķ
Com bin
Ne ed
è¯ »
pat ient
TX T
_] :=
Sent EncryptedMessage
Terms OfService
æĵį ä½ľ
# (:
C m
P b
P w
Ġ 0001
Ġs amp
Ġ1 87
Ġd h
if orn
Ġv levo
Ġ\ /
() ->
"> ';
Ġco lour
Ġfile Name
ĠK ERN
do i
pos itions
pen ing
Ġover head
Page Block
ĠFOR E
Ġcons umption
àº ģ
DT D
ĠPO INT
ðŁı »
ili ary
ãĥĥ ãĥĪ
hib it
imb ledon
8 30
O y
Z Q
[ .
é ¾
re sched
con sp
sh ips
port ion
Ġsh ip
45 45
Ġimp act
Ġlo ops
Event Type
Ð¾Ð ¿
å¤ ±
margin s
commit s
Global s
rout ing
Defin ing
gramm ar
Play ers
Ã§ Ãµes
ðŁı ½
ðŁı ¾
ðŁı ¿
864 2708
ĠAv ailable
Exponent ial
aosase ct
8642708 33
$ _
J t
K A
K b
Y v
b mp
h line
} \\
× Ĵ
Ġd itto
el ine
ĠT List
ĠT wo
ĠC RC
16 36
14 15
19 86
Ġme tric
65 20
Ġu v
Reg istration
post gres
Ġloc ate
Ġreport ing
Ġrout er
CHAR ACTER
Ġcollect ed
aq f
encrypted Chat
abcabc abcabc
tray al
E LE
L igature
W ill
X W
X y
` ]
s With
s lug
x FFFF
re tain
de e
Ġp pppp
Ġd ash
el ixir
Ġ' ?
if ace
ĠN ET
), '
Ġ& '
OR LD
.. #
lin er
lab an
sub net
UR F
class name
By Ref
Ġerr no
Sub st
Sp ot
Ġ"] "}]],
ACT IVATE
initial ization
Ġà´ ħ
è¡ Ĺ
product version
{} ",
================================================================ ================
Weight s
ĠSu ite
* )))
7 31
; "></
w imbledon
re aded
or ters
Ġre scue
20 69
ir y
Ġcon crete
Ġe f
item descr
Re active
Con current
sh oot
SE PAR
DE T
ÑĤ Ð¾
yp ot
post s
IB LE
clear Output
sequ ential
æ²¡ æľī
solitary Feature
) ].
? </
L w
N h
N ST
q j
á ĥ
Ġs uspend
Ġh r
27 32
IP V
HE IGHT
Ġcons istency
'} );
rel se
á½ ¹
Throw able
20202020202020202020202020202020 2020202020202020
warr ant
) ");
< ::
L REF
P et
X p
Ġ" ..
Ġ1 43
Ġd ll
ĠI Transport
ĠO LD
Re striction
Ġspec s
UP ANCY
Ġlib hdf
(_ :
cd ot
Property Is
Ġcons ists
[[ :
RI E
Anim s
Ġ**************************************************************** *
Ġ'" '
hdf group
seg ments
ĠOPEN CV
orach ar
- </
C x
I k
K a
Q UEST
^ ,
k bytes
n ur
o z
ĠĠĠĠ ĉ
me tro
Ġi ll
Ġb are
Ġre dis
Ġv ehicle
od ity
Ġl w
15 64
Ġwith ForeignPtr
Co ordinates
ãģ ¤
Input s
div ider
init call
SP DIF
Ġsu fficient
ĠArray List
Process ing
236 067977499
Scroll Bar
æĽ´ æĸ°
ĠGuestfs H
ĠGuestfs P
vot er
arbit ration
Ġsly ly
iforn ia
236067977499 79
9 16666666666657
E H
G Q
X e
p Graphics
en emy
un a
ĠC over
Ġ_ .
ĠH IGH
08 95
ui uit
Al ternative
Ġinter act
ĠAr row
cy cles
std call
enum s
Ġdisplay s
real m
TIME S
ĠKEY S
Ġmedi um
ĠOpt im
161907 6024
@@@@ @@@@
PAT ID
Ġaccur acy
ĠEco pening
B t
G x
H EX
M f
| ,
in tr
Ġi pairs
Ġs sh
Ġs ensor
la w
la ke
Ġ3 05
Ġex am
pre lude
Ġan alyze
Ġtr anspose
no op
'), ('
field cat
Ġlog o
defined Symbol
ä» ·
Ð¾Ð ·
åį İ
BIT FIELD
Ġdat um
^{ (
Ġfur iously
Transp ose
Scal a
vari ance
7 01
D ashboard
F ED
M isc
T m
d anger
t it
} ']
de velopment
Ġi ma
Ġo id
Ġv endor
ĠC B
ĠD ot
Ġ2 60
ĠM ON
ER ENCES
ag ain
not dir
Ġne arest
cache s
ĠPro j
Char ge
Ġ;; ;
Be en
;;;;;;;; ;;;;
FE ATURE
Ġes caped
Ġver ified
245 15
ĠAt tributes
ĠTrans late
Feature dStickers
é» ĳ
scroll bar
..... ?|\
MER GE
S ensitive
X z
c andidate
Ġs dk
lo Å¾
Ġn at
Ġin vert
str iker
ĠR WORK
), $(
Ġ+ !
ĠM M
ĠL ab
Ġe igen
AL LOW
ĠH ide
Ġk f
ĠIn tegr
ph ases
ãĥ ¡
`` \
ĠAl pha
PER L
æĺ¯ åĲ¦
Ġpress ure
Skill éĩıè¡¨åħħèĥ½éĢŁåº¦
Ġgor outine
OCC UPANCY
5 31
B c
E FS
K V
T f
Z j
g allery
de structor
ex tras
il ers
as ide
op bc
Ġde m
lib exec
top nav
her mind
iter ate
POS IT
({ :
Ġdiv isor
session s
Scale Denominator
Ġdynamic ally
adv anced
vertical Center
Ġcontrib utor
; '
C URL
F k
de cess
lo tt
Ġin form
Ġd ic
el en
ĠS UP
es caped
om as
ĠW arnings
ĠĠĠĠĠĠĠĠĠĠĠĠĠ Ċ
UT C
cla mp
mark ed
stream ing
Val a
Ġevent ually
Port Security
215 00
IZ ED
ãĥ¼ãĥ ī
çº ¿
Ġbow ler
è± ¡
D n
G round
P DF
\ "><
d char
n ut
Ġc trl
Ġin dx
Ġ1 71
ul us
ma ker
Ġ2 22
14 64
lic as
Ġar c
]) ]
Sh ot
Check point
NE Q
Spec ify
ĠVal a
Ġdown loaded
ä¸Ń çļĦ
Ġandroid x
Background Color
' -
H er
J C
K z
R v
R RE
T l
X C
X f
l inder
s outh
× ĺ
Ġn i
Ġ1 81
ĠS vg
Ġh ence
Pro log
ore g
ĉĉĉĉĉ ĠĠĠĠĠ
not ifications
ä¸ ¤
Ġact ivation
cat kin
cor ner
dot imes
Ġlower case
sendMessage Upload
ĠÄĳ á»
; #
C ARD
E PERM
F t
J q
S lots
W k
× ĸ
Ġt unnel
la pping
20 30
Ġh s
11 99
Ġde velopers
ĠF IND
Ġ# -
ĠH andler
ID LE
ET CH
UN IX
ĠRE PL
ĠDE CL
Ġdis c
Ġpop ulate
ĠMOD Flags
ĠNUM ERIC
IQ Graph
Org anization
Combo Box
Flat ten
B v
K O
W f
X l
e valuate
Å Ĥ
ì ĥ
Ġo bs
Ġm iss
el sif
if ts
ĠR ew
__ =
Set Page
Ġ$( \
CO ST
lat in
CC C
cal cul
cro l
ĠEND TRY
Ġad r
è¯ ¯
ĠURL s
Password KdfAlgo
final ize
ĠConst ants
,*, *,
ìĬ µ
cdf g
contain ers
orav archar
3 188
E ZX
M w
Q ue
R k
U ses
g ent
í Ĭ¸
Ġ Å¡
la pp
Ġin finity
Ġre ly
ter y
RO UND
import ed
fault fd
Ġno SideEffect
ãĥ ¥
Ġoff icial
PL AN
fn r
Ð½ Ñı
Ġfind s
wr ong
è¿ ŀ
merge able
ĠWeb Page
Thread s
æĮ ī
é¡ µ
Pix buf
hier archy
åĬ³ åĬ¨
/ ************************************************
G SL
I j
T ang
v ature
on om
Ġc oding
ame s
ame sh
tr u
11 50
Ġcon sumer
ĠM aster
Ġex posed
sh uffle
Ġme ant
ĠK SM
AB ORT
default Value
bl end
auth entication
Ġact ivated
Enum erator
à· Ģ
"}]} ]}
ouse l
ĠOPT IONS
éĢļ è¿ĩ
Ġcock tail
SPAR C
k ap
t lement
in file
le ter
me x
Ġa y
Ġn row
ab il
ĠP o
Ġis c
get ter
---------------- -------
St an
pre load
Ġan imated
SE rror
include graphics
Ġover written
Ġfont Weight
.* ?
sv c
irq restore
Pa inter
vol atile
>` _
B x
D symbol
J g
M ajor
W U
X v
n ic
x ls
co erce
ĠP l
Ġl x
ĠG ray
25 0000
18 99
add Attr
ill ing
100 3
ud ah
"] }
Str ip
root Project
Web View
COMP LETE
bad ge
LIT TLE
ĠSL UB
suc ceed
* `
B one
F V
d sp
f st
g no
p seudo
× ¦
Ġ -----------
an alytics
Ġs py
Ġa String
ig ation
ĠI Thrift
ĠF REE
Ġan si
RO Y
sign ing
inter pret
89 60
Ġpos ix
Ġlocal host
AM S
Ġtra cing
Sp in
sol ution
Ġview port
Option als
REC ATED
Display ed
Ġdi agnostics
é» ĺ
ç§ »
rnd key
âĢįâĻ Ģ
Ġsymp ut
G d
k od
ç ¢
la d
il k
ch i
ĠE mail
Ġ& [
Ġ% )
struct s
struct ures
Ġun supported
(' ./
Ġle aving
Map per
Game W
rm op
bench mark
enty Fe
âĢįâĻ Ĥ
ĠConf lict
: @
T id
Z M
p ango
ex cl
ĠS er
ĠP oll
ĠD ictionary
ment um
AT ING
ST A
Re try
pre pend
>< ![
ph an
Ġle aves
md f
58 333333333333
State ments
ise mpty
red uced
Ġph p
à¤ ¹
rule list
éĢ ģ
ä¹ ł
Ġmis match
æ¨¡ å¼ı
CONNE CT
> _
B AL
E QUAL
G oto
N AT
P j
d av
g an
Ġt ar
ic ast
ĠS EC
ch rome
ĠP D
ĠP et
ĠR SA
Ġcon verts
ĠL ONG
ER VE
oo f
out s
ĠO Auth
ib ration
Ġk v
sub scriptions
Get Pos
ãĤ §
Ġwork flow
ÑĢ Ð¾Ð²
Gu ard
åĵ ¡
åĭ ķ
éĶ ®
F DF
t at
w orm
en n
en ing
Ġb d
ĠR M
od a
Ġfor th
Ġ3 24
Ġco ords
Ġun mapped
io g
pl ate
Comp atible
ĠTH AT
ĠEX TERNAL
graph ql
ĠPoint s
AV AILABLE
Ġsm art
Ġcla im
D ensity
E k
G k
K y
O i
Q WORD
R h
Y EAR
g pl
| [
é Ĵ
Ġc tl
Ġb anned
ĠT Label
=" [
con verter
ĠA PK
ĠA nother
ĠN M
Ġ2 54
Ġfor all
sp l
gin ated
Ġ5 01
Ġj config
," #
gn oring
Ġinter sect
ru ary
Ġraise s
IDENT IFIER
________________________________ ________________________________
æĻĤ éĸĵ
saf ety
TFD ays
# :
4 1666666666667
F ig
G alaxy
H m
J c
Ð ¡
Ġt ip
or st
he ld
Ġm otion
ort ex
Ġ2 14
sp aced
Par allel
comm end
DD DD
Ġcons ist
normal ized
Reference s
cir cum
å¾ Ī
Install er
pres ence
Ġconn ector
Shadow s
æĥ ³
predict ed
ãĥĩ ãĥ¼ãĤ¿
ë¦ ¬
C fg
I ID
N umpad
c ma
f on
Ġa ck
Ġa da
ĠS V
Ġ} ],
us p
ĠD L
ord inal
Ġco ord
Index es
"] );
Ġab ility
FA ILED
cy an
Exp anded
MOD LIB
ĠLO CATE
Abstract Array
ĠBuild er
ĠExec ution
AES L
Ġrecent ly
Ġ'^ '
ĠSelection Set
( ',
E f
V h
Z o
u ary
í Ħ
Ġre new
ul ations
ĠP e
dd ns
05 98
65 28
ak an
To File
lat ing
default properties
Stream s
remove Class
Ut ilities
Ġsearch ing
Ġ[' {
ĠGL enum
Ġoptim ize
æŃ ¥
ĠPartial Eq
Dig i
æ® µ
åĬ³åĬ¨ åĲĪåĲĮ
$ }
K M
X D
Y H
a Ã§Ã£o
g ar
h rl
w allet
y i
z v
Õ ¡
Ġp ix
Ġp lots
ĠA MD
ĠD ispatch
ĠB IT
ast a
>< !--
with Default
fe as
ĠMan agement
Ġsm allest
Ġindent ation
Ġvp ravo
amil ies
IHNld A
æĴ Ń
ĠVOL ATILE
. +
] !
v ements
le f
ĠS R
ĠS GP
ĠT om
ĠI SC
Ġ} ),
ĠP anel
ma st
ĠM T
Ġ3 65
19 81
Ġch ance
Ġconst expr
]} "
User Name
Char Sequence
DB X
Ġ${ _
ĠAn notation
Man ual
uint ptr
EXEC UTABLE
ĠOper and
oxy gen
æ¹ ĸ
. ^
A mb
E I
F raction
G p
P d
P rom
V j
W ARD
a ight
c sp
d ak
i String
Ġ" |"
ĠS IGN
ad apt
Ġde ath
qu er
Ġtr ap
ĠJ ump
EX IST
Ġinter cept
ACK ET
PO OL
ru it
Lay ers
Max Size
åĬ Ł
graph ic
Enum eration
ĠPrint f
Ġtermin ation
Initial ized
LIMIT ED
Mix in
/ ")
G v
U Q
W C
b one
m ips
w rd
in fer
de serialize
un able
co ut
Ġ1 57
pt odate
ĠR OT
ff a
ĠB ANK
ps k
Ġus ual
Ġare as
à´ ·
node Type
time zone
Text Field
ld a
vm as
Lo ss
df b
ds a
Ġobj p
Base line
GR ID
IV O
Ġmark s
ĠEN V
chat Invite
Ġprotocol s
Ġbus y
VO ID
cred it
Ġbro ken
Ġ"\< \"
W v
W ed
i us
ë ³
Ġ1 95
ĠS ide
)) "
int f
li min
ĠL ive
": ["
Ġco res
code d
pr nt
Ġ4 99
De veloper
Ġ16 2
Ġ16 3
ts v
Ġinst antiation
]+ )
ĠMOD IFY
Ġagre ements
agent o
???? ????
ĠInv ocation
âĢįâĻĢ ï¸ı|ðŁ
âĢįâĻĤ ï¸ı|ðŁ
6 0000
D j
G j
H il
I OR
J r
L g
L l
O e
P ay
P LL
P references
n and
r nn
~ %
in finite
re x
Ġi y
un ame
ĠC AS
ĠF X
Ġ3 50
ĠG overnment
be led
Ġal arm
res idual
ES P
Call s
vis ions
iver se
global s
az e
æķ ´
[? &
Ġpadd w
ĠTBinary Protocol
é¾ Ļ
$ };
* ():
U v
U w
` ],
q ty
Ġs un
Ġa mp
Ġb isa
is ode
Ġd fd
str R
Ġg ene
Ġ& "
oo ster
ĠO s
ph ar
arch itecture
Comp uted
mat nr
CL ICK
---------------------------------------------------------------- -----------
Code Unit
Ġinit With
'. '
sup ply
sn mp
UX ER
ĠSelect Stmt
Ġbar rier
å¤§ åŃ¦
Ġleg end
ĠDescri bes
Ġemot icon
H f
c up
q Y
z alloc
é ©
de w
Ġb as
ĠA void
ĠP AT
Ġ[ ]}
Ġ2 24
Ġfor ces
:: $
ST UART
19 66
Ġ` --
eng lish
input PrivacyKey
ĠEND P
PC M
ĠInput PrivacyKey
Ġ{} ",
Access ibility
Ġì ĭ
]+ :[
sche mas
dup licates
ĠSource Pixels
ĠPos itive
ĠLay er
1110 10101
privacy Key
Ġfeed back
Ġimpro ve
ĠPrivacy Key
npm js
iph ers
Affected Messages
CellTags Index
" ="
/ [?&
D ING
G b
G w
R oll
Z s
b anner
h um
l ig
ol ine
Ġh dr
Ġl ump
ĠM ag
qu asi
bu dget
av el
08 16
28 125
Ġun specified
AA AB
') ]
ens a
ãĤ ¦
áŀ ĸ
gener ation
any a
Ġshort cut
accept ed
Multip ly
< _
> ($/)
? ://
E sc
F c
I OD
Z i
c ac
er ated
on o
al go
al arm
Ġn an
co ped
Ġd ax
ĠT String
ĠT Stream
Ġv x
int ent
10 29
par sing
Ġun ary
Ġ? >
char At
Ġ~ >
ĠCON STRAINT
over write
ĉĉĉĉĉĉ ĠĠ
Array List
dr ug
Ġq t
656 25
ĠâĢ Į
Ġyy lval
<' _
abe led
Digi Cert
j nz
k asan
k appa
00 11
ge q
Ġ1 89
end verbatim
set length
ĠR ANGE
im mediate
ib y
ĠU nc
Ġ4 03
ĠRe v
js ii
Ġuser data
ĠDe let
ĠPro log
ĠPro gress
exp ires
àµ ¾
Inter preter
Reg ression
SL ambda
(: ,:
cor por
Bit Field
(! __
Ġda emon
ç« ĭ
ĠRetrie ve
1010 1000
NOR ES
>ãĢģ <
* ',
M SI
U h
Z u
j ax
à ¿
ç Ł
le ague
ss a
Ġ1 56
Ġv ect
ir s
Ġpro totype
dd y
Ġun initialized
IS S
Ġbegin s
Time Zone
post fix
Child Node
âĤ Ĭ
serv ing
={ {
Ġà¤ ķ
ipher al
Ġcla mp
BG FX
ĠGR ID
Ġ**************** **************
getStyle Value
J N
M ill
O j
m no
s cl
v an
st s
00 21500
Ġc go
Ġc atalog
Ġi st
Ġb an
ul ators
=" (
ĠP ull
In Optionals
Ġr val
De coration
ph ysics
En ergy
ced ing
Ġ9 00
An cestor
Ð° Ðº
ĠAl loc
ĠName d
pol ygon
ARCH IVED
Su ite
Ġtri angle
custom er
ĠMin imum
ĠWORK ING
Mov ement
Upper Case
Ġoverrid ing
æĬĢ æľ¯
PROVID ER
0021500 296
A UX
F DC
P andoc
l bl
o il
v host
x as
Ġin creasing
Ġre action
ĠS AVE
Ġv ot
Ġ[ &
ht bl
def type
ĠV K
Ġon Pressed
Ex W
web socket
lit tle
Mem o
ĠLe ave
AW SLambda
ĠPri ority
Spark DataFrame
iline ar
% =='
E w
I u
Q y
a ac
h op
v lan
Ġp w
ĠS caled
ĠT id
ul ates
ĠC ICS
ĠU NS
Ġ] ).
pos its
CH K
ca iro
ĠCon structor
Check ing
iff ies
connect ing
mac font
Ġavoid s
Gr ab
Indic ation
iom ap
âĶĢâĶĢâĶĢâĶĢ âĶĢâĶĢâĶĢâĶĢ
ãĥķãĤ ¡
! (_
; :
= @
Y a
_ /
n R
é ¦
Ġ1 200
Ġre cv
ĠI RQ
ĠA GPL
03 03
cess arily
node js
check point
Ġinter active
package Name
qual ified
Ġfont s
ĠLog ical
Parser Tool
Ġperson al
åĢ ĭ
1234 56
PARAM S
******************************************************************************** ;
jac ent
ascal ParserTool
ç¾ İ
Bet ween
ĠFORE IGN
J p
O CV
S r
m un
p ings
p dsn
ç Ŀ
Ġp xor
tr ust
Ġ2 33
Ġ2 27
Ġ2 45
sp here
ick en
à´ Ĺ
Sh utdown
An n
field name
ĠST ACK
Channel Difference
pol ice
pg table
SR P
>& #
Cre ating
OPER ATOR
ĠREQUI RED
H inge
Q C
Q d
V r
Z C
b dd
b ulk
re covery
Ġc rc
Ġf ooter
Ġp ing
co herent
tr acing
ĠC MP
ile ge
20 28
0000 111
able View
"> "
ĠK ong
Un handled
sk i
mon str
bra ins
Ġ**************************************************************** *************
Qual ified
çº §
conj unction
Ġcontinu ous
Ġlif etime
BAS IC
ĠTBinaryProtocol Impl
' =
N d
S f
T ween
e ol
l or
z hu
Ġ$ (".
ĠI R
ĠN ORM
am an
66 74
Ġadd itive
Se at
Ġcol names
Ġ? (
Un ary
On line
cap ing
GR APH
Ġì Īĺ
mk t
replace ment
ĠPL AY
Ġ329 16
ĠVALID ATION
D m
D ash
F TRACE
G z
G AME
J d
k at
ë °
re use
)) ).
Ġ2 18
ĠE qu
pre tt
Ġme ss
ref lection
ant issa
nd x
File Hash
Ġcomp act
OT H
IS DIR
([ ])
current Index
As ia
Game pad
ĠPage s
Find er
WH ITE
åĨ Ļ
666666666666 657
uspen ded
F ATAL
J j
L h
P USH
h en
k all
ĉĉ ĠĠĠĠĠĠĠ
Ġp thread
Ġs alt
Ġd ual
ect ed
ma gn
ĠL im
(' :
back ward
ui et
ĠPro to
dr iving
Ð¾ Ð½
pg d
just ify
SQ RT
à¥ ģ
Î¿ Î¹
Ñĩ Ð°
CHECK S
à» ī
sser act
lru vec
Ð°ÑĤ ÑĮ
ĠEr lang
NORES ERVE
O bs
p ersistent
s uspend
Ġv ary
Ġ3 600
ang les
Box es
26 16
ast s
ĠTO P
af ari
ĠString s
SS H
UM UL
VER SE
'. $
change set
sock addr
TMP FS
EMP T
front end
ĠInitial izes
çĶŁ æ´»
getOr Else
>{ @
æ· ±
? ]
M LElement
N oto
V n
d amage
f be
t ight
Ġ ÑĦ
con struction
sh l
Ġnew er
AC CT
sub type
no translate
Ġ20 3
fc ntl
åħ Ī
NP V
getElement sBy
ĠAb ort
Ġprec ise
Ġsl ider
Big Float
éĥ¨ ä¸»ç®¡
Ġise mpty
J a
J b
P ct
T au
V endor
d ag
p ap
r ant
Ġf st
Ġi cons
un ref
10 23
cl t
to Have
AT ES
Ġk Ã¶
Ġal gorithms
read ing
Ġcomp at
ph ysical
Ġ20 5
cre ts
num er
cp umask
Ġexp ired
Ġsc anning
Ġì Ĥ¬
Ġbr and
Ġident ified
ĠALL OC
ĠBit map
Ġvol atile
Ġrecur sion
ĠDr iver
tim ers
Delim iter
å¹¿ä¸ľ çľģ
ĠVLC Style
111010101 0000111
, *
@ #
A kt
V g
e in
n ost
p ulse
w ee
ar win
he me
Ġp ul
Ġs ites
ĠP P
Ġit ype
back trace
Ġno ise
Ġarg c
ĠPro cedure
Ġback ing
)/ )
ĠAr ity
fl t
åı °
MT L
Sent CodeType
RESULT S
IMP ORT
OBJ DIR
ĠTech nologies
Ġ"| ",
################################################################################ #####
Ġ'| '
è¡Ĺ éģĵ
IHNldA ojIENPTkZJR
P itch
S ter
S ampler
Z x
m td
p ie
ĠS CRE
ĠT AG
Ġh list
De ath
ĠRe load
her o
9999 9
åħ ·
wr k
fre quency
Ġcollection s
Ġqual ifiers
Ã¼ r
ele c
ãģ§ ãģį
ĠLink er
ĠBo ard
ĠAnt on
0 101
8 0000
c rit
f A
m ber
å ²
in er
Ġp al
ss ize
id oc
12 48
Ġ& (
qu iring
our ier
reg istration
gra ils
Th ird
Line Break
fix linenr
Sp line
Ġgroup Id
Ġload s
Ġsort ing
dot net
ĠImp ro
Ġedit ing
Card s
Mac OS
PhoneCall Protocol
ĠGe o
æ° ´
; #####################################################################################
D p
I c
S keleton
Ġa cl
Ġ1 111
Ġ\ *
oc al
Ġend of
Ġ% -
Ġ` [
ec g
sub scription
for um
Ġmap M
Test Hinge
**************************************************************** ******
ĠVar SetCapacity
213 56
Ġmost ly
Ġ------------------------------------------------ --------
ĠØ ¨
OPS IS
16190764 04
PropertyIs EqualTo
7 0000
C v
F wd
H b
O u
U o
W m
W heel
o ji
in ference
er ry
Ġ( *)
Ġp seudo
ch rom
Ġh om
Ġ2 49
Ġst oring
ĠIn str
Ch ooser
Ar abic
Ġne ither
TE CTED
Int l
Ph y
Return Value
Document Attribute
Game H
Post ed
Ġmonth s
ĠSCRE EN
U g
X g
e urope
o ken
x mdf
Ð Ĵ
ĠĠĠ čĊ
Ġ( ..
Ġb n
Ġn th
ur er
Ġfor get
Ġst udy
Ġx link
AL U
ne ighbor
TR IG
fl tr
Ġph ys
Dir ty
[] ).
Base d
çĶ µ
Ġ---------------- --------------
àº ļ
eric an
ä¼ ł
TARGET S
Ġintegr al
Ġhint s
Ini Write
ĠArgument Error
AABbAABbAABbAABb AABbAABbAABbAABb
Decor ator
6 31
< \
E ven
c amel
g test
n uts
Ġ Ùħ
Ġf uck
Ġp list
Ġs parse
if ile
Ġv ox
Ġth ru
em is
Ġh id
19 48
19 82
SE LF
data sets
Co eff
Ġcomp any
Ġcomp ared
Ar ity
CH P
Comp arison
ãĤ ¨
sum ers
Ġph rase
change log
Vis it
ĠREF ERENCES
ĠItem s
Setup Di
FFFFFFFFFFFFFFFF FFFFFFFF
MU MPS
Fre quency
Descri be
D d
E CHILD
H ero
R w
p unct
r iver
s rl
z f
z mm
æ Ł
an alyze
ge ms
Ġa qu
Ġo m
Ġd char
ĠI V
ĠI PC
ĠC ourse
Ġ2 44
ĠL azy
list a
Ġover all
ai opbc
Check Password
à¤ ¸
lit ude
Ġ$\ {
Ġdup licates
Ġhost s
Template s
çĽ ĺ
ĠComm unity
ĠAB AP
ĠRule s
ĉĉĉĉĉĉĉĉĉĉĉĉĉĉĉĉĉĉĉĉĉĉĉĉĉĉĉĉĉĉĉĉ ĉĉĉĉĉĉĉĉĉĉĉĉĉĉĉĉĉĉĉĉĉĉĉĉĉĉĉĉĉĉĉĉ
atter y
$ ("
G AST
K p
Q v
R r
W est
d ynam
» åĬł
Ġm usic
Ġd ont
el lipsis
ĠL i
Ġ` _
ĠJ ohn
mem q
)* \
"] ["
part itions
fl onum
Imp licit
sym metric
ĠSQL U
Ġnow rap
member NameLink
ĠÎ ²
224 33
Ġtrack er
neg ation
mr proper
æİ ¨
RESPON DING
ĠNorm ally
54266 177
C orrect
E j
O x
O ooool
V d
me ter
ing ers
et ic
ĠC ARD
Ġde activate
Ġ2 29
ĠE valu
sc i
17 09
FF A
ND K
ĠEx clude
Ġpage vec
arg c
CON DIT
CON NECTION
trans ient
Create s
Ġcomm unity
Ġinode s
/, #
topo logy
Ġgra mmar
cod ings
ãĥĹ ãĥŃ
Ġ'~ '
Ġjav ax
/ ../../../../
B f
H c
P ai
S OF
h q
ë Ĥ
Ġ ray
Ġb or
Ġw b
20 25
.. }
Re presentation
ll ength
data a
comp os
arch ived
net hermind
cy ra
Lib raries
Reg Exp
instance type
Ġgr ant
Ġ'% '
Ġax es
vv vv
Ġconfigur ations
: &
; {$
V enue
h or
p ump
{ *
Ĳ ľ
00 41
Ġs pect
un ately
tr on
Ġv ide
ĠD MA
ta pe
15 69
Ġco in
ill ion
ĠK GSL
TR AC
Un used
Ġq ts
PRE EMPT
dec ay
åº ĵ
Ġmet atable
SRC S
ĠCal cul
Ġrespon ses
æ· »åĬł
SCH ED
=[^& ]*?
ĠEMP TY
S d
S olution
W n
X x
X CHG
` *(
z ap
å ¡
Ġb f
ĠP ok
In ventory
ĠN t
Ġde script
ĠE list
99 93
pro ceed
Ġpro gramm
Ġcomp osite
ĠY AML
Ġsu cc
dis c
RL API
Build ing
symbol ic
Me an
initial izer
rs q
Ġë ³
æĸ¹ å¼ı
Ġoptim ized
################################################################ ########
emon ic
åĳ ĺ
spring framework
INTERN ET
Ġspre ad
Too Long
è¾ĵ åħ¥
ĠHW ND
Adam JD
SPH INX
C ANCEL
b db
z b
| [^
Ġ ************************************************
on ame
de ck
un iversal
Ġin variant
il ang
if er
ĠR AW
Ġl on
im op
und les
Ġ16 1
not ice
CC S
ĠCh ars
Code At
Ġtrans lated
Be am
Ġref ers
DR IVER
Expression s
ĠLo gin
wire less
ĠAuth orization
à¶ ±
Å¿ t
ĠDet ermin
REM OTE
ĠExec utable
ĠPol icy
414 21356
/**************************************************************** ***********************************
++++++++++++++++ ++++++++++++++++
Cla im
è¿Ľ è¡Į
NSU Integer
fav icon
Ġ************************************************************************************************ **/
1 000000
C CT
P ump
r ub
} ()
Å Ľ
Ø ¬
Ġt iming
Ġf fi
ro les
Ġp ragmas
Ġ- (
Ġh p
ĠD en
(" ~
pro ve
pro gramming
() [
ĠW r
sh y
Ġ4 80
ĠH D
Ġ7 68
gra ded
Ġstr cmp
Ðµ Ð¹
Inter cept
parse Int
Pre set
)), )
Ġcorre ction
Ġcr pc
lower case
ident ical
Pack ed
erc ial
ĠTok s
æĵ Ĭ
" [
N g
Q b
T im
W j
W ild
Z k
a utom
r isk
y k
ë į
Ġ )))
re order
Ġre act
ĠC ST
In finity
os is
ĠW script
ĠW alk
ĠV ol
IT A
Ġ, "
Ġar range
AD MIN
ise gno
the orem
Ġlocal s
den ot
ique s
Ġfilter ing
Mark s
Ġmut ate
stor er
ç´ ł
Ġlat ter
Ġ<% =
3333333333 329
CPP FLAGS
F ade
Q m
R gn
b irth
Ġ1 96
id l
ĠC tx
ĠP in
ĠD istrib
Ġr adi
app lications
Se ed
tern atively
Input PhoneCall
Ġnon zero
float s
ĠĠĠĠĠĠĠĠĠĠĠĠĠĠĠĠĠĠĠĠĠĠĠĠĠĠĠĠĠĠĠĠĠĠĠĠĠĠĠĠĠĠĠĠĠĠĠĠĠĠĠĠĠĠĠĠĠĠĠĠĠĠĠĠ ĠĠĠĠĠ
Ġ([ #
å° ĳ
Ver b
Ġocc up
å± Ģ
ĠFrame work
ĠPlay Sound
Ġcent ral
drv data
persist ence
+ ,
: {$
M ime
Z O
b olt
} ";
Ġ" **
ĠI BM
li a
ĠR ename
ect l
In Str
ĠN c
ĠF IFO
10 68
Ġ2 23
Ġe vt
Ġr st
ĠB IG
ĠV xD
AL E
Re vision
19 79
comp let
Input Media
)( \
NS Array
Port al
Notify Events
Ġcomput ing
à» Ī
cook ies
ĠAlias Seq
E o
F m
H p
M si
Z G
Ù ĥ
Ġh wnd
In set
get f
19 78
17 38
ĠU nd
ag le
data Type
ass ociation
Ġle d
ĠRe po
no b
LO OKUP
EX ISTS
Ġ20 48
enc ing
By Key
Ġstr aight
VER B
Ġcl n
ĠWe ight
199 1
swap list
Ġtyp ical
à» Ģ
Pub lished
Ġannot ated
ìŀ Ĳ
Ġvari ants
REQUI RE
éĤ £
Ġbracket s
Aff ine
############################################################################ ###
é»ĺ è®¤
B LE
I b
J et
Y m
Ġw arm
ĠS leep
ĠT GL
et ype
ĠM ultiple
Ġe lems
Ġ3 10
Ġ8 19
Ġcomp arable
Comp atibility
Ġmethod bind
eq v
FL USH
method bind
PRO FILE
Ġ15 00
Ġimplement ing
ĠWh ite
Bind Ptr
ìĿ ¸
Std out
Big Int
Ġfold l
XM LElement
ĠSign al
schedule d
ĠRel ative
ALI AS
è£ ħ
hom ology
ĠPhoto Size
+ )\
D CT
G REEN
X o
h DLL
Ġ ue
um a
Ġe j
Re cogn
Ġas sembly
be cause
35 89
Ġpr inter
pos ure
SP IN
Ð¾ Ñģ
mod ifiable
bf b
ÑĢ Ñĥ
ĠTR ACK
Game State
Tool Tip
ĠQu ick
ãĤ¤ ãĥ³
ãĤ¤ ãĥ«
J h
R aster
V p
Y M
e asy
p ms
x ds
ro c
ĠC GRect
In tent
ST O
ĠU BOOL
load s
Ġ(( ,
Ġ20 8
Ġtext s
ĉĉĉĉĉĉ ĠĠĠĠ
IP H
Ġsu do
Ġ\" $
fu zz
ĠClo sure
ĠMy SQL
Ġrespon d
ĠAllow s
bre w
ĠSched ule
Ġ174 12
ĠNU MA
C c
C LOCK
Z D
] ")
f iv
z c
le et
Ġs ampling
Ġo w
ĠT mp
em a
10 99
ĠD ig
Ġ@ <
ĠB C
Ġy ellow
lock dep
Ġtr ust
Ġ] ?
ton Node
Un restricted
Comp at
src dir
conf irmed
ĠCh ip
Ġtrans lations
View port
auth entic
Ġmod al
sup ports
åĪ «
wire frame
å¼ ķ
bus iness
SM ALL
[: ,
Prop ag
prot ector
ĠMe an
Ġ199 3
Ġpract ice
(.. ),
ĠLAB EL
grouped Feature
<() >
C op
C AST
C anonical
j vm
y u
Ŀ åı
in cl
Ġd os
ub ectl
Ġ2 80
16 227766016838
CH ANG
100 7
ãĤ ģ
Loc ator
)/ .
)] ).
ĠST DC
PRO XY
Inst antiation
sn ippet
COMP UTER
Ġë ª
Conf lict
ĠSpark Conf
ĠOB J
Operation Exception
CONST ANT
itect ures
Ġprevent s
,,,,,,,,,,,,,,,, ,,,,,,,,,
inher ited
Ġ199 2
éĸ ĭ
Affected History
Ġfol io
éĹ® é¢ĺ
" ',
, `
. }%
B ench
C ENTER
G reek
I so
T EN
Y D
l udge
z r
Î ĩ
re actor
or ient
ic ing
co ex
Ġm aven
is er
Ġv c
ac cent
ĠO ur
Ġ) *
Ġset State
Ġj ne
page vec
Ġ(( :
Ġ20 6
Ġtrans formed
SI MP
Ġ/** <
2017 120
alt q
Ġmedi an
Ä± n
Ġcare ful
multip ly
ĠEng lish
666666666666 67
CATE GORY
' ):
) })
> ]
E FFECT
K g
K m
V olt
X h
X t
z lib
| ","
ar cs
Ġa head
lo om
Ġb es
ĠS loc
ol ation
ĠC N
ub a
11 96
IN I
Ġ@ \
pre vent
08 3333333333343
Co verage
read ers
ĠRe verse
Input Format
Ġsup posed
Ġ<= >
fl trace
Script s
Link Method
Per l
ĠEn coding
ĠSub scriptBox
pop over
)$ [
Full Name
Ġround ing
Player Controller
Sk u
Dr ivers
ĠSY N
chunk s
ĠDep th
Recent Stickers
drag bar
channelAdminLogEventAction Change
ĠFin ally
ĠGLOB AL
CONDIT ION
J oystick
M ANT
N OD
R INT
T or
U c
Z LIB
f bo
m tx
Ġp aper
ut ative
un expected
Ġw orth
set c
ub ble
ĠR D
Ġ+ (
Ġ_ ]
27 36
(( \
Key boardButton
ug a
PI E
ĠInput NotifyPeer
stack trace
Spec s
So ck
Ġfail ures
2018 011
clear Menu
Ġë ĭ
×ķ× ¨
Bounds Type
åĿ Ģ
ëĵ ľ
">= </
æĺ¾ ç¤º
BUILT IN
Exponential E
" -
$ <
% *
: |
C LE
C aret
X J
c and
s andbox
Ġ" {{
un quote
Ġg ain
Con tinu
ps d
ĠIn i
ME TAL
($ $,
ãĥ į
user Id
AP B
Config s
DO F
For um
Create Object
has is
QU OTE
CM S
car ousel
Pre lude
çĶ »
unlock ed
Sc anner
åį ļ
Ġsol ved
Ġtri ed
Cond itions
Mar shal
ĠWrit er
Ġsynchron ous
ĠADR ENO
ĠSTDC ALL
) @
B ud
E urope
G a
I IS
N om
X Q
e ab
e fe
e valu
h ad
Ġ ĉĉĉĉĉĉĉĉĉ
al gorithms
ĠI L
ĠA rea
us hes
Ġ2 39
te sseract
pp le
be an
IS DX
"} ;
arg list
Ġinter action
fix tures
Ġcontain ers
ĠDE LIMITED
fin ally
Ġgroup ed
Ġdirect ives
áŁ Ĥ
Atom ic
ĠEN TRY
Ġconvert ing
269 74
Surface s
ĠGr adient
Sig ma
Ġtreat ment
ANC ING
: ")
F lu
I a
J obs
S CHE
V IP
á ¾
la v
str to
ĠC rystal
ĠF TRACE
Ġl bl
Ġpro ve
ĠIn tern
69 74
Ġcomp ose
MP T
AD F
Ġz u
for ma
Object ive
DI AL
NO M
PH ASE
PH YS
cy rt
Ġport ion
àº Ķ
DIS PATCH
Declare Unicode
à· Ĵ
ĠMark et
Ġsing leton
jet brains
ìĸ ´
? ("
R SL
Ġi ronic
Ġre gs
is Valid
ĠP icture
ĠP andoc
ĠL ic
Ġ# =
sp h
im o
34 57
new label
Key Word
Ġtime zone
inter pol
ï¼ Ľ
Ġnext Put
Ġlength s
Exception Type
Ut f
Ġassign ments
book mark
Ġdraw n
333333333333 33
orth and
ĠNe g
Ġadjust ment
Exist ing
Ġintro duced
9 21
H ig
L r
X j
f df
j dbc
m int
al ah
un tain
tr acer
)) =
ĠC ent
ĠA tt
ĠP lan
ĠL B
ĠL CONST
Ġe lastic
14 000
ĠB ug
ac pi
St able
Ġ/ ****************
ĠH AS
(' ../
sub tract
98 84
]) /
Ġ16 7
raw Value
Ġtime line
over line
bit coin
Ġmod ifiers
ĠĠĠĠĠĠĠĠĠĠĠĠĠĠĠĠĠĠĠĠĠĠĠĠĠĠĠĠĠĠĠĠĠĠĠĠĠĠĠĠĠĠĠĠĠĠĠĠĠĠĠĠĠĠĠĠĠĠĠĠĠĠĠĠ ĠĠĠĠĠĠĠĠĠĠĠ
Temp orary
ĠConfig ure
ĠTest s
Ġconstruct ors
Ġtell s
Rece ipt
æ¸ ħ
Ġadv anced
Ð¾Ð» ÑĮ
Ġrecur se
Feed back
ãģĤ ãĤĭ
ìĬµ ëĭĪëĭ¤
> ::
G reater
L ife
M aint
U f
W allet
c are
d sc
g ams
q o
y v
re la
Ġc size
ĠT ools
ĠR AD
up ported
ĠF UN
AS F
End ian
Ġwas n
cf b
Ġav g
web Page
Module Name
sec utive
Ġ---------------- ---------
Ġfore ground
sim ilar
ĠModule s
åĨ į
ĠAct ual
ĠSc ene
recogn ized
. */
C z
K c
R IX
S pe
X ray
i err
Ġ Ð½Ðµ
re mainder
ck ing
os a
"> '
sh ard
Ġco eff
Ġnot ifier
add on
ĠH PS
Ġk x
user faultfd
ĠCON CAT
Ġcomm its
keep ing
ĠAS R
Override s
ĠAuth entication
Ġshe aves
Ret Val
Ġrespect ive
Percent age
assemb le
Ġartifact s
æľįåĬ¡ åĻ¨
B b
I yBDT
S IL
S lash
W c
in ja
Ġp Bitmap
ĠE nt
sp rite
Ġg host
Re ject
19 80
ip addr
Ex cel
Ġal ternate
vent ions
AC CEPT
Ġ? ,
index ed
At tempt
check ing
sw apped
mode s
Ph i
Ġag g
has hes
sb i
Tag ged
à¦ ¯
REG ISTER
Ġbound ing
ĠNO DE
Ġpol ygon
Ġgraph s
Cl Compile
æŃ ¢
Ġcmp xchg
Ġcontrib utions
Ġdm local
Ġiss ued
ĠContin ue
uC libc
K x
X E
Ġc w
Ġa uf
un ities
Ġto wards
Ġ\ %
ĠF TP
10 13
Ġ2 11
ĠM ass
__ _]
"> ,</
Ġy aml
04 88
lin aro
ĠIn struction
ms m
(); "
Ġsub s
END ER
IP v
}} },
`` .
ĠEX TRA
Ġopt imal
ĠSo ft
success ful
Sort ed
Wr apped
ĠAg ent
& ,
' ..'
B m
F j
M ul
X r
w ifi
ĠĠ ĉ
Ġn f
ur ations
ĠC la
ĠC os
ĠC MR
ĠA tk
ma cos
Ġnot ebook
map v
sub class
ell s
by pass
Th ickness
Number Of
ĠĠĠĠĠĠĠĠĠĠĠĠĠĠĠĠĠĠĠĠĠĠĠĠĠĠĠĠĠĠĠĠĠĠĠĠĠĠĠĠĠĠĠĠĠĠĠĠĠĠĠĠĠĠĠĠĠĠĠĠĠĠĠĠ ĠĠĠĠĠĠĠĠ
Det ector
feature d
+= &
Ġeps z
æī ¾
protocol s
month s
Ġsn ap
Ġoptim izations
çī ĩ
hint s
é¡ ¹
Direct ories
Clean up
^^^^ ^^^^
FOLD ER
" </
. ":
D Box
H IL
P ersist
R IS
r pm
Ġf am
Ġin clusive
Ġm nt
ol ated
ĠF C
ly r
Con cat
act ivated
FF D
Ġle ader
Ġpr ivacy
') "
init arg
Ġcheck er
SI ST
Ġcom ing
Inter polation
der ived
Ġsc en
Write String
(: )
EF ORE
background Color
book s
Î± Ïģ
Cl k
Core Services
ĠBuild ing
|| ||
eth irty
Ġpat ient
ç« ł
pas sed
ĠCons ider
Ġschedule d
Mag ic
ç¥ŀçļĦ åĸ
Ġsucceed s
éŃĶ ç¥ŀçļĦåĸ
vdCBzZXQK IyBDT
fiv ethirty
Ŀåı ±
éŃĶç¥ŀçļĦåĸ Ŀåı±
fivethirty eight
* -------------------------------------------------------------------------------
: ="
B ASS
F q
G AP
L c
L ite
Y f
c ritical
} ]]
ro red
ĠS ale
et o
ĠA sc
Ġis instance
sc enario
Re peat
Co coa
ok u
pc m
ï¼ ı
For bidden
SY MS
Arg v
prec ipitation
ĠOn line
]* ?\
sequence s
ç´ ¢
Ġentire ly
PRI OR
Ġmer ging
ĠNotify Peer
èĬĤ çĤ¹
. :
G lob
I llegal
P apers
T t
Z n
a is
b ak
b anned
c area
y c
Ġ lay
Ġt z
Ġc am
he ly
Ġ" *",
as a
ĠA Value
ĠP n
10 42
ĠD MUMPS
ĠE T
ĠL INES
ĠB oth
(" {
ĠV IEW
ĠK ill
Ġsub scriptions
Ġprocedure s
VAL UES
If Needed
Date Formatter
etch Plane
nn k
Ġbind s
Ġcreated At
El mt
ĠRec ent
ĠRun ning
Ġplay ing
Ġagre ement
Stat uses
æ° ĳ
MIS S
è¨Ń å®ļ
/ ~
9 73
G f
J vm
R b
W ORLD
Y l
i P
m illi
n ch
n ces
n ano
o en
s mtp
Ġt ty
Ġs cores
ĠC ROSS
as px
ile stone
ĠP MD
Ġ2 99
12 11
ac m
ac cur
ĠV t
ST L
Ġme gagroup
Ġco efficient
ance led
Ġwe apon
Par a
init With
ĠTr ansport
PH I
Check er
Ġ^ ^
Ġ× Ļ
Ġfind ing
Tra ils
Ġvm as
neg ate
pare ns
Ġfix es
Quick Transitions
AUTH OR
åł ´
E AA
K wd
L k
Z IP
d ialogs
o cket
p ager
z val
â ĺ
Ġ -----------------------------------------------------------------------------
Ġs om
20 53
Ġ\ {
Ġe k
ard o
bu y
ĠH ack
nc q
âĢ ¾
update Bot
SY U
std c
PP PP
utor un
Ġcontrol led
oriz on
render ing
PG ALL
ĠMOD ULE
Serial izer
ĠMA KE
Ġshare s
channelAdminLogEventAction Participant
Ġtol erance
Ġlu aclass
> ","
F rag
O Q
R WORK
S al
T j
X c
Y t
` ?
f eb
h ance
q com
Ï Ī
ĠS ep
ch mod
ĠA lex
Ġde crease
qu eries
Re view
new lib
Ġz lib
Text Area
Ġstruct s
ĠRes olve
Ġmatch er
car ry
chain s
jo ined
Ġder ive
ĠTrans fer
Ġbg fx
Saved Gifs
åŁ Ł
ĠIdent ifies
æĭ ī
Leg acy
datas ource
çĬ¶ æĢģ
nur bs
9 31
F ORE
P AY
S x
Y w
y h
Ġb log
Ġb nx
Ġ1 98
Ġm anner
ol ving
ĠC TR
ĠN od
op line
Ġde crement
), $
Ġl f
Ġ2 35
Ġst andalone
Ġe i
ind x
type NameLink
ps r
SE P
Ġj include
local s
ĠString Builder
ãĤ »
PER FORM
Ġrece ives
sec ureValueError
ĠTE GRA
Ġinc bin
Red uce
ĠImp lementation
ÏĦ Î±
ĠSec ureValueError
ĠOr igin
Require ment
Depend ent
Ġlisten ing
Scheduler Support
\"> \
four cc
MEDI ATE
Ora cle
ĠcallJ Method
GAST OS
M h
S j
S LE
Z w
f irmware
g osub
z sh
Ġ Äį
in vert
Ġf ive
Ġd plyr
if num
ĠA DC
iv a
ĠF ULL
Ġl g
ĠO ct
struct ured
File Append
à´ ¶
Ġimp ossible
ens ible
Ġ~ @
enter ed
fl tk
tax id
Ġ---------------- ----------
Ab sent
mount ed
NUM ERIC
ĠAT TR
short cut
rout ines
Ġë §
Ġtermin ator
Ap ache
PLAY ER
DH CP
ĠÂ ¬
ĠRA ISE
Ġrelation ship
Ax es
Ġinstanti ated
ĠFlat ten
& \
E laboration
K j
P name
T b
U j
W t
d td
i ocb
r adi
å Ķ
st c
Ġc andidates
Ġs od
Ġm msize
ĠP ot
ĠP ID
ĠP air
up c
Ġis Empty
te e
AT V
RE CTION
File Info
min max
ĠX OR
du cing
ĠAr quillian
Ġcl js
slab p
Ġob served
à¸ £
sim d
Ġrep lacing
ĠDIS ABLE
Ġest im
Ġaccum ulator
arest Dc
ĠMesh Map
ĠEXCEPT ION
Ġconver gence
anta stic
G MT
M aker
P ING
Y n
a D
p iece
s av
| ",""
Ġw m
es sel
ĠI o
ĠA A
ĠP ossible
Ġif f
ine se
get Id
10 38
ĠD OT
ĠD emo
Ġe lectricity
ĠG E
AT I
ĠU ses
Ġ_ ).
74 28
Ġsh mid
no v
ca ff
vis itor
Ġed ited
Up grade
Spec ified
ii ii
Ġ24 13
ĠUSE D
Ġneg ate
mg mt
Ġsyn opsys
Ġremain s
å®ļ ä¹ī
Ġurb an
# $
O I
Y s
j el
l ighter
x k
ar ded
Ġ* ));
Ġre veal
Ġm f
ul i
con om
op eng
ĠE qual
om i
ĠB er
13 50
out file
comp uted
àµ »
part ment
part icle
Filter ing
Inter rupt
Ġra re
Imp orter
ATION AL
ĠAS F
ĠInter preter
Bound ary
ĠRDD s
Ġke eps
ogen ous
. ));
? -
G esture
I STR
L ARGE
M gr
O MP
c flags
w R
Ø Ń
Ġ *****
Ġt ap
ro te
Ġb en
Ġ{ !
Ġre named
ĠS CO
Ġ2 28
Ġ2 21
ĠĠĠĠĠĠĠĠĠĠĠĠĠĠĠ Ċ
12 19
RE PL
17 10
Ġ% >"
24 25
/* /
div ert
pl its
Ġapp Name
comm ended
ĠAn alysis
Script edPanel
Ġmark ers
Ġsim ultaneous
æķ° ç»Ħ
pin ned
Î¼ Îµ
ĠRequire s
Mov ed
Monitor ing
Dh Config
Ġsaf ely
F SO
K D
L UT
R SY
ic he
Ġ1 97
id r
ra ms
up gr
Ġde monstr
ĠF Stream
Ġst icky
ĠW ILL
ĠV B
Re load
act ors
local param
Ġbu fnr
input EncryptedFile
Ġ20 9
UN K
Get ter
Code Input
ĠInput EncryptedFile
valu ed
Callback s
å¯ Ĩ
Ġsolution s
Ġsock addr
Ġrestriction s
ĠContrib utor
AAAAAAAAAAAAAAAAAAAAAAAAAAAAAAAAAAAAAAAAAAAAAAAAAAAAAAAAAAAAAAAA AAAAAAAAAAAAAAAAAAAAAAAAAAAAAAAAAAAAAAAAAAAAAAAAAAAAAAAAAAAAAAAA
zhu ang
+ ))(
E very
F lex
G row
P mo
W J
f ro
o val
Ġ ĉĉĉĉ
it elist
ing Mode
pe ction
0000 5
19 61
Ġch oo
ag onal
ĠRe q
ãģ ©
Text Color
Tr ansparent
gra ss
"] },
ĠCh ri
mod inst
Chat Full
SA ME
Hel vetica
185 19
Ð´ Ðµ
Columns Indexed
åĳ ½
Typ ed
riter ion
dif ferent
ä»£ çłģ
emis Target
. ';
< (),
H wnd
i mag
Ġc double
Ġo mit
Ġo relse
Ġm ot
ĠT ween
Ġth ick
ĠA mount
20 45
ĠP ress
ma de
ĠE st
ĠM ed
"> )</
ant age
ĠX RECORD
no ise
PE EK
Ġexp lain
DB C
Ġtra its
Ġunder line
PH Y
Inter active
Lib s
mission s
äº Ķ
IV ING
Ġident ifies
Ġrb tree
Serial izable
å¿ «
Rows Indexed
ĠOrder ing
defer red
Dep loy
Ġconven ient
Been Called
toHave BeenCalled
+))( \.
4 398
N q
Y j
a ffected
d ensity
o ma
er ior
re search
Ġre voke
Ġd ire
ĠN LP
Ġe lectron
Ġg tk
ff t
__ ((
ĠV s
05 88
ĠCO BOL
72 75
Ġdir s
ose ph
PT D
pop ulation
Ġpri m
Print ln
MIN OR
Assert ion
Ġ"-- "
Sol id
610 1221
èµ ·
ĠMAC RO
Ee SYU
ĠBotInline Message
CheckPassword SRP
8 692
B V
D ER
D CC
L p
h is
m io
p name
Ġ ÏĢ
Ġc riteria
Ġs on
[...]
