{"<s>":0,"<pad>":1,"</s>":2,"<unk>":3,"<mask>":4,"!":5,"\"":6,"#":7,"$":8,"%":9,"&":10,"'":11,"(":12,")":13,"*":14,"+":15,",":16,"-":17,".":18,"/":19,"0":20,"1":21,"2":22,"3":23,"4":24,"5":25,"6":26,"7":27,"8":28,"9":29,":":30,";":31,"<":32,"=":33,">":34,"?":35,"@":36,"A":37,"B":38,"C":39,"D":40,"E":41,"F":42,"G":43,"H":44,"I":45,"J":46,"K":47,"L":48,"M":49,"N":50,"O":51,"P":52,"Q":53,"R":54,"S":55,"T":56,"U":57,"V":58,"W":59,"X":60,"Y":61,"Z":62,"[":63,"\\":64,"]":65,"^":66,"_":67,"`":68,"a":69,"b":70,"c":71,"d":72,"e":73,"f":74,"g":75,"h":76,"i":77,"j":78,"k":79,"l":80,"m":81,"n":82,"o":83,"p":84,"q":85,"r":86,"s":87,"t":88,"u":89,"v":90,"w":91,"x":92,"y":93,"z":94,"{":95,"|":96,"}":97,"~":98,"¡":99,"¢":100,"£":101,"¤":102,"¥":103,"¦":104,"§":105,"¨":106,"©":107,"ª":108,"«":109,"¬":110,"®":111,"¯":112,"°":113,"±":114,"²":115,"³":116,"´":117,"µ":118,"¶":119,"·":120,"¸":121,"¹":122,"º":123,"»":124,"¼":125,"½":126,"¾":127,"¿":128,"À":129,"Á":130,"Â":131,"Ã":132,"Ä":133,"Å":134,"Æ":135,"Ç":136,"È":137,"É":138,"Ê":139,"Ë":140,"Ì":141,"Í":142,"Î":143,"Ï":144,"Ð":145,"Ñ":146,"Ò":147,"Ó":148,"Ô":149,"Õ":150,"Ö":151,"×":152,"Ø":153,"Ù":154,"Ú":155,"Û":156,"Ü":157,"Ý":158,"Þ":159,"ß":160,"à":161,"á":162,"â":163,"ã":164,"ä":165,"å":166,"æ":167,"ç":168,"è":169,"é":170,"ê":171,"ë":172,"ì":173,"í":174,"î":175,"ï":176,"ð":177,"ñ":178,"ò":179,"ó":180,"ô":181,"õ":182,"ö":183,"÷":184,"ø":185,"ù":186,"ú":187,"û":188,"ü":189,"ý":190,"þ":191,"ÿ":192,"Ā":193,"ā":194,"Ă":195,"ă":196,"Ą":197,"ą":198,"Ć":199,"ć":200,"Ĉ":201,"ĉ":202,"Ċ":203,"ċ":204,"Č":205,"č":206,"Ď":207,"ď":208,"Đ":209,"đ":210,"Ē":211,"ē":212,"Ĕ":213,"ĕ":214,"Ė":215,"ė":216,"Ę":217,"ę":218,"Ě":219,"ě":220,"Ĝ":221,"ĝ":222,"Ğ":223,"ğ":224,"Ġ":225,"ġ":226,"Ģ":227,"ģ":228,"Ĥ":229,"ĥ":230,"Ħ":231,"ħ":232,"Ĩ":233,"ĩ":234,"Ī":235,"ī":236,"Ĭ":237,"ĭ":238,"Į":239,"į":240,"İ":241,"ı":242,"Ĳ":243,"ĳ":244,"Ĵ":245,"ĵ":246,"Ķ":247,"ķ":248,"ĸ":249,"Ĺ":250,"ĺ":251,"Ļ":252,"ļ":253,"Ľ":254,"ľ":255,"Ŀ":256,"ŀ":257,"Ł":258,"ł":259,"Ń":260,"ĠĠ":261,"ĠĠĠĠ":262,"ĠĠĠĠĠĠĠĠ":263,"in":264,"er":265,"ĠĠĠ":266,"--":267,"on":268,"re":269,"at":270,"en":271,"st":272,"Ġt":273,"or":274,"le":275,"al":276,"se":277,"an":278,"Ġ=":279,"ar":280,"de":281,"ĉĉ":282,"it":283,"00":284,"Ġ(":285,"Ġc":286,"----":287,"ion":288,"he":289,"me":290,"ct":291,"**":292,"Ġ\"":293,"Ġf":294,"ĠĠĠĠĠĠĠĠĠĠĠĠĠĠĠĠ":295,"ro":296,"ĠĠĠĠĠĠĠ":297,"ing":298,"Ġp":299,"ut":300,"Ġi":301,"ge":302,"Ġs":303,"Ġa":304,"un":305,"ic":306,"ss":307,"ed":308,"lo":309,"ĠĠĠĠĠ":310,"ent":311,"čĊ":312,"la":313,"Ġb":314,"Ġ{":315,"Ġthe":316,"Ġo":317,"Ġn":318,"ur":319,"Ġ-":320,"Ġin":321,"co":322,"ce":323,");":324,"ex":325,"Ġ0":326,"Ġ*":327,"ame":328,"//":329,"Ġ1":330,"pe":331,"--------":332,"Ġre":333,"Ġm":334,"Ġw":335,"id":336,"is":337,"il":338,"Ġd":339,"mp":340,"el":341,"ĠS":342,"ad":343,"ue":344,"ig":345,"ĠT":346,"ate":347,"****":348,"tr":349,"==":350,"\",":351,"ot":352,"))":353,"ck":354,"</":355,"str":356,"Ġ'":357,"ch":358,"if":359,"ul":360,"=\"":361,"ol":362,"Ġ$":363,"es":364,"Ġv":365,"and":366,"ĠI":367,"et":368,"int":369,"ĠC":370,"Ġ:":371,"age":372,"ĠĠĠĠĠĠĠĠĠĠĠ":373,"end":374,"Ġ<":375,"ap":376,"Ġto":377,"as":378,"li":379,"ype":380,"Ġth":381,"um":382,"con":383,"th":384,"ab":385,"ĠA":386,"ile":387,"Ġ}":388,"ation":389,"pt":390,"20":391,"##":392,"ction":393,"Ġof":394,"em":395,"ode":396,"ĠP":397,"Ġ[":398,"set":399,"ub":400,"us":401,"ter":402,"iv":403,"ĉĉĉĉ":404,"0000":405,"ra":406,"ĠR":407,"Ġif":408,"ext":409,"ect":410,"Ġh":411,"up":412,"Ġis":413,"In":414,"urn":415,"ĠN":416,"op":417,"11":418,"Ġde":419,"ine":420,"ver":421,"Ġ\\":422,"ĠF":423,"),":424,"',":425,"ir":426,"Ġ+":427,"get":428,"all":429,"od":430,"ow":431,"----------------":432,"ht":433,"10":434,"ort":435,"Ġl":436,"ĠD":437,"ma":438,"Ġ2":439,"turn":440,"********":441,"iz":442,"alue":443,"Ġfor":444,"ew":445,"ĠE":446,"ri":447,"ata":448,"able":449,"Ġcon":450,"ĠM":451,"====":452,"ĠL":453,"put":454,"IN":455,"Ġ#":456,"Ġst":457,"->":458,"ult":459,"Ġ.":460,"Ġand":461,"sp":462,"cl":463,"ke":464,"Ġe":465,"::":466,"ĠĠĠĠĠĠĠĠĠĠĠĠĠĠĠ":467,"ĠĠĠĠĠĠĠĠĠ":468,"am":469,"ith":470,"gs":471,"ER":472,"Ġbe":473,"to":474,"\":":475,"ĠĠĠĠĠĠ":476,"name":477,"ase":478,"te":479,"99":480,"Ġg":481,"12":482,"bj":483,"Ġ&":484,"string":485,"ist":486,"Ġ3":487,"ers":488,"ff":489,"ack":490,"ment":491,"Ġ|":492,"lass":493,"ON":494,"16":495,"art":496,"ĉĉĉ":497,"om":498,"OR":499,"ord":500,"14":501,"Ġ@":502,"ption":503,").":504,"Ġr":505,"ve":506,"im":507,"ĠB":508,"],":509,"ta":510,"qu":511,"Ġ->":512,"oc":513,"ĠĠĠĠĠĠĠĠĠĠĠĠĠĠĠĠĠĠĠĠĠĠĠĠĠĠĠĠĠĠĠĠ":514,"EN":515,"ac":516,"unt":517,"ĠĊ":518,"lic":519,"def":520,"orm":521,"ath":522,"Ġx":523,"(\"":524,"ure":525,"__":526,"pro":527,"ize":528,"unction":529,"ind":530,"13":531,"use":532,"oo":533,"type":534,"..":535,"Ġ//":536,"ĠG":537,"St":538,"os":539,"()":540,"ĠW":541,"out":542,"item":543,"15":544,"Ġend":545,"Ġpro":546,"33":547,"sc":548,"Ġ/":549,"nt":550,"our":551,"Ġex":552,"per":553,"AT":554,"Ġse":555,"ror":556,"ly":557,"\">":558,"ign":559,"ime":560,"Ġreturn":561,"ĠO":562,"####":563,"ĠV":564,"ST":565,"ight":566,"Ġon":567,"fo":568,"AL":569,"25":570,"64":571,"und":572,"Re":573,"19":574,"18":575,"\")":576,"ssage":577,"RE":578,"17":579,"ox":580,"Name":581,"uct":582,"ib":583,"%%":584,"gin":585,"list":586,"Con":587,"66":588,"Ġ--":589,"32":590,"ĠU":591,"ire":592,"clu":593,"ay":594,"Ġy":595,"lock":596,"ild":597,"AR":598,"are":599,"Ġ%":600,"24":601,"loc":602,"dd":603,"pre":604,"sh":605,"bject":606,"ity":607,"Ġwh":608,"let":609,"else":610,"fa":611,"ip":612,"Ġan":613,";;":614,"Ġor":615,"rom":616,"lags":617,"clude":618,"ite":619,"Ġ_":620,"tring":621,"Ġme":622,"04":623,"Ġ`":624,"fig":625,"text":626,"Ġco":627,"Ġclass":628,"Ġthis":629,"struct":630,"com":631,"Ġnot":632,"ive":633,"Ġtr":634,"Ġwith":635,"code":636,"file":637,"ser":638,"LE":639,"Ġ:=":640,"pr":641,"='":642,"ard":643,"alse":644,"Ġdo":645,"ial":646,"ps":647,"000":648,"par":649,"Ġ4":650,"lay":651,"Ġ*/":652,"Ġ)":653,"Type":654,"========":655,"22":656,"ty":657,"ref":658,"Ġch":659,"ber":660,"****************":661,"col":662,"IT":663,"ource":664,"key":665,"dex":666,"add":667,"bu":668,"act":669,"Ġit":670,"05":671,"ĠĠĠĠĠĠĠĠĠĠĠĠĠĠĠĠĠĠĠ":672,"ĠH":673,"ix":674,"line":675,"ong":676,"FF":677,"ule":678,"ĠĠĠĠĠĠĠĠĠĠĠĠĠ":679,"lin":680,"one":681,"Ġ==":682,"Ġname":683,"low":684,"ant":685,"av":686,"},":687,"pp":688,",,":689,"75":690,"ID":691,"--------------------------------":692,"Ġset":693,"SE":694,"Ġvalue":695,"23":696,"Ġ!":697,"port":698,"ies":699,"Ġk":700,"ll":701,"Id":702,"Ex":703,"ange":704,"Ġas":705,"return":706,"De":707,"ition":708,"ĠIn":709,"08":710,"Ġ,":711,"Ġar":712,"form":713,"be":714,"val":715,"imp":716,"28":717,"Ġal":718,"74":719,"Ch":720,"Ġthat":721,"Ġfunction":722,"Ġelse":723,"ull":724,"Ġthen":725,"error":726,"Ġsh":727,"ag":728,"\",\"":729,"65":730,"Ġid":731,"ublic":732,"Ġ5":733,"03":734,"Ġby":735,"heck":736,"Ġun":737,"01":738,"count":739,"cess":740,"mo":741,"ĠĠĠĠĠĠĠĠĠĠ":742,"('":743,"ang":744,"ans":745,"oint":746,"ary":747,"lab":748,"ft":749,"Ġtype":750,"Ġfile":751,"ool":752,"lf":753,"var":754,"Ġ=>":755,"ray":756,"ated":757,"data":758,"ree":759,"Box":760,"ory":761,"27":762,"DE":763,"AA":764,"umber":765,"nd":766,"29":767,"Pro":768,"Ġ>":769,"ore":770,"Ġuse":771,"ec":772,"ust":773,"ill":774,"date":775,"34":776,"ere":777,"sy":778,"io":779,"flags":780,"26":781,"que":782,"35":783,"Ġint":784,"Ġnew":785,"sion":786,"res":787,"AN":788,"://":789,"ry":790,"CT":791,"Ġ8":792,"Ġres":793,"ener":794,"ice":795,"eng":796,"span":797,"07":798,"irst":799,"Ġstring":800,"09":801,"String":802,"Set":803,"rite":804,"log":805,"atch":806,"map":807,"ME":808,"Co":809,"44":810,"ide":811,"ator":812,"38":813,"lement":814,"value":815,"////":816,"ou":817,"Ġ;":818,"oid":819,"ml":820,"pec":821,"ance":822,"Ġvar":823,"78":824,"68":825,"iel":826,"ĠThe":827,"Ġ$(":828,"row":829,"Ġj":830,"ument":831,"95":832,"vent":833,"00000000":834,"ield":835,"Ġfrom":836,"Ġus":837,"UT":838,"ost":839,"ence":840,"IC":841,"ert":842,"RO":843,"LL":844,"Ġare":845,"45":846,"atic":847,"Ġout":848,"Ġ</":849,"scri":850,"ont":851,"ax":852,"est":853,"File":854,"Ġget":855,"cond":856,"########":857,"ace":858,"ĉĉĉĉĉ":859,"69":860,"ssion":861,"config":862,"rc":863,"Ġdef":864,"ak":865,"Ġat":866,"read":867,"Ġinclude":868,"02":869,"ast":870,"ann":871,"head":872,"htt":873,"[{":874,"Ġen":875,"ger":876,"77":877,"ave":878,"ound":879,"reate":880,"urre":881,"word":882,"ass":883,"Ġtrue":884,"/*":885,"ength":886,"itle":887,"odule":888,"amp":889,"idth":890,"39":891,"ache":892,"lib":893,"Ġdata":894,"ĠĠĠĠĠĠĠĠĠĠĠĠ":895,"AC":896,"Ġwe":897,"><":898,"ash":899,"ector":900,"\";":901,"app":902,"ms":903,"ION":904,"isp":905,")))":906,"ĠTh":907,"06":908,"roup":909,"48":910,"55":911,"\\\"":912,"ork":913,"tt":914,"ĠĠĠĠĠĠĠĠĠĠĠĠĠĠ":915,"Ġadd":916,"):":917,"Value":918,"mb":919,"Ġcomp":920,"ph":921,"iew":922,"></":923,"new":924,"og":925,"min":926,"ome":927,"List":928,"ES":929,"ute":930,"size":931,"lect":932,"path":933,"30":934,"ifi":935,"37":936,"urrent":937,"IG":938,"AG":939,"Ġ&&":940,"Se":941,"36":942,"();":943,"ĠĠĠĠĠĠĠĠĠĠĠĠĠĠĠĠĠĠĠĠĠĠĠ":944,"ĠX":945,"];":946,"import":947,"page":948,"Ar":949,"ings":950,"load":951,"Data":952,"comp":953,"old":954,"ĠK":955,"ND":956,"ne":957,"version":958,"unc":959,"($":960,"AB":961,"own":962,"rror":963,"To":964,"MP":965,"ĠTO":966,"sub":967,"98":968,"ain":969,"Ġpar":970,"cc":971,"fault":972,"En":973,"])":974,"Ġfalse":975,"quest":976,"ey":977,"Ġcol":978,"so":979,"sign":980,"\");":981,"Ġle":982,"arget":983,"tain":984,"function":985,"Ġlet":986,"essage":987,"ick":988,",-":989,"CO":990,"AS":991,"à´":992,"cri":993,"ET":994,"local":995,"omm":996,"tent":997,"tro":998,"Ġconst":999,"lat":1000,"ĠIN":1001,"rap":1002,"ĠRe":1003,"ach":1004,"ell":1005,"Ġ16":1006,"err":1007,"vice":1008,"\":\"":1009,"88":1010,"message":1011,"21":1012,"Ġ]":1013,"no":1014,"ream":1015,"Ġcan":1016,"yle":1017,"Res":1018,"Ġpr":1019,"ĠĠĠĠĠĠĠĠĠĠĠĠĠĠĠĠĠ":1020,"ameter":1021,"%%%%":1022,"ersion":1023,"tern":1024,"AD":1025,"Ġlist":1026,"eb":1027,"ress":1028,"ark":1029,"ense":1030,"ptions":1031,"ĠRow":1032,"ux":1033,"ask":1034,"node":1035,"Ġsy":1036,"79":1037,"OT":1038,"irect":1039,"PE":1040,"Ġbu":1041,"true":1042,"Ġ6":1043,"odel":1044,"Ġz":1045,"IL":1046,"================":1047,"ded":1048,"85":1049,"ww":1050,"ĠJ":1051,"ĠRowBox":1052,"mm":1053,"of":1054,"ING":1055,"Col":1056,"time":1057,"px":1058,"do":1059,"uth":1060,"back":1061,"param":1062,"order":1063,"40":1064,"for":1065,"thod":1066,"stem":1067,"XX":1068,"ther":1069,"define":1070,"color":1071,"TR":1072,"Ġresult":1073,"uld":1074,"ĠY":1075,"Ġobject":1076,"ãģ":1077,"reg":1078,"ĠIf":1079,"Ġcase":1080,"mit":1081,"arch":1082,"ced":1083,"IS":1084,"ject":1085,"')":1086,"dir":1087,"ook":1088,"atus":1089,"af":1090,"entry":1091,"card":1092,"\"\"":1093,"pos":1094,"mem":1095,"ken":1096,"200":1097,"input":1098,"Ġwill":1099,"not":1100,"ED":1101,"CH":1102,"indow":1103,"lean":1104,"ffer":1105,"loat":1106,"Ġup":1107,"ink":1108,"di":1109,"Text":1110,"by":1111,"ations":1112,"UE":1113,"LO":1114,"ton":1115,"ĠString":1116,"fer":1117,"Ġ?":1118,"emp":1119,"bo":1120,"Error":1121,"\"}":1122,"che":1123,"first":1124,"ĠIF":1125,"ery":1126,"qr":1127,"vel":1128,"include":1129,"ake":1130,"Ġval":1131,"ep":1132,"Un":1133,"EX":1134,"Ġne":1135,"trib":1136,"Ġ((":1137,"Ġwhen":1138,"94":1139,"public":1140,"Ġyou":1141,"obj":1142,"VE":1143,"annel":1144,"Ġ::":1145,"Ġu":1146,"ilter":1147,"Ġ7":1148,"Path":1149,"ĠThis":1150,"info":1151,"UR":1152,"md":1153,"CC":1154,"ify":1155,"********************************":1156,"Input":1157,"class":1158,"ackage":1159,"Ġkey":1160,"ocument":1161,"100":1162,"Ġ\"\\":1163,"Ġcall":1164,"Tr":1165,"box":1166,"Ġerror":1167,"Message":1168,"js":1169,"((":1170,"Ġass":1171,"Ġimp":1172,"','":1173,"Ġself":1174,"ccess":1175,"MA":1176,"ich":1177,"54":1178,"Key":1179,"sed":1180,"div":1181,"inal":1182,"ail":1183,"Ġ20":1184,"utton":1185,"rame":1186,"Ġall":1187,"quire":1188,"begin":1189,"ens":1190,"Ġ\",":1191,"isplay":1192,"Ġ!=":1193,"IF":1194,"pl":1195,"print":1196,"ENT":1197,"67":1198,"ld":1199,"perty":1200,"Ġ///":1201,"https":1202,"nc":1203,"ud":1204,"Par":1205,"self":1206,"ca":1207,"ould":1208,"50":1209,"Index":1210,"UN":1211,"Ġbegin":1212,"Object":1213,"second":1214,"ov":1215,"';":1216,"Ġro":1217,"TH":1218,"Ġlo":1219,"lient":1220,"Ġso":1221,")*":1222,"label":1223,"(&":1224,"Info":1225,"ĠSet":1226,"html":1227,"opy":1228,"test":1229,"Ġpre":1230,"$(":1231,"char":1232,"ĠSt":1233,"ULL":1234,"icense":1235,"Ġ9":1236,"Ġsub":1237,"link":1238,"));":1239,"source":1240,"ok":1241,"58":1242,"index":1243,"At":1244,"last":1245,"Node":1246,"47":1247,"ivate":1248,"arent":1249,"Ġline":1250,"cript":1251,"core":1252,"Get":1253,"ody":1254,"Ġvoid":1255,"ia":1256,"wild":1257,"lob":1258,"this":1259,"tings":1260,"iable":1261,"Ġmessage":1262,"INT":1263,"Ġnull":1264,"State":1265,"Comp":1266,"60":1267,"([":1268,"start":1269,"Ġ10":1270,"ĠTH":1271,"ise":1272,"Ġpublic":1273,"const":1274,"OD":1275,"Ġspec":1276,"led":1277,"gra":1278,"49":1279,"ns":1280,"wildcard":1281,"*^":1282,"its":1283,"enc":1284,"'s":1285,"ample":1286,"++":1287,"].":1288,"py":1289,"teger":1290,"Time":1291,"td":1292,"Ġ~":1293,"Ġ||":1294,"Ġapp":1295,"2020":1296,"raw":1297,"ĠEx":1298,"ally":1299,"max":1300,"wh":1301,"////////":1302,"ename":1303,"ific":1304,"[{\"":1305,"lete":1306,"url":1307,"ts":1308,"46":1309,"31":1310,"OS":1311,"my":1312,"right":1313,"Bu":1314,"state":1315,"YPE":1316,"header":1317,"OP":1318,"bug":1319,"lace":1320,"asic":1321,"Ġno":1322,"face":1323,"ĠĠĊ":1324,"fore":1325,"ee":1326,"mat":1327,"Ġchar":1328,"Ġnil":1329,"Ġtitle":1330,"ual":1331,"ui":1332,"pen":1333,"Ġtime":1334,"59":1335,"Ġsize":1336,"cre":1337,"gr":1338,"top":1339,"ush":1340,"Ġqu":1341,"Vector":1342,"CL":1343,"By":1344,"ãĥ":1345,"80":1346,"Ġhe":1347,"eturn":1348,"Sh":1349,"trol":1350,"Ġstruct":1351,"Ġflags":1352,"inter":1353,"ear":1354,"rit":1355,"${":1356,"89":1357,"uto":1358,"tem":1359,"[\"":1360,"length":1361,"ä¸":1362,"Ġpage":1363,"Ġuser":1364,";;;;":1365,"86":1366,"Ġtext":1367,"init":1368,"Sy":1369,"Ġdefault":1370,"static":1371,"Ġover":1372,"57":1373,"ined":1374,"ãĤ":1375,"org":1376,"raph":1377,"round":1378,"END":1379,"ATE":1380,"Ġper":1381,"oolean":1382,"---":1383,"../":1384,"width":1385,"long":1386,"tes":1387,"onent":1388,"user":1389,"cache":1390,"ote":1391,"US":1392,"Size":1393,"sg":1394,"\\\\":1395,"ature":1396,"Ġhave":1397,"lag":1398,"her":1399,"linux":1400,"\"]":1401,"Ġcheck":1402,"off":1403,"andle":1404,"Ġhas":1405,"work":1406,"Ġstart":1407,"try":1408,"AP":1409,"87":1410,"void":1411,"ie":1412,"Ġ<-":1413,"ĠCon":1414,"call":1415,"Ġinst":1416,"TE":1417,"aw":1418,"lu":1419,"arg":1420,"module":1421,"oto":1422,"Ġused":1423,"Ġ(!":1424,"Ġli":1425,"db":1426,"comm":1427,"pression":1428,"DI":1429,"block":1430,"Ġany":1431,"âĢ":1432,"84":1433,"Ġ},":1434,"ical":1435,"Out":1436,"Ġab":1437,"cal":1438,"Int":1439,"Ġoutput":1440,"Ġarg":1441,"check":1442,"point":1443,"num":1444,"Ġ__":1445,"56":1446,"OL":1447,"))))":1448,"Ġcode":1449,"/>":1450,"cp":1451,"ĠRE":1452,"UL":1453,"KE":1454,"################":1455,"ative":1456,"cro":1457,"Ġinput":1458,"pect":1459,"Ġpos":1460,"enu":1461,"ilename":1462,"late":1463,"ĠEND":1464,",,,,":1465,"table":1466,"scription":1467,"Ġhref":1468,"da":1469,"red":1470,"the":1471,"signed":1472,"Ġnumber":1473,"ĠDe":1474,"Ġstr":1475,"]}":1476,"90":1477,"src":1478,"Ġwhich":1479,"Ġpath":1480,"ĉĉĉĉĉĉĉĉ":1481,",\"":1482,"SS":1483,"----------------------------------------------------------------":1484,"object":1485,"Ġ($":1486,"Ġread":1487,"BU":1488,"action":1489,"valid":1490,"Ġversion":1491,"ommand":1492,"ified":1493,"}{":1494,"reak":1495,"FI":1496,"ĠVAL":1497,"Th":1498,"api":1499,"mage":1500,"Ġ+=":1501,"Ġsup":1502,"mbol":1503,"lobal":1504,".\"":1505,"Item":1506,"ume":1507,"ception":1508,"#'":1509,"76":1510,"cedure":1511,"70":1512,"False":1513,"script":1514,"ĠCON":1515,"over":1516,"we":1517,"br":1518,"ĠLicense":1519,"ning":1520,"ĠĠĠĠĠĠĠĠĠĠĠĠĠĠĠĠĠĠĠĠĠĠĠĠĠĠĠ":1521,"vma":1522,"from":1523,"eer":1524,"main":1525,"fs":1526,"write":1527,"mi":1528,"](":1529,"output":1530,"ault":1531,"Al":1532,"vm":1533,"NA":1534,"ng":1535,"FFFF":1536,"Ġmethod":1537,"conf":1538,"edge":1539,"CON":1540,"Ġcurrent":1541,"dev":1542,"ible":1543,"Add":1544,"Color":1545,"Qu":1546,"Ġstate":1547,"erver":1548,"Le":1549,"'t":1550,"3333":1551,"inst":1552,"43":1553,"uble":1554,"irectory":1555,"Lo":1556,"96":1557,"Ġreg":1558,"ution":1559,"pi":1560,"Ġoff":1561,"9999":1562,"ĠPro":1563,"');":1564,"Str":1565,"LI":1566,"The":1567,"net":1568,"000000":1569,"Ġonly":1570,"Ġother":1571,"53":1572,"Ġsign":1573,"pc":1574,"rd":1575,"Ġhtt":1576,"pend":1577,"AAAA":1578,"Line":1579,"oper":1580,"http":1581,"Ġbool":1582,"ĠNULL":1583,"Ġlang":1584,"bin":1585,"tx":1586,"sw":1587,"rag":1588,"Form":1589,"})":1590,"ORD":1591,"space":1592,"trans":1593,"Ġsqr":1594,"cord":1595,"ait":1596,"42":1597,"Ġ..":1598,":=":1599,"Event":1600,"bit":1601,"On":1602,"cur":1603,"case":1604,"ground":1605,"(),":1606,"Ġmay":1607,"Ġ<=":1608,"istr":1609,"lection":1610,"FA":1611,"ALL":1612,"ift":1613,"Ġmy":1614,"_,":1615,"ater":1616,"ors":1617,"gn":1618,"Ġmin":1619,"Ġtest":1620,"Ġmax":1621,"pdate":1622,"base":1623,"Ġpoint":1624,"An":1625,"Ġshould":1626,"du":1627,"Ġback":1628,"default":1629,"mt":1630,"ĠCh":1631,"ĠĠĠĠĠĠĠĠĠĠĠĠĠĠĠĠĠĠĠĠĠ":1632,"umn":1633,"group":1634,"len":1635,"He":1636,"ĠĠĠĠĠĠĠĠĠĠĠĠĠĠĠĠĠĠĠĠ":1637,"UB":1638,"ABLE":1639,"Ġ*)":1640,"ĠĠĠĠĠĠĠĠĠĠĠĠĠĠĠĠĠĠ":1641,"Ġrun":1642,"cket":1643,"Ġ(\"":1644,"bar":1645,"73":1646,"spon":1647,"Ġnode":1648,"6666":1649,"Ġarray":1650,"ug":1651,"Ġindex":1652,"};":1653,"ware":1654,"mpty":1655,"AGE":1656,"move":1657,"ics":1658,"CE":1659,"ĉĠĠĠ":1660,"Ġinter":1661,"Ġ);":1662,"cs":1663,"Map":1664,"update":1665,"ĠTr":1666,"ils":1667,"ATA":1668,"lease":1669,"Ġbut":1670,"Loc":1671,"result":1672,"ler":1673,"mov":1674,"Ġprint":1675,"ĉĉĉĉĉĉ":1676,"User":1677,"áŀ":1678,"fix":1679,"place":1680,"'),":1681,"df":1682,"Pos":1683,"Ġlocal":1684,"ORT":1685,"IP":1686,"%%%%%%%%":1687,"po":1688,"Ġone":1689,"ai":1690,"UM":1691,"ifier":1692,"Code":1693,",'":1694,"UP":1695,"Ġinit":1696,"ĠCO":1697,"Result":1698,"Ġrequire":1699,"args":1700,"Ġlong":1701,"ĠGet":1702,"ï¼":1703,"Of":1704,"context":1705,"SP":1706,"env":1707,")/":1708,"cho":1709,"abled":1710,"uration":1711,"view":1712,"Ġstatic":1713,"72":1714,"ats":1715,"with":1716,"ob":1717,"iter":1718,"Basic":1719,"ĠUn":1720,"____":1721,"eq":1722,"Ġpart":1723,"Number":1724,"Ġad":1725,"gram":1726,"refer":1727,"lose":1728,"ference":1729,"Call":1730,"AM":1731,"Ġfirst":1732,"cla":1733,"Ġyour":1734,"ized":1735,"field":1736,"EL":1737,"TO":1738,"ner":1739,"next":1740,"Array":1741,"Ġerr":1742,"bl":1743,"Not":1744,"Ġbase":1745,"Ġtarget":1746,"lication":1747,"Ġsu":1748,"addr":1749,"Ġtrans":1750,"ale":1751,"/**":1752,",--":1753,"With":1754,"exp":1755,"Ġ/*":1756,"lot":1757,"['":1758,"build":1759,"}}":1760,"vert":1761,"enter":1762,"63":1763,"Point":1764,"SI":1765,"Config":1766,"Cell":1767,")]":1768,"///":1769,"Ġsp":1770,"\"}],":1771,"www":1772,"View":1773,"doc":1774,"format":1775,"0000000000000000":1776,"ates":1777,"ĠRes":1778,"eries":1779,"run":1780,"kind":1781,"ses":1782,"ĠZ":1783,"ternal":1784,"ORM":1785,"Settings":1786,"Ġexp":1787,"ension":1788,"ls":1789,"left":1790,"(*":1791,"Ġconfig":1792,"hash":1793,"83":1794,"52":1795,"Ġgener":1796,"dr":1797,"Group":1798,"DO":1799,"proc":1800,"option":1801,"ĠMO":1802,"fe":1803,"array":1804,"àµ":1805,"Ġcontain":1806,"41":1807,"Sub":1808,"spec":1809,"Class":1810,"97":1811,"lem":1812,"Ġsource":1813,"For":1814,"Ġmust":1815,"Element":1816,"lex":1817,"ĠVALUE":1818,"ank":1819,"Ð¾":1820,"ĠQ":1821,"Char":1822,"itch":1823,"Pr":1824,"tin":1825,"62":1826,"())":1827,"ĠčĊ":1828,"Ġassert":1829,"Ġdir":1830,"lear":1831,"temp":1832,"ĠPIC":1833,"Ġ##":1834,"CK":1835,"fd":1836,"part":1837,"under":1838,"rary":1839,"ĠReturn":1840,"location":1841,"ĠAr":1842,"Action":1843,"lp":1844,"SH":1845,"ithub":1846,"create":1847,"make":1848,"ices":1849,"cept":1850,"igh":1851,"rop":1852,"FL":1853,"package":1854,"ding":1855,"SC":1856,"]]":1857,"auth":1858,"tom":1859,"...":1860,"layer":1861,"mod":1862,"ITE":1863,"Ġparameter":1864,"ride":1865,"ĠDE":1866,"Is":1867,"VER":1868,"Ad":1869,"FIG":1870,"ãĢ":1871,"style":1872,"qual":1873,"DD":1874,"ĠList":1875,"gener":1876,"``":1877,"current":1878,"content":1879,"ove":1880,"Field":1881,"func":1882,":#":1883,"DB":1884,"Ð°":1885,"._":1886,"opt":1887,"nect":1888,"\"/>":1889,"lable":1890,"INE":1891,"End":1892,"ero":1893,"flow":1894,"Count":1895,"Ġact":1896,"Ġfield":1897,"ays":1898,"iven":1899,"lang":1900,"dk":1901,"ĠCo":1902,"buf":1903,"ava":1904,"Ġelement":1905,"Ġ${":1906,"ĠOF":1907,"open":1908,"Ġmov":1909,"ĠTYPE":1910,"yn":1911,"Ðµ":1912,"']":1913,"1111":1914,"Met":1915,"endif":1916,"93":1917,"IO":1918,"App":1919,"Ġoption":1920,"method":1921,"tribute":1922,"filename":1923,"fl":1924,"status":1925,"Ġmap":1926,"ern":1927,"cr":1928,"adi":1929,"Ġwhere":1930,"target":1931,"mode":1932,"Ġitem":1933,"ĠST":1934,"Book":1935,"\"><":1936,"TER":1937,"Ġq":1938,"ape":1939,"ĠĠĠĠĊ":1940,"Context":1941,"inode":1942,"ÃŃ":1943,"mary":1944,"itor":1945,"Var":1946,"ĠInt":1947,"Ð¸":1948,"Ġwrite":1949,"Ġac":1950,"ateg":1951,"Ġoper":1952,"rid":1953,"ensor":1954,"hed":1955,"ĠSQ":1956,"github":1957,"rx":1958,"PL":1959,"HT":1960,"ds":1961,"Ġwork":1962,"title":1963,"ments":1964,"*(":1965,"Ġusing":1966,"STR":1967,"Ġneed":1968,"air":1969,"Des":1970,"Ġvariable":1971,"XXXX":1972,"MM":1973,"ization":1974,"ql":1975,"argin":1976,"Ġinto":1977,"Ġtra":1978,"less":1979,"Ġcontent":1980,"Ġunder":1981,"ict":1982,"Ġnext":1983,"otal":1984,"Ġdis":1985,"Ġcount":1986,"dis":1987,"*)":1988,"Ġformat":1989,"Ġlog":1990,"event":1991,"Log":1992,"ollow":1993,"Ġ()":1994,"ftware":1995,"1000":1996,"fter":1997,"ĠMOVE":1998,"================================":1999,"Ġblock":2000,"Ph":2001,"ULT":2002,"reference":2003,"Ġmod":2004,"Ġprocedure":2005,"ish":2006,"man":2007,"Ġrequest":2008,"Ġ[]":2009,"Ġcom":2010,"82":2011,"level":2012,"Stream":2013,"nection":2014,"fin":2015,"Ġlength":2016,"Sp":2017,"Ġcopy":2018,"Ġvalues":2019,"Ġtable":2020,"Ġ/**":2021,"=\"_":2022,"ret":2023,"Ġmodule":2024,"go":2025,"Output":2026,"IM":2027,"number":2028,"gen":2029,"fc":2030,"host":2031,"ting":2032,"false":2033,"New":2034,"ustom":2035,"bbox":2036,"sent":2037,"wo":2038,"Ġcolor":2039,"Ġmore":2040,"sm":2041,"Ġbuild":2042,"olume":2043,"pert":2044,"sk":2045,"81":2046,"utes":2047,"çļ":2048,",$":2049,"ader":2050,"sum":2051,"Ġlast":2052,"select":2053,"ĠĠĠĠĠĠĠĠĠĠĠĠĠĠĠĠĠĠĠĠĠĠĠĠĠĠĠĠĠĠĠ":2054,"json":2055,"çļĦ":2056,"Ġext":2057,"ister":2058,"xy":2059,"fn":2060,"\")]":2061,"ĠNC":2062,"mark":2063,"body":2064,"strong":2065,"vide":2066,"Ġwas":2067,"Ġmake":2068,"Ġlen":2069,"ating":2070,"Change":2071,"stream":2072,"gle":2073,"ĠFI":2074,"Ġmatch":2075,"Ġmem":2076,"tree":2077,"Ġsw":2078,"ba":2079,"rypt":2080,"Ġdoes":2081,"Ġfinal":2082,"->{":2083,"Ġwidth":2084,"ams":2085,"sert":2086,"ĠID":2087,"macro":2088,"Part":2089,"oth":2090,"ormal":2091,"image":2092,"Ġlib":2093,"Filter":2094,"ility":2095,"frame":2096,"cope":2097,"Ġenv":2098,"51":2099,"Ġcal":2100,"Ġgiven":2101,"ĠFile":2102,"ency":2103,"92":2104,"ping":2105,"orage":2106,"messages":2107,"Ġ\"\"":2108,"VAL":2109,"Ġchange":2110,"[^":2111,"Ġprivate":2112,"description":2113,"ĠOR":2114,"SET":2115,"ĠNOT":2116,"Ġuint":2117,"iled":2118,"Ġ/>":2119,"perties":2120,"entity":2121,"oooo":2122,"formation":2123,"ĠSeries":2124,"CTION":2125,"Peer":2126,"Block":2127,"Ġ\\\"":2128,"sys":2129,"Ġcreate":2130,"FORM":2131,"Window":2132,"ider":2133,"Ġhere":2134,"math":2135,"=>":2136,"PI":2137,"Ġmodel":2138,"ller":2139,"ĠĠĠĠĠĠĠĠĠĠĠĠĠĠĠĠĠĠĠĠĠĠĠĠĠ":2140,">>":2141,"ĠTrue":2142,"iss":2143,"ERR":2144,"display":2145,"ĠEX":2146,"().":2147,"acter":2148,"Ġ\"]":2149,"show":2150,"token":2151,"uage":2152,"lt":2153,"orre":2154,",--,--":2155,"TI":2156,"Ġ\",\",":2157,"mut":2158,"Table":2159,"itions":2160,"Ġcl":2161,"Ed":2162,"Ġ12":2163,"ely":2164,"tab":2165,"aint":2166,"section":2167,"tact":2168,"Ġph":2169,"ĠĠĠĠĠĠĠĠĠĠĠĠĠĠĠĠĠĠĠĠĠĠ":2170,"00000":2171,"Val":2172,"afe":2173,"ĠWrite":2174,"Start":2175,"son":2176,"null":2177,"ffect":2178,"(_":2179,"font":2180,"files":2181,"NO":2182,"ince":2183,"Button":2184,"assword":2185,"ĠTHEN":2186,"DIR":2187,"ops":2188,"If":2189,"ched":2190,"ML":2191,"Page":2192,"PH":2193,"Ġoffset":2194,"down":2195,"91":2196,"ervice":2197,"'.":2198,"older":2199,"adding":2200,"msg":2201,"Ġfiles":2202,"Ġfollow":2203,"andler":2204,"ĠIS":2205,"Dir":2206,"Check":2207,"Ġvalid":2208,"Ġsome":2209,"cat":2210,"oin":2211,"ved":2212,"NAME":2213,"Ġter":2214,"sup":2215,"AND":2216,"Ġ(*":2217,"istrib":2218,"ik":2219,"export":2220,"SY":2221,"ACK":2222,"ĠNode":2223,"attr":2224,"{\\":2225,"Ġimport":2226,"PRO":2227,"ingle":2228,"ĠSe":2229,"Create":2230,"oot":2231,"Mode":2232,"operator":2233,"Ġevent":2234,"Ġinteger":2235,"ines":2236,"Ġeach":2237,"alloc":2238,"rix":2239,"vis":2240,"à¤":2241,"defined":2242,"cf":2243,"Ġ<<":2244,"buffer":2245,"Ð½":2246,"ĠUpdate":2247,"anel":2248,"AY":2249,"Ġright":2250,"Ġnum":2251,"\"),":2252,"\"))":2253,"No":2254,"Trans":2255,"Ġla":2256,"[]":2257,"tl":2258,"iff":2259,"CCode":2260,"ĠAn":2261,"Request":2262,"Func":2263,"////////////////":2264,"Ġnon":2265,"cap":2266,"OUT":2267,"ias":2268,"ptr":2269,"ĠFor":2270,"Ġcommand":2271,"ump":2272,"property":2273,"Ġsrc":2274,"Ã©":2275,"Ġag":2276,"cy":2277,"ĠPR":2278,"Ġ;;":2279,"Style":2280,"PC":2281,"ren":2282,"61":2283,"From":2284,"ful":2285,"ĠBoolean":2286,"rl":2287,"Ġtry":2288,"Ġ15":2289,"free":2290,"Ġmessages":2291,"inte":2292,"Ġthere":2293,"Chat":2294,"icon":2295,"Ġ100":2296,"duct":2297,"lip":2298,"offset":2299,"model":2300,"command":2301,"CD":2302,"ular":2303,"Source":2304,"ins":2305,"ÑĤ":2306,"Arg":2307,"Version":2308,"float":2309,"troller":2310,"lation":2311,"tk":2312,"Exception":2313,"root":2314,"EXT":2315,"Ġdocument":2316,"wconf":2317,"ocrx":2318,"ci":2319,"arm":2320,"Ġ\".":2321,"client":2322,"button":2323,")(":2324,"Inter":2325,"match":2326,"change":2327,"tag":2328,"bs":2329,"RR":2330,"ĠInput":2331,"Ġargument":2332,"ender":2333,"active":2334,"expr":2335,"Ġ).":2336,"':":2337,"åı":2338,"debug":2339,"],[":2340,"ART":2341,"Ġaccess":2342,"attern":2343,"Be":2344,"hod":2345,"Ġel":2346,"abel":2347,"\\.":2348,"Ġcontext":2349,"Ġ>=":2350,"Ġoptions":2351,"height":2352,"ists":2353,"Ġfloat":2354,"control":2355,"NS":2356,"Inst":2357,"board":2358,"ys":2359,"ernel":2360,"server":2361,"Ġargs":2362,"cd":2363,"imple":2364,"Ġem":2365,"Ġupdate":2366,"bytes":2367,"ason":2368,"Ġsame":2369,"ASS":2370,"ĠReturns":2371,"AX":2372,"ltr":2373,"71":2374,"ification":2375,")=":2376,"\".":2377,"sponse":2378,"uted":2379,"Ġmat":2380,"Ġmode":2381,";;;;;;;;":2382,"Ġstyle":2383,"Ġhttps":2384,"FLAG":2385,"Script":2386,"PORT":2387,"Lib":2388,"Ġop":2389,"anch":2390,"Ġ:-":2391,"ven":2392,"idget":2393,"ansp":2394,"PO":2395,"ï¼Į":2396,"ILD":2397,"inline":2398,"tmp":2399,"ĠFalse":2400,"Ġra":2401,"Reg":2402,"xx":2403,"Menu":2404,"unter":2405,"ster":2406,"Ġsum":2407,"!(":2408,"tra":2409,"range":2410,"Ġ^":2411,"Read":2412,"dic":2413,"any":2414,"den":2415,"CP":2416,"ten":2417,"parent":2418,"Ġafter":2419,"Ġ{}":2420,"WORD":2421,"unsigned":2422,"ZE":2423,"Imp":2424,"------------":2425,"ĠAdd":2426,"clar":2427,"Ġsupport":2428,"has":2429,"vo":2430,"ĠNumber":2431,"unk":2432,"Ġ...":2433,"filter":2434,"ian":2435,"RITE":2436,"Buffer":2437,"channel":2438,"pri":2439,"der":2440,"Main":2441,"Image":2442,"std":2443,"quence":2444,"cmd":2445,"QU":2446,"Ġstd":2447,"tainer":2448,"bf":2449,"tocol":2450,"Ġprocess":2451,"ĠAl":2452,"options":2453,"push":2454,"Ġobj":2455,"Ġrange":2456,"atab":2457,"Ġtemp":2458,"RL":2459,";&":2460,"Ġ\"/":2461,"Ġsc":2462,"ose":2463,"present":2464,"Ġexec":2465,"As":2466,"Ġwhile":2467,"types":2468,"entifier":2469,"Ref":2470,"ĉĊ":2471,"ĠResult":2472,"Ptr":2473,"True":2474,"Ġgo":2475,"ĉĠ":2476,"Ġorder":2477,"Ġ\"<":2478,"ĠAND":2479,"EC":2480,"Ġed":2481,"ĠComp":2482,"ultip":2483,"ailable":2484,"System":2485,"ACE":2486,"Ġ\"[":2487,"les":2488,"Ġopt":2489,"seq":2490,"ctor":2491,"Base":2492,"Ġ\"$":2493,"Status":2494,"search":2495,"roid":2496,"Ġaddress":2497,"ĠName":2498,"HE":2499,"ragma":2500,"Ġ),":2501,"request":2502,"Ġref":2503,"ĠĠĠĠĠĠĠĠĠĠĠĠĠĠĠĠĠĠĠĠĠĠĠĠ":2504,")\"":2505,"Or":2506,"}/":2507,"pha":2508,"Ġ\"\"\"":2509,"trace":2510,"((-":2511,"Ġ**":2512,"Ġleft":2513,"thon":2514,"ager":2515,"Ġbreak":2516,"ĠGN":2517,"Parameter":2518,"Query":2519,"nown":2520,"ntity":2521,"....":2522,"arn":2523,"Up":2524,"util":2525,"ene":2526,"ĠCol":2527,"ply":2528,"2014":2529,"asm":2530,"DR":2531,"ĠĠĠĠĠĠĠĠĠĠĠĠĠĠĠĠĠĠĠĠĠĠĠĠĠĠĠĠĠĠĠĠĠĠĠĠĠĠĠĠĠĠĠĠĠĠĠĠĠĠĠĠĠĠĠĠĠĠĠĠĠĠĠĠ":2532,"ants":2533,"POS":2534,"999":2535,"document":2536,"PR":2537,"CM":2538,"Ġinitial":2539,"{$":2540,"All":2541,"ru":2542,"sym":2543,"Ġ×":2544,"ĉĉĉĉĉĉĉ":2545,"cb":2546,"Range":2547,"leg":2548,"parameter":2549,"ĠCopy":2550,"nder":2551,"Ã¡":2552,"iginal":2553,"ategory":2554,"Test":2555,"ities":2556,"ared":2557,"IDTH":2558,"Ġbefore":2559,"Ġproperty":2560,"win":2561,"Channel":2562,"tect":2563,"Ġput":2564,"SON":2565,"Link":2566,"PT":2567,"sb":2568,"other":2569,"*/":2570,"erge":2571,"child":2572,"parse":2573,"Ġquery":2574,"\"],":2575,"ĠData":2576,"system":2577,"ĠÐ":2578,"home":2579,"atabase":2580,"ower":2581,"ious":2582,"Ġrow":2583,"ĠNew":2584,"ĠWe":2585,"Format":2586,"ĠGener":2587,"tributes":2588,"ways":2589,"Exp":2590,"andom":2591,"ĠDATA":2592,"ĠDO":2593,"git":2594,"exec":2595,"MOD":2596,"}.":2597,"yp":2598,"find":2599,"ready":2600,"Model":2601,"Ġav":2602,"\").":2603,"andard":2604,"FAULT":2605,"Default":2606,"tract":2607,"Ġchild":2608,"RAN":2609,"Ġbuffer":2610,"RC":2611,"Ġdistrib":2612,"Ġalso":2613,"web":2614,"128":2615,"Ġfind":2616,"mission":2617,"sqr":2618,"Ġits":2619,"({":2620,"æľ":2621,"MS":2622,"Ġreturns":2623,"ĠBool":2624,"Ġselect":2625,"bot":2626,"tax":2627,"cent":2628,"ĠIX":2629,"GL":2630,"pol":2631,"iver":2632,"Ġtoken":2633,"ATION":2634,">,":2635,"ĠForm":2636,"Function":2637,"pg":2638,"iler":2639,"ĠTo":2640,"adius":2641,"ches":2642,"Ġheight":2643,"Build":2644,"TYPE":2645,"~~":2646,"ĠSh":2647,"ÑĢ":2648,"ATH":2649,"Tra":2650,"Date":2651,"Ġloop":2652,"Ġsystem":2653,"ĠType":2654,"zz":2655,"desc":2656,"Ġdate":2657,"edia":2658,"ĠTHE":2659,"Ġallow":2660,"su":2661,"ä»":2662,"Man":2663,";;;":2664,"Ġvm":2665,"ither":2666,"store":2667,"Ġparent":2668,"Ġrequired":2669,"Ġbet":2670,"Ġopen":2671,"Do":2672,"ln":2673,"Ġbackground":2674,"Tag":2675,"bind":2676,"Ġserver":2677,"limit":2678,"DEF":2679,"ITH":2680,"Write":2681,"enum":2682,"FILE":2683,"ĠFOR":2684,"account":2685,"Ġmsg":2686,"****************************************************************":2687,"ĠSo":2688,"FE":2689,"Ġfunc":2690,"Obj":2691,"(\\":2692,"bt":2693,"sol":2694,"{\"":2695,"reen":2696,"Ġform":2697,"lit":2698,"Return":2699,"ĠSee":2700,"Ġthan":2701,"Options":2702,"Ġhttp":2703,"Ġdisplay":2704,"Ġprovide":2705,"printf":2706,"tool":2707,"Ġlabel":2708,"ĠNone":2709,"global":2710,"Ġfont":2711,"600":2712,"uint":2713,"Ġaddr":2714,"Ġtop":2715,"car":2716,"Access":2717,"Ġlimit":2718,"Ġfn":2719,"break":2720,"ĠPar":2721,"TT":2722,"Ġthrow":2723,"Ġtag":2724,"Method":2725,"symbol":2726,"BUILD":2727,"project":2728,"Ġap":2729,"Ġpackage":2730,"light":2731,"Ġhash":2732,"tinue":2733,"stack":2734,"Dis":2735,"SL":2736,"ient":2737,"Ġ>>":2738,"uid":2739,"rr":2740,"Gener":2741,"ITY":2742,"query":2743,"ĠCreate":2744,"ĠAN":2745,"Width":2746,"Ġret":2747,"Ġunsigned":2748,"ĠText":2749,"ĠYou":2750,"Ġ\"${":2751,"eps":2752,"PUT":2753,"side":2754,"MAKE":2755,"Lay":2756,"Ġfound":2757,"empty":2758,"ONE":2759,"OF":2760,"ces":2761,"icker":2762,"][":2763,"Ġspecified":2764,"Ġwithout":2765,"adata":2766,"ĠSy":2767,"impl":2768,"PS":2769,"}\"":2770,"GET":2771,"125":2772,"dent":2773,"very":2774,"ĠPER":2775,"bc":2776,"Ġchannel":2777,"sor":2778,"udio":2779,"ASE":2780,"ends":2781,"cale":2782,"Ġinstance":2783,"Attr":2784,"256":2785,"fun":2786,"ixed":2787,"window":2788,"ward":2789,"FO":2790,"mon":2791,"KEY":2792,"104":2793,"ctx":2794,"Ġlink":2795,"PAR":2796,"ah":2797,"ĠMessage":2798,"dist":2799,"################################":2800,"Ġio":2801,"Ġlinear":2802,"Ġ();":2803,"dim":2804,"fx":2805,"irt":2806,"Ġcre":2807,"cription":2808,"Ġold":2809,"gt":2810,"lan":2811,"ĠInteger":2812,"Unit":2813,"Ġfree":2814,"connect":2815,"URE":2816,"Ġdefined":2817,"ily":2818,"Pre":2819,"bb":2820,"medi":2821,"Ð¾Ð":2822,"Ġ14":2823,"Ġsee":2824,"goto":2825,"post":2826,"GE":2827,"ĠNo":2828,"Label":2829,"ãĢĤ":2830,"Ġstream":2831,"åħ":2832,"latform":2833,"ĠĠĠĠĠĠĠĠĠĠĠĠĠĠĠĠĠĠĠĠĠĠĠĠĠĠ":2834,"`,":2835,"(.":2836,"Ġbody":2837,"nav":2838,"apt":2839,"Ġgroup":2840,"ĠCheck":2841,"Ġ13":2842,"annot":2843,"Ġcomm":2844,"Ġview":2845,"element":2846,"ĠError":2847,"$/":2848,"bool":2849,"Ġfollowing":2850,"lice":2851,"iron":2852,"private":2853,"ween":2854,"echo":2855,"`.":2856,")),":2857,"Ġload":2858,"MO":2859,"}\\":2860,"Ġclient":2861,"Directory":2862,"Ġposition":2863,"device":2864,"Option":2865,"ĠCopyright":2866,"Ġentry":2867,"Ġurl":2868,"imer":2869,"àµį":2870,"GR":2871,"lugin":2872,"req":2873,"irection":2874,"Ġoverride":2875,"area":2876,"FLAGS":2877,"Ġ\"[\",":2878,"äº":2879,"Mem":2880,"params":2881,"Ġborder":2882,";&#":2883,"Frame":2884,"Ġexample":2885,"atom":2886,"dt":2887,"otlin":2888,"Command":2889,"Ġ11":2890,"rule":2891,"Ġport":2892,"ĠCONFIG":2893,"imum":2894,"åĪ":2895,"si":2896,"Ġ{:":2897,"IV":2898,"meta":2899,"cpu":2900,"@@":2901,"Ġimage":2902,"ĠCOMP":2903,"Ġinformation":2904,"SA":2905,"Rule":2906,"å®":2907,"'>":2908,"IGN":2909,"Ġauth":2910,"Max":2911,"Ġimplement":2912,"wise":2913,"ead":2914,"xml":2915,"SER":2916,"Select":2917,"Temp":2918,"can":2919,"Ġfun":2920,"del":2921,"PER":2922,"%%%%%%%%%%%%%%%%":2923,"Document":2924,"arning":2925,"safe":2926,"Per":2927,"acy":2928,"]}],":2929,"Ġent":2930,"Float":2931,"cv":2932,"unit":2933,"Stack":2934,"ipe":2935,"åĲ":2936,"Ġcorre":2937,"copy":2938,"199":2939,"untime":2940,".</":2941,"MB":2942,"ĠPERFORM":2943,"refix":2944,"rder":2945,"Control":2946,"ram":2947,"Content":2948,"coding":2949,"IB":2950,"Ġbit":2951,"ignment":2952,"DX":2953,"ĠPRINT":2954,"usr":2955,"Act":2956,"../../":2957,"VM":2958,"Module":2959,"NE":2960,"Ġbeen":2961,"âĢĻ":2962,"Ġdepend":2963,"Level":2964,"process":2965,"Controller":2966,"AAAAAAAA":2967,"acity":2968,"Ġcache":2969,"mbda":2970,"pon":2971,"Ġwrit":2972,"Num":2973,"Ġpo":2974,"Location":2975,"ĠĠĠĠĠĠĠĠĠĠĠĠĠĠĠĠĠĠĠĠĠĠĠĠĠĠĠĠĠ":2976,"Ġscript":2977,"REC":2978,"ĠIt":2979,"remove":2980,"Ġiv":2981,"ions":2982,"ĠIs":2983,"inary":2984,"ĠEn":2985,"auto":2986,"Ġwindow":2987,"Off":2988,"slab":2989,"Entry":2990,"Ġpub":2991,"Ġdirectory":2992,"Ñģ":2993,"ĠWH":2994,"Bot":2995,"olution":2996,"DC":2997,"sql":2998,"Hash":2999,"names":3000,"ĠĠĠĠĠĠĠĠĠĠĠĠĠĠĠĠĠĠĠĠĠĠĠĠĠĠĠĠĠĠĠĠĠĠĠ":3001,"Spec":3002,"Ġexit":3003,"ARE":3004,"Ġauto":3005,"Ġ200":3006,"integer":3007,"Ġshow":3008,"used":3009,"straint":3010,"OB":3011,"'><":3012,"500":3013,"pth":3014,"DA":3015,"ĠAss":3016,"keys":3017,"ESS":3018,"nr":3019,"wait":3020,"iteral":3021,"cast":3022,"Empty":3023,"stract":3024,"ROM":3025,"This":3026,"Length":3027,"verse":3028,"idx":3029,"PP":3030,"Ġ18":3031,"Ġvma":3032,"Ġpragma":3033,"append":3034,"æĸ":3035,"300":3036,"hell":3037,"Ġhandle":3038,"dc":3039,"close":3040,"crypt":3041,"Over":3042,"component":3043,"loop":3044,"NULL":3045,"''":3046,"tensor":3047,"handle":3048,"mathcal":3049,"EE":3050,"Ġdouble":3051,"________":3052,"106":3053,"ailed":3054,"Ġsection":3055,"400":3056,"Property":3057,"Ġinfo":3058,":\"":3059,"ĠPr":3060,"`*^":3061,"Entity":3062,"){":3063,"Expression":3064,"Ġstatus":3065,"Msg":3066,"Ġprev":3067,"gdk":3068,"ĠLe":3069,"MAX":3070,"ialog":3071,"byte":3072,"variable":3073,"clo":3074,"require":3075,"2017":3076,"(:":3077,"Sw":3078,"txt":3079,"chr":3080,"stro":3081,"Ġmo":3082,"Ġproject":3083,"non":3084,"elf":3085,"AME":3086,"icip":3087,"ling":3088,"ports":3089,"pu":3090,"ĠĠĠĠĠĠĠĠĠĠĠĠĠĠĠĠĠĠĠĠĠĠĠĠĠĠĠĠ":3091,"Ġexpect":3092,"cle":3093,"address":3094,"instance":3095,"ugh":3096,"queue":3097,"az":3098,"Server":3099,")-":3100,"ae":3101,"Ġcr":3102,"only":3103,"UI":3104,"Row":3105,"():":3106,"101":3107,"Auth":3108,"SION":3109,"install":3110,"ho":3111,"Ġstore":3112,"//@":3113,":\\":3114,"sync":3115,"Ġ02":3116,"Open":3117,"when":3118,"FC":3119,"Ġroot":3120,"send":3121,"ĠSQL":3122,"IGHT":3123,"So":3124,"Token":3125,"DATA":3126,"delete":3127,"255":3128,"Ġdb":3129,"Ġdescription":3130,"sd":3131,"Ġcond":3132,"Ġeq":3133,"peri":3134,"mach":3135,"::::":3136,"Client":3137,"Ġjust":3138,"çĶ":3139,"erial":3140,"Init":3141,"none":3142,"licit":3143,"eature":3144,"prec":3145,"Ġ],":3146,"Ġacc":3147,"ique":3148,"Ġcur":3149,"Ġ32":3150,"<=":3151,"vector":3152,"idden":3153,"ished":3154,"Display":3155,"ĠPRO":3156,"Ġbytes":3157,"Ġfilter":3158,"Ġ#\\":3159,"Ġexpression":3160,"sets":3161,"ived":3162,"Ġì":3163,"sr":3164,"double":3165,"$$":3166,"wr":3167,"Ġaccount":3168,"lash":3169,"cons":3170,"]\",":3171,"aterial":3172,"asure":3173,"Ġtypes":3174,"nb":3175,"ĠApp":3176,",,,":3177,"ACT":3178,"ÅĻ":3179,"unlock":3180,"ynam":3181,"CV":3182,"FB":3183,",_":3184,"ĠSub":3185,"Media":3186,"PATH":3187,"]);":3188,"ĠOn":3189,"vec":3190,"ĠSP":3191,"Ġsuper":3192,"Ġ(:":3193,"vg":3194,"BUG":3195,"Ġempty":3196,"Flag":3197,"common":3198,"real":3199,"CONFIG":3200,"claration":3201,"Ġfail":3202,"SIZE":3203,"Min":3204,"ĠLO":3205,"Height":3206,"tml":3207,"las":3208,"Rem":3209,"decl":3210,"Ġâ":3211,"creen":3212,"=\\\"":3213,"mk":3214,"Ġlook":3215,"ef":3216,"Ġ++":3217,"Ġet":3218,"Ġspace":3219,"Ġ{\"":3220,"Update":3221,"cause":3222,"--------------------------------------------------------------------":3223,"ĠSE":3224,"Mod":3225,"prefix":3226,"ĠDo":3227,"Ġcalled":3228,"Ġlevel":3229,"],[-":3230,"Right":3231,"stamp":3232,"icro":3233,"just":3234,"Ġeither":3235,"Graph":3236,"Ġman":3237,"Ġ|>":3238,"Web":3239,"author":3240,"DF":3241,"ĠVolume":3242,"Bool":3243,"year":3244,"ĠKey":3245,"Left":3246,"Ġsys":3247,"And":3248,"task":3249,"itional":3250,"SO":3251,"IND":3252,"oci":3253,"ĠYear":3254,"Ġconstant":3255,"ej":3256,"Ġprogram":3257,"Ġmm":3258,"ĠValue":3259,"Ġparse":3260,"Ġdif":3261,"AST":3262,"now":3263,"Ġpeer":3264,"after":3265,"pk":3266,"ULE":3267,"lied":3268,"33333333":3269,"cpp":3270,"SQ":3271,"Ġinterface":3272,"ĠWh":3273,"LOCK":3274,"Ġ([":3275,"Ġtwo":3276,"Ġ{@":3277,"Last":3278,"ted":3279,"ped":3280,"ĠPublic":3281,"mapping":3282,"Ġvis":3283,"åĬ":3284,"resh":3285,"Ġenum":3286,"FuncName":3287,"iction":3288,"Ġ(.":3289,"TY":3290,"resource":3291,"Ġlocation":3292,"Ġ(-":3293,"fi":3294,"Ġ===":3295,"resent":3296,"SD":3297,"ixel":3298,"stat":3299,"Ġsecond":3300,"graph":3301,"Net":3302,"ures":3303,"}%":3304,"LIB":3305,"kip":3306,"wrap":3307,"*\\":3308,"Ut":3309,"2018":3310,"pm":3311,"Ġ{.":3312,"Ġarch":3313,"menu":3314,"position":3315,"Ġrece":3316,"sink":3317,"GB":3318,"pop":3319,"Ġpri":3320,"rough":3321,"ocus":3322,"å¤":3323,"Project":3324,"fr":3325,"Ġrepresent":3326,"ponse":3327,"20202020":3328,"à¦":3329,"lambda":3330,"ironment":3331,"Ġhead":3332,"ĠWITH":3333,"plit":3334,"cheader":3335,"Ġrule":3336,"We":3337,"\"></":3338,"996":3339,"delay":3340,"hs":3341,"Ġalloc":3342,"Ass":3343,"sec":3344,"ek":3345,"Ġ----------------":3346,"***":3347,"sing":3348,"Ġes":3349,"defn":3350,"-\\":3351,"help":3352,"Wh":3353,"110":3354,"Ġ36":3355,"aa":3356,"pack":3357,"Ġ<>":3358,"clare":3359,"Ġ00":3360,"Ġaction":3361,"696":3362,"Ġ\"-":3363,"irtual":3364,"Ġlock":3365,"Ġ{$":3366,"Sup":3367,"ideo":3368,"uple":3369,"Ġframe":3370,"angle":3371,"erm":3372,"Ġlike":3373,"Ġthem":3374,"Ġreference":3375,"split":3376,"Ġheader":3377,"Tree":3378,"107":3379,"ii":3380,"lick":3381,"alk":3382,"amples":3383,"Sec":3384,"met":3385,"Ġunit":3386,"Font":3387,"Service":3388,"ynamic":3389,"JE":3390,"valu":3391,"ision":3392,"ĠANY":3393,"Ġloc":3394,"Ab":3395,"Ġ_,":3396,"gex":3397,"lower":3398,"CR":3399,"Title":3400,"\"\"\"":3401,"ĠCont":3402,"Ġob":3403,"cx":3404,"REG":3405,"BO":3406,"Ġexpr":3407,"LINE":3408,"Ġnow":3409,"Ġabout":3410,"ĠFormat":3411,"nil":3412,"Ġ30":3413,"ĠIO":3414,"rem":3415,"ĉĠĠĠĠĠ":3416,"ä½":3417,"fp":3418,"gnore":3419,"Ġdevice":3420,"ERROR":3421,"ÃŃt":3422,"Target":3423,"intern":3424,"layout":3425,"ube":3426,"Ġthey":3427,"Ġok":3428,"ported":3429,"values":3430,"Ġ24":3431,"inc":3432,"clk":3433,"record":3434,"Ġrecord":3435,"mask":3436,"Handle":3437,"pages":3438,"Ġge":3439,"bd":3440,"Ġapplication":3441,"release":3442,"IR":3443,"Ġ[\"":3444,"ĠVal":3445,"(@":3446,"Port":3447,"Ġver":3448,"Ġstack":3449,")))))":3450,"olve":3451,"cell":3452,"oogle":3453,"Run":3454,"Ġboolean":3455,"Com":3456,"PRE":3457,"structor":3458,"ze":3459,"keep":3460,"Ġfunctions":3461,"Ġmain":3462,"cor":3463,"Ġvector":3464,"ETH":3465,"ĠAs":3466,"tails":3467,"(-":3468,"Integer":3469,"ging":3470,"Ġpointer":3471,"110000":3472,"park":3473,"Ġtask":3474,"Ġbecause":3475,"aved":3476,"ĠTABLE":3477,"Ġ-->":3478,"Ġdon":3479,"ĠĠĠĠĠĠĠĠĊ":3480,"Ġresource":3481,"ĠTR":3482,"ĠObject":3483,")$":3484,"ulti":3485,"assert":3486,"Auto":3487,"EB":3488,"hi":3489,"sn":3490,"OK":3491,"Address":3492,"COMP":3493,"Ġdebug":3494,"Ġdefine":3495,"ags":3496,"Ġinode":3497,"istory":3498,"}]":3499,"utable":3500,"Ġcomponent":3501,"Position":3502,"Ġcons":3503,"encies":3504,"icy":3505,"FS":3506,"Ġexist":3507,"XXXXXXXX":3508,"ĠGNU":3509,"120":3510,"aly":3511,"Ġremove":3512,"Component":3513,"Ġfore":3514,"aded":3515,"Ġwant":3516,"python":3517,"WS":3518,"etch":3519,"ĠpÅĻ":3520,"ĠEL":3521,"Ġ\"__":3522,"Ġ\"\\[":3523,"save":3524,"sl":3525,"nn":3526,"Ġ=~":3527,"MEM":3528,"xB":3529,"ĠCALL":3530,"drop":3531,"Back":3532,"Ġbetween":3533,"cul":3534,">.":3535,"Ġdown":3536,"Hel":3537,"Order":3538,"Ac":3539,"ous":3540,"utom":3541,"Ġalready":3542,"hether":3543,"draw":3544,"UID":3545,"tected":3546,"clear":3547,"actor":3548,"ĠThen":3549,"wn":3550,"au":3551,"coder":3552,"ĠUse":3553,"ANT":3554,"join":3555,"lines":3556,"gest":3557,"Ġ$\\":3558,"posit":3559,"ANG":3560,"Ġmemory":3561,"Op":3562,"IX":3563,"arr":3564,"CRE":3565,"ĉĉĠĠĠ":3566,"è¿":3567,"ðŁ":3568,"Game":3569,"Ġkmem":3570,"before":3571,"alt":3572,"rb":3573,"FFFFFFFF":3574,"Ġ19":3575,"ultiple":3576,"TEST":3577,"anon":3578,"Ġavailable":3579,"Cur":3580,"512":3581,"ĠBu":3582,"ĠWAR":3583,"Ġdirect":3584,"Ġcolumn":3585,"sort":3586,"Ġsuch":3587,"Instance":3588,"Top":3589,"ĠGeneral":3590,"apping":3591,"Ġ('":3592,"Comm":3593,"java":3594,"CB":3595,"æķ":3596,"stop":3597,"ĠĠĠĠĠĠĠĠĠĠĠĠĠĠĠĠĠĠĠĠĠĠĠĠĠĠĠĠĠĠ":3598,"ĠPoint":3599,"Te":3600,"Me":3601,"!!":3602,"press":3603,"ential":3604,"Ġdev":3605,"URL":3606,"Attribute":3607,"Ġ01":3608,"utor":3609,"internal":3610,"001":3611,"HO":3612,"ade":3613,"flag":3614,"blem":3615,"ĠState":3616,"Ġdistributed":3617,"Next":3618,"ited":3619,"CF":3620,"Ġdim":3621,"Ġcontrol":3622,"Child":3623,"Ġcharacter":3624,"uri":3625,"column":3626,"2021":3627,"Ġnone":3628,"interface":3629,"Url":3630,"Ġsoftware":3631,"ASK":3632,"Ġ\"#":3633,"Ġtree":3634,"Ġsend":3635,")+":3636,"amily":3637,"TA":3638,"prev":3639,"replace":3640,"None":3641,"zip":3642,"').":3643,"initial":3644,"gh":3645,"ison":3646,"]+":3647,"[\\":3648,"Ġbyte":3649,"Ġendif":3650,"Ġusers":3651,"TIME":3652,"ARCH":3653,"Ġmark":3654,"rs":3655,"ĠRead":3656,"gress":3657,"ĠEnd":3658,">-":3659,"}_":3660,"margin":3661,"[[":3662,"ĠINTO":3663,"vider":3664,"Ġoptional":3665,"ync":3666,"wd":3667,"ssue":3668,"Mat":3669,"Ġelements":3670,"BB":3671,"tensorflow":3672,"mall":3673,"ntax":3674,"NOT":3675,"stage":3676,"105":3677,"UD":3678,"orld":3679,"Description":3680,"apter":3681,"Photo":3682,"());":3683,"center":3684,"avu":3685,"thread":3686,"bove":3687,"rev":3688,"full":3689,"translation":3690,"ĠGO":3691,"ĠĠĠĠĠĠĠĠĠĠĠĠĊ":3692,"Ġ};":3693,"expression":3694,"Ġ\"%":3695,"FD":3696,"Ġlv":3697,"ancel":3698,"ĠpÅĻej":3699,"LLER":3700,"cg":3701,"rep":3702,"103":3703,"align":3704,"Bar":3705,"procedure":3706,"Ġ17":3707,"term":3708,"Ġstavu":3709,"ĠpÅĻejÃŃt":3710,"dat":3711,"dx":3712,"ĠTime":3713,"Ag":3714,")\\":3715,">\\":3716,"Ġ\":":3717,"å¸":3718,"tach":3719,"Ġsymbol":3720,"img":3721,":(":3722,"ĠAll":3723,"spin":3724,"Ġpadding":3725,")).":3726,"Ġ29":3727,"ĠSystem":3728,"imal":3729,"ĠSome":3730,"erson":3731,"Tool":3732,"thing":3733,"Load":3734,"binary":3735,"Ġglobal":3736,"Ð»":3737,"Ġthese":3738,"ĠArray":3739,"Ġresponse":3740,"day":3741,"Response":3742,"Ġher":3743,"]*":3744,"JSON":3745,">\"":3746,"known":3747,"Cap":3748,":-":3749,"ole":3750,"Ġvariables":3751,"qp":3752,"Messages":3753,"Ġbuf":3754,"??":3755,"high":3756,"Ġnames":3757,",,,,,,,,":3758,"Null":3759,"Ġ50":3760,"800":3761,"Bit":3762,"Ġiter":3763,"|\\":3764,"access":3765,"ARD":3766,"ARY":3767,"CI":3768,"JECT":3769,"Ġlanguage":3770,"Mark":3771,"àº":3772,"Ġcell":3773,"Ġfull":3774,"Expr":3775,"MENT":3776,"then":3777,"Ġfin":3778,"åĮ":3779,"HI":3780,"Ġbound":3781,"FP":3782,"dentry":3783,"bed":3784,"EG":3785,"Ġassign":3786,"mount":3787,"Ġreal":3788,"tacts":3789,"ids":3790,"ssible":3791,"Ġreturned":3792,"issing":3793,"Ġparameters":3794,".,":3795,"NUM":3796,"Ġspecific":3797,"WRITE":3798,".*":3799,"Ġeven":3800,"kernel":3801,"ĠAR":3802,"container":3803,"umns":3804,"STAT":3805,"Ġflag":3806,"245":3807,"sche":3808,"188":3809,"Us":3810,"Ġgr":3811,"Ġslab":3812,"Package":3813,"dict":3814,"ĠSoftware":3815,"counter":3816,"ifdef":3817,"Files":3818,"Resource":3819,"Case":3820,"737":3821,"Ġword":3822,"ĠFILLER":3823,"ĠNT":3824,"Ġzero":3825,"Su":3826,"ĠOption":3827,"ĠOut":3828,"pub":3829,"ives":3830,"WIDTH":3831,"Ġinline":3832,"First":3833,"\"}]}],":3834,"fill":3835,"Ġchat":3836,"android":3837,"MY":3838,"ĠELSE":3839,"Ġnet":3840,"Ġinstead":3841,"Ġhelp":3842,"Admin":3843,"png":3844,"ites":3845,"insert":3846,"awn":3847,"zero":3848,"tail":3849,"aybe":3850,"adow":3851,"Edit":3852,"CA":3853,"direct":3854,"imation":3855,"MODULE":3856,"ier":3857,"defun":3858,"ĠENDIF":3859,"dp":3860,"ause":3861,"Body":3862,"ivacy":3863,"Ġbutton":3864,"Ġ(%":3865,"ĠAd":3866,"DT":3867,"Ġsort":3868,"member":3869,"writ":3870,"utf":3871,"ars":3872,"generic":3873,"gu":3874,"åľ":3875,"Record":3876,"Device":3877,"ĠPTR":3878,"}$":3879,"Ġà´":3880,"ĠĠĠĠĠĠĠĠĠĠĠĠĠĠĠĠĠĠĠĠĠĠĠĠĠĠĠĠĠĠĠĠĠ":3881,"âĤ":3882,"Ġdiv":3883,"velo":3884,"Ġdup":3885,"ĠNot":3886,"Manager":3887,"Ġmethods":3888,"Pol":3889,"ĠCH":3890,"Ġls":3891,"ries":3892,"Ġhost":3893,"ispatch":3894,"BL":3895,"Ġabove":3896,"ĠĠĠĠĠĠĠĠĠĠĠĠĠĠĠĠĠĠĠĠĠĠĠĠĠĠĠĠĠĠĠĠĠĠĠĠĠĠĠ":3897,"Task":3898,"Ġtotal":3899,"igin":3900,"css":3901,"ĉĉĊ":3902,"ĠMap":3903,"ordin":3904,"Ġshift":3905,"each":3906,"stroy":3907,"Sc":3908,"Ġmargin":3909,"pipe":3910,"ensions":3911,"izer":3912,"Env":3913,"ERE":3914,"Ġextends":3915,"tf":3916,"æĺ":3917,"gy":3918,"iant":3919,"ALSE":3920,"ĠRem":3921,"Ġunt":3922,"Ġdiffer":3923,"Ġfilename":3924,"ĠAPI":3925,"VAR":3926,"ĠBy":3927,"ibility":3928,"MOR":3929,"uction":3930,"])([":3931,"sole":3932,"{-":3933,"Mon":3934,"uc":3935,"ĠWARRAN":3936,"Ġsearch":3937,"++)":3938,"dup":3939,"ĠLine":3940,"Det":3941,"URN":3942,"700":3943,"depend":3944,"]],":3945,"ĠLo":3946,"vas":3947,"Ġalways":3948,"expand":3949,"ansport":3950,"Ġ[(":3951,"Ġ25":3952,"eric":3953,"EY":3954,"settings":3955,"READ":3956,"VERSION":3957,"panel":3958,"ORK":3959,"LIC":3960,"branch":3961,"allow":3962,"Let":3963,"Ġ64":3964,"108":3965,"commit":3966,"Down":3967,"DATE":3968,"utter":3969,"Len":3970,"Process":3971,"mail":3972,"Ġ',":3973,"Ġ})":3974,"Current":3975,"Ġvert":3976,"COUN":3977,"eded":3978,"Ġorg":3979,"grid":3980,"Ext":3981,"ĠIMP":3982,"OM":3983,"ident":3984,"=\"/":3985,"apache":3986,"Ġcontains":3987,"objects":3988,"wire":3989,"Ġcontinue":3990,"<<":3991,"see":3992,"ital":3993,"66666666":3994,"Ġ[[":3995,"ĠOpen":3996,"Ġ03":3997,"Ġarguments":3998,"exit":3999,"basic":4000,"gor":4001,"Ġparams":4002,"LS":4003,"scale":4004,"168":4005,"Ġsingle":4006,"Ġfl":4007,"feature":4008,"Ġ+[^":4009,"Panel":4010,"rtl":4011,"ĠDEFAULT":4012,"total":4013,"ually":4014,"peed":4015,"itive":4016,"CS":4017,"Î½":4018,"ĠStr":4019,"dated":4020,"Nkind":4021,"RECT":4022,".}":4023,"cm":4024,"xis":4025,"2016":4026,"æĪ":4027,"ĠMETH":4028,"\\[":4029,"assign":4030,"Ġswitch":4031,"Flags":4032,"uments":4033,"ĠReg":4034,"ks":4035,"Ġsince":4036,"equal":4037,"plu":4038,"OPT":4039,"abs":4040,"rate":4041,"ĠERR":4042,"service":4043,"bers":4044,"uture":4045,"Ġbind":4046,"(\"\\":4047,"leted":4048,"Ġ});":4049,"switch":4050,"TP":4051,"Ġ255":4052,"foo":4053,"diff":4054,"igger":4055,"Ġdefin":4056,"Ġ77":4057,"serv":4058,"acro":4059,"apply":4060,"optional":4061,"Ġbot":4062,"Ġbr":4063,"áŁ":4064,"Const":4065,"Ġdi":4066,"ĠMETHOD":4067,"category":4068,"'}":4069,")$(":4070,"__\":":4071,"serve":4072,"Ġcreated":4073,"è¡":4074,"gb":4075,"102":4076,"WN":4077,"ending":4078,"rm":4079,"Inline":4080,"ILITY":4081,"Ġoperator":4082,"icle":4083,"Ġ{{":4084,"response":4085,"enable":4086,"Ġte":4087,"Ñĥ":4088,"uring":4089,"plugin":4090,"hing":4091,"Ġim":4092,"Exec":4093,"Ġagain":4094,"={":4095,"uch":4096,"ĠNote":4097,"Ġclo":4098,"bottom":4099,"\"},":4100,"RT":4101,"Ġinternal":4102,"Symbol":4103,"Ġhand":4104,"EF":4105,"æĹ":4106,"=(":4107,"Particip":4108,"à¸":4109,"oriz":4110,"dec":4111,"Offset":4112,"Ġwould":4113,"ĠDes":4114,"aster":4115,"ĠFunction":4116,"Mo":4117,"ane":4118,"hes":4119,"reset":4120,"|(":4121,"gl":4122,"MD":4123,"Ġobjects":4124,"fb":4125,"docs":4126,"precated":4127,"soft":4128,"distance":4129,"lative":4130,"Args":4131,"mutex":4132,"background":4133,"shot":4134,"Ġlibrary":4135,"MORPH":4136,"UNCTION":4137,"ĠLI":4138,"Ġ\";":4139,"Delete":4140,"Ġsuccess":4141,"dot":4142,")'":4143,"vs":4144,"å¼":4145,"Ġprovided":4146,"ĠUser":4147,"shape":4148,"[$":4149,"original":4150,"acc":4151,"peat":4152,"mes":4153,"Cache":4154,"lack":4155,"tains":4156,"sqrt":4157,"ĠFree":4158,"ority":4159,"189":4160,"Ġ]+":4161,"ĠSup":4162,"Ġ$$":4163,"Ġclose":4164,"160":4165,"ĠÎ":4166,"register":4167,"Save":4168,"ĠWindow":4169,"utils":4170,"Ġstop":4171,"(!":4172,"inner":4173,"chain":4174,"itu":4175,"pository":4176,"Ġ{\\":4177,"Ġpass":4178,"COR":4179,"sure":4180,"ä¼":4181,"Ġresults":4182,"El":4183,"2023":4184,"00000000000000000000000000000000":4185,"NP":4186,"Ġwhether":4187,"Ġalias":4188,"\\\",":4189,"ĠCell":4190,"ior":4191,"ä¸Ģ":4192,"ories":4193,"domain":4194,"als":4195,"MT":4196,"Ðº":4197,"AW":4198,"LOC":4199,"Ġdr":4200,"Parent":4201,"Ġpost":4202,"INIT":4203,"native":4204,"ĠTE":4205,"quote":4206,"med":4207,"ĠWS":4208,"Kind":4209,"je":4210,"Ġ(->":4211,"Ge":4212,"TW":4213,"na":4214,"border":4215,"011":4216,"SQL":4217,"wx":4218,"template":4219,"Interface":4220,"Atom":4221,"cmp":4222,"Enum":4223,"comment":4224,"Ġcallback":4225,"GT":4226,"Param":4227,"ttp":4228,"143":4229,"ĠVersion":4230,"See":4231,"Ġdelete":4232,"dl":4233,"Use":4234,"icode":4235,"ĠSH":4236,"Global":4237,"items":4238,"Ġbl":4239,"127":4240,"alias":4241,"Ġsettings":4242,"Ġ['":4243,"utomatic":4244,"\":\"\",\"":4245,"2013":4246,"eval":4247,"bound":4248,"delta":4249,"Ġecho":4250,"ffic":4251,"Ġraise":4252,"Ġconf":4253,"ĠDefault":4254,"gorith":4255,"fg":4256,"ged":4257,"Ġbox":4258,"voke":4259,"Ġentity":4260,"Ġ\\\\":4261,"AV":4262,"edit":4263,"Ġmon":4264,"Go":4265,"Ġalign":4266,"åŃ":4267,"shift":4268,"Ġdetails":4269,"eta":4270,"Ġ40":4271,"=\"../":4272,"Types":4273,"API":4274,"Ġ23":4275,"served":4276,"003":4277,"Ġ\"]\"}],":4278,"\\\"\\":4279,"Sign":4280,"Local":4281,"Ġperform":4282,"pointer":4283,"124":4284,"Ġpush":4285,"compile":4286,"EQ":4287,"Ġhow":4288,"ĠAssert":4289,"Ġdifferent":4290,"storage":4291,"?:":4292,"Ġtheir":4293,"Ne":4294,"ĠSource":4295,"ĠFROM":4296,"Def":4297,"Ġpas":4298,"ĠLoc":4299,"ĠVar":4300,"irm":4301,"ĠIP":4302,"ĠEd":4303,"ĠWRITE":4304,"Pri":4305,"USE":4306,"nodes":4307,"INFO":4308,"proto":4309,"2015":4310,"Plugin":4311,"lv":4312,"\\@":4313,"DS":4314,"merge":4315,"è¯":4316,"è®":4317,"Ġconnection":4318,"fileName":4319,"ĠKEY":4320,"cfg":4321,"actions":4322,"224":4323,"ness":4324,"duce":4325,"prop":4326,"Ġinv":4327,"NN":4328,"Ġ'$":4329,"Ġforeach":4330,"ĠAS":4331,"Ġdone":4332,"Ġthread":4333,"tore":4334,"ERN":4335,"[?":4336,"Ġnormal":4337,"2011":4338,"Connection":4339,"Copy":4340,"164":4341,"Ġpop":4342,"umb":4343,"Ġ(+":4344,"METH":4345,"ĠÃ":4346,"EM":4347,"Ġconfiguration":4348,"way":4349,"Ġlicense":4350,"spark":4351,"application":4352,"Ġ21":4353,"rf":4354,"Params":4355,"*>":4356,"?)":4357,"Ġtrack":4358,"report":4359,"sem":4360,"dom":4361,"struction":4362,";;;;;;;;;;;;;;;;":4363,"ua":4364,"GER":4365,"Ġproperties":4366,"Host":4367,"Ġregister":4368,"Search":4369,"Byte":4370,"rest":4371,"163":4372,"pid":4373,"pass":4374,"Ġdest":4375,"license":4376,"_{":4377,"termin":4378,"Ġ33":4379,"ĠHE":4380,"ĠCL":4381,"220":4382,"ird":4383,"Ġkeys":4384,"croll":4385,"SERT":4386,"Render":4387,"tot":4388,"measure":4389,"211":4390,"ĠNO":4391,"FR":4392,"190":4393,"ĠPrint":4394,"DWORD":4395,"Ġty":4396,"abap":4397,"}],":4398,"åį":4399,"213":4400,"TEXT":4401,"99999999":4402,"Ġclear":4403,"xt":4404,"Ġtmp":4405,"Ġshort":4406,"Ġdist":4407,"]),":4408,"track":4409,"Ġbinary":4410,"Ġpermission":4411,"Header":4412,"Ġunless":4413,"%;":4414,"Ġproc":4415,"note":4416,"ĠRET":4417,"AVE":4418,"Only":4419,"Layer":4420,"Handler":4421,"pected":4422,")}":4423,"Ġwhat":4424,"alled":4425,"lemma":4426,"sim":4427,"Ġcustom":4428,"Ġ05":4429,"CODE":4430,"Material":4431,"rt":4432,"Ġsol":4433,"Full":4434,"Sticker":4435,"ĠInter":4436,"ayment":4437,"ĠFound":4438,"\":{\"":4439,"METHOD":4440,"scal":4441,"Bound":4442,"ĠInc":4443,"arge":4444,"kt":4445,"rows":4446,"Ġinstall":4447,"Bind":4448,"Ġrandom":4449,"play":4450,"skip":4451,"Ġwire":4452,"ĠAt":4453,"111":4454,"sched":4455,"hav":4456,">(":4457,"Ġexists":4458,"Ġequal":4459,"Ġ\"\")":4460,"rand":4461,"ATCH":4462,"ĠEN":4463,"pf":4464,"Ġboth":4465,"Ġthrough":4466,"getElement":4467,"COL":4468,"Ġsequence":4469,"Valid":4470,"look":4471,"×ķ":4472,"*:":4473,"Ġpol":4474,"Ġ''":4475,"handler":4476,"ĉĉĉĉĉĉĉĉĉ":4477,"neg":4478,"Ġactive":4479,"crypted":4480,"product":4481,"dn":4482,"Print":4483,"SU":4484,"ĠLog":4485,"900":4486,"Ġassoci":4487,"Ġmut":4488,"215":4489,"ialize":4490,"2019":4491,"Ġ%%":4492,"ayload":4493,"ĠAT":4494,"Norm":4495,"aj":4496,"generated":4497,"Ġopts":4498,"Dim":4499,"lap":4500,"erv":4501,"hy":4502,"ents":4503,"unch":4504,"Ġevery":4505,"acters":4506,"Ġeax":4507,"LECT":4508,"ĠFont":4509,"xor":4510,"isc":4511,"ĠCONT":4512,"Ġbeing":4513,"ById":4514,"ĠContro":4515,"Click":4516,"Ġignore":4517,"where":4518,"ffff":4519,"////////////////////////////////":4520,"ictionary":4521,"ilt":4522,"Ġ'/":4523,"decode":4524,"Ġfields":4525,"Ġ22":4526,"MIN":4527,"ĠSp":4528,"short":4529,"Ġmove":4530,"selected":4531,"IME":4532,"Oper":4533,"Ġrender":4534,".\\":4535,"chat":4536,")*(":4537,"ws":4538,"clean":4539,"Inv":4540,"Builder":4541,"RD":4542,"admin":4543,"wner":4544,"Ġjson":4545,"SUB":4546,"Ġ1000":4547,"alpha":4548,"while":4549,"Ġterms":4550,"unout":4551,"Ġ%>":4552,"ĠSET":4553,"setAttr":4554,"strict":4555,"UES":4556,"quot":4557,"hover":4558,"hel":4559,"lineNumber":4560,"Ġround":4561,"timeout":4562,"IVE":4563,"lik":4564,"Root":4565,"ea":4566,"118":4567,"boot":4568,"Space":4569,"Ġindic":4570,"Ġlines":4571,"php":4572,"Show":4573,"Icon":4574,"ben":4575,"Ġ\"+":4576,"peg":4577,"Ġuntil":4578,"dip":4579,"super":4580,"bat":4581,"162":4582,"ncy":4583,"ENSE":4584,"book":4585,"ffix":4586,"Column":4587,"!--":4588,"library":4589,"Ġ\")":4590,"ĠVector":4591,"lua":4592,"PU":4593,"NT":4594,"OLD":4595,"Ð¼":4596,"ĠWIDTH":4597,"InputPeer":4598,"ble":4599,"ABILITY":4600,"ĠIC":4601,"stable":4602,"Ġmodify":4603,"normal":4604,"LIST":4605,"Sum":4606,"656":4607,"åº":4608,"0000000":4609,"Ġ\"\",":4610,"Ġdrop":4611,"Debug":4612,"attribute":4613,"properties":4614,"Ġlater":4615,"gp":4616,"éĢ":4617,"scope":4618,"Ġyear":4619,"Ġotherwise":4620,"Iter":4621,"ĠInit":4622,"ivers":4623,"ĠBY":4624,"inlineStack":4625,"inlineStackInfo":4626,"GO":4627,"socket":4628,"lause":4629,"lish":4630,"edges":4631,"Ã³":4632,"jav":4633,",--,--,--,--":4634,"swap":4635,"ssl":4636,"=\"#":4637,"bra":4638,"fmt":4639,"å¸Ĥ":4640,"ìĿ":4641,"çĶ¨":4642,"]))":4643,"akes":4644,"]{":4645,"letion":4646,"×Ļ":4647,"ĠTe":4648,"Pointer":4649,"padding":4650,"Ġprevious":4651,"å°":4652,"Ġprefix":4653,"weight":4654,"++++":4655,"cu":4656,"pa":4657,"Ġidx":4658,"ç»":4659,"rout":4660,"+=":4661,"Ġstep":4662,"Ġway":4663,"Bytes":4664,"pad":4665,"657":4666,"opts":4667,"Ġour":4668,"355":4669,"mac":4670,"Defin":4671,"Names":4672,"ãģ®":4673,"cker":4674,"agn":4675,"Ġcatch":4676,"Head":4677,"DK":4678,"Ġ36996":4679,"Ġstructure":4680,"Ġcap":4681,"Ġconvert":4682,"acing":4683,"Ġsche":4684,"Ġsplit":4685,"Bl":4686,"Ġplace":4687,"solute":4688,"Î±":4689,"force":4690,"Ġscope":4691,"vars":4692,"USER":4693,"pare":4694,"bus":4695,"ĠOptions":4696,"ĠĠĠĠĠĠĠĠĠĠĠĠĠĠĠĠĠĠĠĠĠĠĠĠĠĠĠĠĠĠĠĠĠĠĠĠĠĠĠĠĠĠĠ":4697,"ough":4698,"Ġproxy":4699,"###":4700,"{}":4701,"Ġcannot":4702,"Values":4703,"step":4704,"Ġdescri":4705,"google":4706,"gment":4707,"Library":4708,"CMAKE":4709,"LOG":4710,"_.":4711,"blank":4712,"rw":4713,"ado":4714,"Ġident":4715,"ãĥ¼":4716,"\\/":4717,"LETE":4718,"AF":4719,"Ġë":4720,"Ġshmem":4721,"Match":4722,"ĠClass":4723,"ĠOP":4724,"Ġspecial":4725,"bose":4726,"Ġgenerated":4727,"Ġctx":4728,"ĠNS":4729,"ĠĠĠĠĠĠĠĠĠĠĠĠĠĠĠĠĠĠĠĠĠĠĠĠĠĠĠĠĠĠĠĠĠĠĠĠĠĠĠĠĠĠĠĠĠĠĠ":4730,"fields":4731,"ĠGtk":4732,".\")":4733,"Ġposunout":4734,"ERO":4735,"Ġmet":4736,"iy":4737,"Ġ```":4738,"pair":4739,"Ñı":4740,"road":4741,"bx":4742,"Ġmask":4743,"program":4744,"Database":4745,"ĠURL":4746,"modules":4747,"Password":4748,"Ġsure":4749,"aries":4750,"2022":4751,"screen":4752,"Ver":4753,"2000":4754,"rad":4755,"mnt":4756,"images":4757,"++;":4758,"sig":4759,"engine":4760,"Ġgraph":4761,"ä¹":4762,"Indent":4763,"urface":4764,"012":4765,"\\\":":4766,"Ġ'.":4767,"IAL":4768,"Ġexcept":4769,"Cl":4770,"Ġreason":4771,"Ġinsert":4772,"Rect":4773,"nbsp":4774,"ĠĠĠĠĠĠĠĠĠĠĠĠĠĠĠĠĠĠĠĠĠĠĠĠĠĠĠĠĠĠĠĠĠĠ":4775,"tsd":4776,"Ġreplace":4777,"Ġpossible":4778,"Long":4779,"Vis":4780,"Ġrel":4781,"ãĢģ":4782,"[?]":4783,"RI":4784,"stats":4785,"Ġwait":4786,"->\"":4787,"Ġerrors":4788,"dart":4789,"Ġfix":4790,"âĢľ":4791,"Widget":4792,"INSERT":4793,"Ġ{},":4794,"Ġinvalid":4795,"130":4796,"Session":4797,"cdr":4798,"icrosoft":4799,"Conf":4800,"Tab":4801,"Layout":4802,"oom":4803,"144":4804,"éĩ":4805,"ended":4806,"legate":4807,"atio":4808,"å·":4809,"Ġitems":4810,"loy":4811,"Ġsave":4812,"Ġanon":4813,">=":4814,"Ġhigh":4815,"Ġsepar":4816,"Custom":4817,"fileDirectory":4818,"Ġ800":4819,"yy":4820,"slot":4821,"/)":4822,"mag":4823,"Ġ60":4824,"getElementById":4825,"109":4826,"cer":4827,"ock":4828,"BY":4829,"ini":4830,"ĠDate":4831,"Ġmodules":4832,"Variable":4833,"password":4834,"ĠGL":4835,"encode":4836,"issue":4837,"ICE":4838,"done":4839,"Ġcmd":4840,"304":4841,"204":4842,"uster":4843,"contextFuncName":4844,"Draw":4845,"bg":4846,"ural":4847,"condition":4848,"ĠON":4849,"ascript":4850,"ĠWeb":4851,"ĠVALUES":4852,".\",":4853,"sv":4854,"session":4855,"ather":4856,"Ġraw":4857,"TD":4858,"clone":4859,"Make":4860,"Ġskip":4861,"Adv":4862,"gc":4863,"Ġmeans":4864,"TF":4865,"Ġwithin":4866,"WR":4867,"ĠConfig":4868,"Ġadded":4869,"159":4870,"Ġptr":4871,";</":4872,"åİ":4873,"150":4874,"(%":4875,"BIT":4876,"Ġstandard":4877,"LM":4878,"fu":4879,"Word":4880,"You":4881,"ability":4882,"LY":4883,"Ġcould":4884,"Player":4885,"135":4886,"bitwidth":4887,"'(":4888,"Ġoperation":4889,"Ġcorrespon":4890,"Ð²":4891,"----------------------------------------------------------------------------":4892,"âĢĿ":4893,"ĠPage":4894,"Impl":4895,"rtlName":4896,":'":4897,"åĩ":4898,"LEN":4899,"Transform":4900,"ĠUpdates":4901,"ĠWhen":4902,"998":4903,"```":4904,"found":4905,"ONG":4906,"Ġ];":4907,"logy":4908,"FIX":4909,"gorithm":4910,"Ġdec":4911,"Ġkotlin":4912,"rp":4913,"ĠSUB":4914,"defin":4915,"PM":4916,"foreach":4917,"Rel":4918,"Dialog":4919,"trie":4920,"Ġkeep":4921,"heet":4922,"sif":4923,"uler":4924,"ga":4925,"Ġbelow":4926,"Ġ[],":4927,"================================================================":4928,"ĠSelf":4929,"------------------------------------------------":4930,"orizont":4931,"Ġbased":4932,"btn":4933,"click":4934,"........":4935,"Ġ(\\":4936,"Ġ80":4937,"à´¿":4938,"Ġeps":4939,"Generic":4940,"scan":4941,"Î¹":4942,"Ġservice":4943,"Ġphone":4944,".\");":4945,"Opt":4946,"Lock":4947,"~~~~":4948,"/,":4949,"DEBUG":4950,"Ġswap":4951,"NB":4952,"Ġrelease":4953,"117":4954,"Work":4955,"ĠWindows":4956,"Ġ'-":4957,"leep":4958,"Ġtri":4959,"IONS":4960,"memory":4961,"ĠArg":4962,"elist":4963,"ĠCode":4964,"187":4965,"Ġenabled":4966,"ĠTOK":4967,"aption":4968,"Grid":4969,"cmake":4970,"Ġidentifier":4971,"Ġ78":4972,"Matrix":4973,"SV":4974,"ivity":4975,"ersist":4976,"mmu":4977,"originalName":4978,"Ġmultiple":4979,"Ġpack":4980,"WORK":4981,"Ġneeded":4982,"ELD":4983,"pool":4984,"Scale":4985,"cover":4986,"dest":4987,"eax":4988,"atal":4989,"ĠLib":4990,"opcode":4991,"tw":4992,"Ġsoc":4993,"lain":4994,"iling":4995,"Ġfd":4996,"ĠMaybe":4997,"Ġstorage":4998,"esh":4999,"Ġinc":5000,"Ġ28":5001,"æĶ":5002,"===":5003,"Ġpassword":5004,"Loop":5005,"Sk":5006,"components":5007,"tools":5008,"ADDR":5009,"orph":5010,"Ġreset":5011,"Del":5012,"005":5013,"ĠĠĠĠĠĠĠĠĠĠĠĠĠĠĠĠĠĠĠĠĠĠĠĠĠĠĠĠĠĠĠĠĠĠĠĠ":5014,">;":5015,"cost":5016,"connection":5017,"cluster":5018,"Win":5019,"ĠBase":5020,"Ġdoesn":5021,"Audio":5022,"Can":5023,"Ġpresent":5024,"should":5025,"}},":5026,"channels":5027,"ĠFoundation":5028,"apped":5029,"bits":5030,"Active":5031,"IST":5032,"165":5033,"pattern":5034,"inf":5035,"Dr":5036,"coreName":5037,";\\":5038,"era":5039,"enabled":5040,"ickers":5041,"ka":5042,"mu":5043,"dep":5044,"Ġmerge":5045,"curity":5046,"-*":5047,"ĠPos":5048,"%,":5049,"Ġeffect":5050,"REF":5051,"-}":5052,"åĽ":5053,"FT":5054,"mid":5055,"Ġfill":5056,"ARG":5057,"Ġapply":5058,"=%":5059,"Pack":5060,"orizontal":5061,"gx":5062,"Ġsim":5063,"Ġuseful":5064,"Section":5065,"EA":5066,"some":5067,"hidden":5068,"Ġ'<":5069,"Ġip":5070,"ĠHe":5071,"eek":5072,":[":5073,"123":5074,"small":5075,"ev":5076,"bp":5077,"ĠCOMM":5078,"Protocol":5079,"anguage":5080,"Ġscale":5081,"Ġremov":5082,"ĠFlag":5083,"Non":5084,"Notify":5085,"ley":5086,"Ġ-.":5087,"Ġseq":5088,"exe":5089,"Ġ27":5090,"Ġfailed":5091,"ĠREF":5092,"ĠRETURN":5093,"Ġrest":5094,"Ste":5095,"ĠId":5096,"Effect":5097,"latency":5098,"Red":5099,"ignore":5100,"erc":5101,"ython":5102,",---":5103,"Ġtool":5104,"ĠUSE":5105,"Template":5106,"Folder":5107,"setf":5108,"Ġtake":5109,"Ġrunning":5110,")&":5111,"Ġmatrix":5112,"custom":5113,"ĠVM":5114,"ĠUI":5115,"Json":5116,"Ġgrid":5117,"rel":5118,"crement":5119,"Declaration":5120,"264":5121,"************":5122,"ĠVPOS":5123,"ĠHPOS":5124,"Callback":5125,"iod":5126,"Ġshape":5127,"ĠTODO":5128,"BA":5129,"quiv":5130,"Ġappend":5131,"rees":5132,"jo":5133,"ĠStart":5134,"ritical":5135,"/^":5136,"ators":5137,"Ġown":5138,"LAB":5139,"Îµ":5140,"219":5141,"stand":5142,"rec":5143,"203":5144,"Ġenvironment":5145,"ĠImp":5146,"INST":5147,"ons":5148,"ips":5149,"theme":5150,"004":5151,"ĠMake":5152,"MAP":5153,"INK":5154,"Ġclean":5155,"Ġfeature":5156,"render":5157,"platform":5158,"constant":5159,"Ġreport":5160,"greg":5161,"Ġoriginal":5162,"rot":5163,"uff":5164,"II":5165,"UUID":5166,"à¥":5167,"Ġocc":5168,"lookup":5169,"ront":5170,"zone":5171,"Override":5172,"CLASS":5173,"MODE":5174,"hex":5175,"othing":5176,"cn":5177,"Cy":5178,"AAAAAAAAAAAAAAAA":5179,"206":5180,"Ġtemplate":5181,"Ġ\"}":5182,"Ġmacro":5183,"Ġgu":5184,"Ġsupported":5185,"'],":5186,"Ġ#{":5187,"667":5188,"ĠĠĠĠĠĠĠĠĠĠĠĠĠĠĠĠĠĠĠĠĠĠĠĠĠĠĠĠĠĠĠĠĠĠĠĠĠ":5189,"Ġregion":5190,"Ġpl":5191,"actory":5192,"Sound":5193,"zy":5194,"alle":5195,"RES":5196,"exception":5197,"ism":5198,"ĠAnd":5199,"profile":5200,"167":5201,"ĠSPACE":5202,"Found":5203,"ination":5204,"come":5205,"seconds":5206,"children":5207,"StickerSet":5208,"CUR":5209,"Gui":5210,"Ġappro":5211,"æķ°":5212,"ĠInst":5213,"Ġrole":5214,"ĉĉĠ":5215,"uck":5216,"114":5217,"ĠOUT":5218,",[":5219,"Ġrem":5220,"ĠWITHOUT":5221,"ĉĠĠ":5222,"1024":5223,"Ñĭ":5224,"tric":5225,"ĠPath":5226,"Close":5227,"NG":5228,"Ġcast":5229,"DIS":5230,"]).":5231,"tle":5232,"Ġundefined":5233,"wind":5234,"ired":5235,"uk":5236,"Ġdel":5237,"Any":5238,"indent":5239,"Simple":5240,"OW":5241,"Î¿":5242,"mpt":5243,"SR":5244,"ĠJSON":5245,"tech":5246,"PY":5247,"UND":5248,"Ġrep":5249,"uest":5250,"*,":5251,"Ġavoid":5252,"Ġencode":5253,"Encrypted":5254,"Ġcorrect":5255,"MBOL":5256,")?":5257,"185":5258,"TIES":5259,"æĺ¯":5260,"Ġimplied":5261,"Ġ`(":5262,"Ġpassed":5263,"=$":5264,"metadata":5265,"119":5266,"sa":5267,"Properties":5268,"nx":5269,"dy":5270,"Ġenable":5271,"WAR":5272,"Ġpair":5273,"rain":5274,"Ġsizeof":5275,"Ġder":5276,"sic":5277,"inv":5278,"161":5279,"ĠPer":5280,"205":5281,"regi":5282,"avig":5283,"Tri":5284,"_;":5285,"Ġgen":5286,"Ġgenerate":5287,"Ġdraw":5288,".(":5289,"á¼":5290,"lasses":5291,"Attributes":5292,"period":5293,"Writ":5294,"ever":5295,"Ġattribute":5296,"radius":5297,"208":5298,"CREATE":5299,"Scope":5300,"ĠAuth":5301,"ny":5302,"RECORD":5303,"225":5304,"hu":5305,"});":5306,"Ġlt":5307,"ves":5308,"Ġcontaining":5309,"140":5310,"Ġxml":5311,"Storage":5312,"kit":5313,"CU":5314,"Lat":5315,"namespace":5316,"VALID":5317,"arnings":5318,"145":5319,"share":5320,"Equal":5321,"ied":5322,"Ġdependencies":5323,"KBUILD":5324,"Ġfre":5325,"Ġuses":5326,"ORE":5327,"ĠTest":5328,"ĠĠĠĊ":5329,"atomic":5330,"Ġcore":5331,"UTE":5332,"$.":5333,"wik":5334,"Ġ'%":5335,"]:":5336,"since":5337,"ĠFloat":5338,"Ġ[:":5339,"Term":5340,"ni":5341,"lim":5342,"License":5343,"ICT":5344,"Ġexception":5345,"Collection":5346,"istry":5347,"invalid":5348,"fre":5349,"\";\"":5350,"Video":5351,"LT":5352,"Store":5353,"Ġapplic":5354,"Windows":5355,"166":5356,"cluding":5357,"fra":5358,"235":5359,"sel":5360,"duction":5361,">)":5362,"ILE":5363,"Ġ'\\":5364,"RGB":5365,"ressed":5366,"ĠColor":5367,"Ïĥ":5368,"GEN":5369,"Ġ75":5370,"INS":5371,"007":5372,"Ġtab":5373,"175":5374,"ring":5375,"integr":5376,"Ġnodes":5377,"Ġdoc":5378,"irq":5379,"ĠĠĠĠĠĠĠĠĠĠĠĠĠĠĠĠĠĠĠĠĠĠĠĠĠĠĠĠĠĠĠĠĠĠĠĠĠĠ":5380,"aws":5381,"rowser":5382,"ctl":5383,"::::::::":5384,"210":5385,"Ġelsif":5386,"ĠGNAT":5387,"ATTR":5388,"174":5389,"Ġcompile":5390,"Boolean":5391,"Ġpts":5392,"141":5393,"Find":5394,"calar":5395,">/":5396,")%":5397,"tn":5398,"family":5399,"ĠFILE":5400,"Ġsetting":5401,"distr":5402,"Ġbits":5403,"big":5404,"196":5405,"Reference":5406,"LD":5407,"Ġhold":5408,"ARGET":5409,"ĠAlso":5410,"EP":5411,"UInt":5412,"exists":5413,"lyph":5414,"VALUE":5415,"lished":5416,"cnt":5417,"flat":5418,"wq":5419,"ulation":5420,"likely":5421,"wer":5422,"Ġmost":5423,"single":5424,"VEL":5425,"115":5426,"122":5427,"Ø§":5428,"Ġobtain":5429,"apple":5430,"Ġmight":5431,"Ġpattern":5432,"Radius":5433,"Replace":5434,"Ġselected":5435,"158":5436,"IFT":5437,"party":5438,"Ġjava":5439,"169":5440,"Ġ65":5441,"ĠTRUE":5442,"BC":5443,"ĠTable":5444,"SYMBOL":5445,"WH":5446,"uby":5447,"170":5448,"hal":5449,"Ġ\"[\"":5450,"setup":5451,"Ġsession":5452,"ĠChannel":5453,"La":5454,"dw":5455,"ĠINTE":5456,"ron":5457,"ross":5458,"Ġrelative":5459,"ĠEl":5460,"amage":5461,"callback":5462,"Ġpages":5463,"fold":5464,"ARK":5465,"typ":5466,"154":5467,"SRC":5468,"Ġcharacters":5469,"?\\":5470,"fail":5471,"Container":5472,"convert":5473,"Screen":5474,"Ġ``":5475,"straints":5476,"ordinates":5477,"ĠRemove":5478,"Phone":5479,"aste":5480,"Ġatom":5481,"Clo":5482,"Ġ\"\";":5483,"Ã¤":5484,"bor":5485,"codec":5486,"dst":5487,"directory":5488,"åĮº":5489,"tags":5490,"Ġkernel":5491,"ertific":5492,"gba":5493,"Ġfe":5494,"________________":5495,"ĠPAGE":5496,"anced":5497,"[^\\":5498,"partial":5499,"mc":5500,"FX":5501,"contrib":5502,"Ġ\"]\"":5503,"MAC":5504,"Ġproduct":5505,"Ġ[`":5506,"ĠTrans":5507,"ases":5508,"obs":5509,"Ġdocumentation":5510,"arrow":5511,"002":5512,"Has":5513,"roll":5514,"375":5515,"Ġsym":5516,"Ġ*,":5517,"180":5518,"distrib":5519,"Send":5520,"bad":5521,"clus":5522,"tp":5523,"ÏĦ":5524,"ORY":5525,"land":5526,"Ġgame":5527,"interval":5528,"STRING":5529,"Private":5530,"Ġvirtual":5531,"Free":5532,"660":5533,"Ġnothing":5534,"tegr":5535,"esp":5536,"Ġparam":5537,"Ġicon":5538,"Ġtransform":5539,"kotlin":5540,"\"\"\"\"":5541,"pat":5542,"final":5543,"ĠNothing":5544,"TX":5545,"{\",":5546,"IE":5547,"ĠOutput":5548,"Face":5549,"Ġsimple":5550,"Ġtoo":5551,"email":5552,"ĠMax":5553,"Profile":5554,"Feature":5555,"xb":5556,"achine":5557,"Ġterm":5558,"010000":5559,"Ġcontainer":5560,"Ġeval":5561,"139":5562,"javascript":5563,"ading":5564,"sha":5565,"Program":5566,"headers":5567,"COMM":5568,"SM":5569,"player":5570,"ĠĠĠĠĠĠĠĠĠĠĠĠĠĠĠĠĠĠĠĠĠĠĠĠĠĠĠĠĠĠĠĠĠĠĠĠĠĠĠĠĠĠĠĠĠĠĠĠĠĠĠ":5571,"ACHE":5572,"cname":5573,"ĉĠĠĠĠ":5574,"chron":5575,"æī":5576,"=\\":5577,"116":5578,"COUNT":5579,"Ġfs":5580,"NR":5581,"ĠWHERE":5582,"Ġanother":5583,"QUAL":5584,"times":5585,"measured":5586,"Invalid":5587,"olver":5588,"1111110000":5589,"Ġwere":5590,"}{\\":5591,"Ġconnect":5592,"Import":5593,"phone":5594,"events":5595,"Ġcalcul":5596,"ERS":5597,"override":5598,"iet":5599,"master":5600,"Ġreceived":5601,"Ġmapping":5602,"pret":5603,"REE":5604,"çľ":5605,"Ġassociated":5606,"language":5607,"ooooo":5608,"orization":5609,"Ġstill":5610,"Ġsem":5611,"focus":5612,"words":5613,"ĠCall":5614,"Ġchanges":5615,"ifo":5616,"FileName":5617,"SW":5618,"ĠAp":5619,"Switch":5620,"URCE":5621,"Pattern":5622,"ENO":5623,"Ġho":5624,"148":5625,"NC":5626,"153":5627,"ji":5628,"vision":5629,"VV":5630,"Ġpipe":5631,"å¹":5632,"ĠDIS":5633,"aut":5634,"DEV":5635,"ggle":5636,"JS":5637,"á½":5638,"gnu":5639,"Ġimplementation":5640,"ĠPAR":5641,"miss":5642,"YY":5643,"ĠRed":5644,"execute":5645,"EGIN":5646,"Utils":5647,"aper":5648,"ĠNext":5649,"[{\"{\",":5650,"site":5651,"iltin":5652,"Ġvia":5653,"çĽ":5654,"/\\":5655,"Literal":5656,"Ã¶":5657,"Ġ1999":5658,"Ġws":5659,"Ġsocket":5660,"Ġduring":5661,"ĠFALSE":5662,"HHI":5663,"macrocode":5664,"extern":5665,"155":5666,"ifiers":5667,">&":5668,"Ġpe":5669,"Ġ#:":5670,"Prefix":5671,"selection":5672,"wb":5673,"Ġrout":5674,"example":5675,"âķ":5676,"Ġscreen":5677,"?.":5678,"clock":5679,"ti":5680,"cut":5681,"qq":5682,"semb":5683,"×Ļ×":5684,"GG":5685,"ĠSTR":5686,"AIL":5687,"Ġcomment":5688,"126":5689,"simple":5690,"ĠSpark":5691,"233":5692,"129":5693,"points":5694,"HTML":5695,"ĠPre":5696,"fil":5697,"sequence":5698,"typedef":5699,"RET":5700,"åľ¨":5701,"Ġcpu":5702,"ĠEvent":5703,"rea":5704,"Ġevalu":5705,"Ġresolution":5706,"ĠItem":5707,"Ġ.=":5708,"Ġneg":5709,"Ġcontents":5710,"ĠMet":5711,"ebp":5712,"ĠINTEGER":5713,"146":5714,"Ġ|=":5715,"Br":5716,"_]":5717,"rupt":5718,"$,":5719,"ĠRec":5720,"399":5721,"Native":5722,"Ġweb":5723,"eh":5724,"Jv":5725,"My":5726,"Ġcp":5727,"contains":5728,"#\\":5729,"ĠOff":5730,"Ġgeneric":5731,"[:":5732,"undle":5733,"cing":5734,"Ġest":5735,"ĠTEST":5736,"186":5737,"conn":5738,"OPEN":5739,"fficient":5740,"Cond":5741,"Failed":5742,"izes":5743,"à´¨":5744,"EXPORT":5745,"Socket":5746,"ĠRight":5747,"]\"":5748,"Di":5749,"å±":5750,"Ġrights":5751,"æĿ":5752,"apiArg":5753,"Ïģ":5754,"usage":5755,"Ġ[{":5756,"Ġ34":5757,"%%%%%%%%%%%%%%%%%%%%%%%%%%%%%%%%":5758,"It":5759,"006":5760,"228":5761,"Ġkind":5762,"Ġattr":5763,"Ġneeds":5764,"ĠChar":5765,"hide":5766,"CLU":5767,")\",":5768,"Privacy":5769,"Ġcy":5770,"Ġpoints":5771,"alone":5772,"ters":5773,"urrency":5774,"periment":5775,"ĠOther":5776,"Ġmany":5777,"Rep":5778,"adient":5779,"Ġdecode":5780,"shared":5781,"coreId":5782,"\\>":5783,"trics":5784,"×ķ×":5785,"Identifier":5786,"ĠAny":5787,"hook":5788,"Items":5789,"Vert":5790,"ression":5791,"Ġ\"@":5792,"Ġmissing":5793,"ĠPART":5794,"Ġedit":5795,"Ġexpected":5796,"editor":5797,"ĠSty":5798,"266":5799,"pin":5800,"protocol":5801,"schema":5802,"Ġ35":5803,"ĠGo":5804,"POSE":5805,"156":5806,"cessary":5807,"456":5808,"disabled":5809,"illi":5810,"147":5811,"229":5812,"250":5813,"always":5814,"á»":5815,"209":5816,"raft":5817,"ĠERROR":5818,"blocks":5819,"ĠWARRANTIES":5820,"207":5821,"COM":5822,")</":5823,"DEX":5824,"BE":5825,"blink":5826,"Mask":5827,"licenses":5828,"dark":5829,"Ġlower":5830,"ĠModule":5831,"pose":5832,"008":5833,"Ġsha":5834,"Ġreply":5835,"Ġtimeout":5836,"continue":5837,"Cmd":5838,"subscript":5839,"138":5840,"Ali":5841,"BF":5842,"runtime":5843,"198":5844,"ä¸Ń":5845,"ANDARD":5846,"Ġchildren":5847,"aml":5848,"136":5849,"ĉĉĉĠĠĠ":5850,"Times":5851,"Ġconditions":5852,"Ġdentry":5853,"TERN":5854,"Ġstat":5855,"|ðŁ":5856,"WARN":5857,"ĠAD":5858,"Proc":5859,"month":5860,"bi":5861,"Ġ(_":5862,"Ġ''),":5863,"032":5864,"PACK":5865,"SCR":5866,"010":5867,"Post":5868,"ko":5869,"Ġ\"_":5870,"ĠSpec":5871,"PK":5872,"totype":5873,"BD":5874,"fact":5875,"lane":5876,"137":5877,"Ġexecute":5878,"entic":5879,"<>":5880,"Parameters":5881,"]},":5882,"Help":5883,"reno":5884,"Ġdatabase":5885,"ĠMAX":5886,"cir":5887,"inux":5888,"Ġmenu":5889,"Ġps":5890,"Changed":5891,"Core":5892,"chan":5893,"CY":5894,"ana":5895,"1666666666":5896,"Connect":5897,"ä¸ª":5898,"pd":5899,"Ġexternal":5900,"Ġknow":5901,"gov":5902,"ĠNum":5903,"Ġtyp":5904,"urity":5905,"pear":5906,"192":5907,"Ġaccept":5908,"ĠUS":5909,"éĺ":5910,"Ġlow":5911,"ummy":5912,"Ġtermin":5913,"ĠFirst":5914,"Abstract":5915,"])(.":5916,"ĠCan":5917,"æ³":5918,"Ġconstructor":5919,"Ġ'(":5920,"unity":5921,"Ġ'('":5922,"redential":5923,"arp":5924,"Ð´":5925,"Ġ26":5926,"foot":5927,"ULAR":5928,"Participant":5929,",--,--,--,--,,":5930,"ĠBe":5931,"àµģ":5932,"Ġchanged":5933,"Av":5934,"tv":5935,"DEFAULT":5936,"Ġer":5937,"Ġreserved":5938,"linear":5939,"Enabled":5940,"ĠBuild":5941,"NESS":5942,"Ġprotected":5943,"shadow":5944,"Double":5945,"Ġwr":5946,"Ġlookup":5947,"KERN":5948,"yout":5949,"201":5950,"ROOT":5951,"lide":5952,"important":5953,"Ap":5954,"ured":5955,"Sche":5956,"lb":5957,"PAGE":5958,"/(":5959,"STATUS":5960,"ffers":5961,"Gr":5962,"attributes":5963,"âĶ":5964,"ĠMsg":5965,"Ġ/^":5966,"Ġnqp":5967,"ĠHEIGHT":5968,"Ġprotocol":5969,"lies":5970,"Editor":5971,"OFTW":5972,"Summary":5973,"DL":5974,"xa":5975,"lev":5976,"ĠSec":5977,"Ġjoin":5978,"OFTWARE":5979,"Light":5980,"Ġplugin":5981,"ĠAb":5982,"579":5983,"åİ¿":5984,"iation":5985,"contextNorm":5986,"contextNormFuncName":5987,"Ġside":5988,"Ġ#(":5989,"Ġ31":5990,"ENCE":5991,"å¾":5992,"edx":5993,"Ġunique":5994,"capt":5995,"Ġds":5996,"#{":5997,"cret":5998,"expected":5999,"149":6000,"tip":6001,"Hot":6002,"Ġentries":6003,"Ġshe":6004,"HEAD":6005,"232":6006,"login":6007,"pand":6008,"113":6009,"Ġlists":6010,"Ġ_)":6011,"ĠHTT":6012,"Ġcompiler":6013,"Ob":6014,"mult":6015,"Ġ29696":6016,"Ġadmin":6017,"oy":6018,"157":6019,"ilation":6020,"HQ":6021,"Rout":6022,"ebook":6023,"AE":6024,"ĠOB":6025,"Anim":6026,"flush":6027,"cref":6028,"Ġadditional":6029,"TC":6030,"||":6031,"react":6032,"Ġsk":6033,"olved":6034,"ĠAL":6035,"hand":6036,"sf":6037,"Ġsets":6038,"mg":6039,"Ġthose":6040,"Statement":6041,"Lim":6042,"}\")":6043,"kg":6044,"boolean":6045,"ÑĮ":6046,"Ġapi":6047,"Account":6048,"ively":6049,"Move":6050,"opType":6051,"NewLine":6052,"Ġcorresponding":6053,"ĠModel":6054,"Ġsmall":6055,"Ġdesc":6056,"URPOSE":6057,"UX":6058,"destroy":6059,"Ġattributes":6060,"ĠENDMETHOD":6061,"'))":6062,"Ġ****************************************************************":6063,"134":6064,"undefined":6065,"345":6066,"Theme":6067,"2074":6068,"SHIFT":6069,"Remove":6070,"uapi":6071,"loaded":6072,"async":6073,"Real":6074,"havior":6075,"Pipe":6076,"GC":6077,"éĻ":6078,"depth":6079,"240":6080,"Ġactual":6081,"ĠADD":6082,"Stop":6083,"WIN":6084,"region":6085,"%\\":6086,"ĠCOR":6087,"cloud":6088,"MIT":6089,"íķ":6090,"Ġ'',":6091,"Ġwrap":6092,"proxy":6093,"ned":6094,"ount":6095,"Ġhandler":6096,"owned":6097,"(__":6098,"gg":6099,"æł":6100,"ĠRun":6101,"Ġelseif":6102,"game":6103,"checked":6104,"plot":6105,"Ġ55":6106,"posed":6107,"ĠPURPOSE":6108,"igit":6109,"Ġasync":6110,"setq":6111,"Ġcalls":6112,"CLUDE":6113,"GRO":6114,"Texture":6115,"cross":6116,"ISION":6117,"/.":6118,"202":6119,"LEVEL":6120,"179":6121,"transform":6122,"OTO":6123,"Short":6124,"toString":6125,"Contact":6126,"llCall":6127,"Ġrec":6128,"implIndex":6129,"Stats":6130,"ĠREAD":6131,"gsl":6132,"Struct":6133,"pkg":6134,"ogc":6135,"DU":6136,"ails":6137,"roadcast":6138,";}":6139,"Addr":6140,"visible":6141,".)":6142,"112":6143,"åĨ":6144,"ĠRound":6145,"152":6146,"hw":6147,"ately":6148,"media":6149,"ceed":6150,"START":6151,"ĠJust":6152,"Ġrot":6153,"033":6154,"ha":6155,"Compile":6156,"nl":6157,"ĠDEF":6158,"Ġxmm":6159,"axis":6160,"à´¤":6161,"character":6162,"Java":6163,"marks":6164,"Ġdomain":6165,"Definition":6166,"ifies":6167,"smmu":6168,"Ġfmt":6169,"uses":6170,"Mouse":6171,"184":6172,"Center":6173,"Ġ128":6174,"Listener":6175,"ragment":6176,"------------------------------------":6177,"ERCH":6178,"abapgit":6179,"Ġreq":6180,"365":6181,"----------------------------------------------------------------------":6182,"loor":6183,"ĠUnit":6184,"Ġmeta":6185,"Ġwho":6186,"ĠHash":6187,"ADD":6188,"ĠPri":6189,"youtube":6190,"Ġallowed":6191,"Ġstatement":6192,"UTF":6193,"wt":6194,"RX":6195,"bench":6196,"ĠUN":6197,"reated":6198,"Ġ(`":6199,"Ġsent":6200,"Ġnetwork":6201,"'=>":6202,"ueue":6203,"Ġarr":6204,"Ġfolder":6205,"using":6206,"333333333333":6207,"ĠStyle":6208,"Ġunits":6209,"ĠLong":6210,"ExpressionUUID":6211,"Ġ'+":6212,"}(":6213,"Ġsn":6214,"Ġcollection":6215,"Pl":6216,"Thread":6217,"ĠZERO":6218,"Ġ(=":6219,"Ġmaximum":6220,"fit":6221,"Ġremoved":6222,"ios":6223,"amera":6224,"æĸ¹":6225,"PG":6226,"Ġcounter":6227,"}:":6228,"Ġcc":6229,"throw":6230,"'re":6231,"ITNESS":6232,"ĠĠĠĠĠĠĠĠĠĠĠĠĠĠĠĠĠĠĠĠĠĠĠĠĠĠĠĠĠĠĠĠĠĠĠĠĠĠĠĠ":6233,",---,---":6234,"Api":6235,"REQ":6236,"sicvar":6237,"disp":6238,"Cal":6239,"verage":6240,"Timeout":6241,"ĠQu":6242,"cape":6243,"PLAY":6244,"remote":6245,"ĠREM":6246,"*.":6247,"Ġyet":6248,"Ġstrings":6249,"Ġspecify":6250,"ĉĉĉĉĉĉĉĉĉĉĉĉĉĉĉĉ":6251,"AdminLog":6252,"untry":6253,"<?":6254,"ĠQt":6255,"regex":6256,"VENT":6257,"177":6258,"Ġnotice":6259,"adr":6260,"275":6261,"Scene":6262,"ĠProcess":6263,"ĠOk":6264,"Ġdirectly":6265,"PA":6266,"exclude":6267,"ĉčĊ":6268,"blue":6269,"svg":6270,"declare":6271,"ĠSize":6272,"ĠTag":6273,"mbers":6274,"Axis":6275,"Ġcursor":6276,"bh":6277,"ENABLE":6278,"ometry":6279,"ãĤĴ":6280,"Ġcost":6281,"Ġngx":6282,"feed":6283,"384":6284,"grade":6285,"History":6286,"Ġmedi":6287,"dm":6288,"Ġcop":6289,"Ġsched":6290,"ĠRDD":6291,"Ġpermissions":6292,"dle":6293,"âĢĿ</":6294,"Ã£":6295,"fully":6296,"alys":6297,"ĠNE":6298,"signature":6299,"2020202020202020":6300,"ERCHANT":6301,"Transport":6302,"curs":6303,"<%":6304,"Ġtrace":6305,"Ġcommon":6306,"Ġsqrt":6307,"707":6308,"ĠBlock":6309,"summary":6310,"ĠSelect":6311,"ĠPARTIC":6312,"Ġhtml":6313,"ERCHANTABILITY":6314,"XXXXXXXXXXXXXXXX":6315,"BR":6316,"Ġdst":6317,"random":6318,"ĠPh":6319,"Seq":6320,"scripts":6321,"cursor":6322,"ĠâĨ":6323,"ably":6324,"ï¼ļ":6325,"FFFFFF":6326,"ĠTra":6327,"concat":6328,"ij":6329,"TS":6330,"Ġ90":6331,"lg":6332,"Ġden":6333,"ĠImage":6334,"Self":6335,"ctree":6336,"ested":6337,"Ġ')'":6338,"ĠOr":6339,"disable":6340,"fh":6341,"ĠSend":6342,"ours":6343,"178":6344,"Reason":6345,"ĠRect":6346,"fixed":6347,"ĠPARTICULAR":6348,"oice":6349,"extra":6350,")));":6351,"ĠMem":6352,"ĠIndex":6353,"Ww":6354,"ureValue":6355,"Alpha":6356,"illa":6357,"vers":6358,"ĠĠĠĠĠĠĠĠĠĠĠĠĠĠĠĠĠĠĠĠĠĠĠĠĠĠĠĠĠĠĠĠĠĠĠĠĠĠĠĠĠ":6359,"SG":6360,"CORR":6361,"energy":6362,"Ġbig":6363,"atible":6364,"Ġpg":6365,"exist":6366,"ROUT":6367,"TARGET":6368,"Ġà¤":6369,"watch":6370,"Application":6371,"ational":6372,"Normal":6373,"Ġinher":6374,"132":6375,">âĢľ":6376,"Ġevents":6377,"305":6378,"LONG":6379,"Ġtests":6380,"matrix":6381,"176":6382,"price":6383,"Ġos":6384,"*&":6385,"itude":6386,"Ġgit":6387,"Ġ99":6388,"CHE":6389,"Ter":6390,"izing":6391,"ĠDescription":6392,"trl":6393,"utions":6394,">\"]":6395,"direction":6396,"HP":6397,"topo":6398,"Invite":6399,"ĠTemp":6400,"Users":6401,"Ġawait":6402,"ulate":6403,"Ġsummary":6404,".'":6405,"VID":6406,"Alignment":6407,"à¶":6408,"apshot":6409,"Provider":6410,"pn":6411,"|\\.":6412,"ĠCurrent":6413,"ĠFITNESS":6414,"ĠHas":6415,"fetch":6416,"Ġetc":6417,"ĠDebug":6418,"alysis":6419,"Critical":6420,"mmap":6421,"Ġdes":6422,"ëĭ":6423,"syntax":6424,"Ġqual":6425,"uce":6426,"Ġalpha":6427,"Ġsignal":6428,"racket":6429,"Chars":6430,"invoke":6431,"Delay":6432,"308":6433,"ĠRL":6434,"Ġgl":6435,"Doc":6436,"Ġwell":6437,"0001":6438,"nv":6439,"errors":6440,":/":6441,"xs":6442,"å½":6443,"LC":6444,"ĉĉĉĉĉĉĉĉĉĉ":6445,"474":6446,"{'":6447,"ĠLeft":6448,"ĠOTH":6449,"CVS":6450,"Declare":6451,"&&":6452,"Ġlayout":6453,"Ġpc":6454,"white":6455,"303":6456,"Geo":6457,"alth":6458,"Ġwriting":6459,"Ġupdated":6460,"widget":6461,"æľī":6462,"aux":6463,"upload":6464,"OFF":6465,"ĠToken":6466,"{{":6467,"deprecated":6468,"Argument":6469,"AdminLogEvent":6470,"pte":6471,"TRUE":6472,"raction":6473,"INPUT":6474,"ifference":6475,"195":6476,"ĠParameter":6477,"Character":6478,"velop":6479,"Ġanch":6480,"ĠHtml":6481,"contacts":6482,"Ġ$_":6483,",,,,,,,":6484,"ĉĠĠĠĠĠĠ":6485,"Ġ','":6486,"Ġedx":6487,"Ġdefinition":6488,"Ġcases":6489,"gramm":6490,"ĠHTTP":6491,"(?":6492,"Play":6493,"Ġdynamic":6494,"oprand":6495,"'=>'":6496,"Direction":6497,"Ġmean":6498,"Ġupper":6499,"network":6500,"perimental":6501,"Desc":6502,"Ġemail":6503,"ercise":6504,"___":6505,"ĠFUNCTION":6506,"Ġcondition":6507,"Ġonce":6508,"job":6509,"Ġpid":6510,"Ġusage":6511,"Ġexisting":6512,"into":6513,"Ġissue":6514,"external":6515,"itter":6516,"----------":6517,"Ġrgba":6518,"0003":6519,"collection":6520,"%\"":6521,"ivc":6522,"234":6523,"Ġmember":6524,"tfc":6525,"vc":6526,"Ġextra":6527,"ginx":6528,"sses":6529,"Ġind":6530,"ically":6531,"Parser":6532,"à´¾":6533,"âķĲ":6534,"èĩ":6535,"dicate":6536,"AK":6537,"ets":6538,"\\\"]":6539,"Shape":6540,"Err":6541,"gap":6542,"quival":6543,"ĠMERCHANTABILITY":6544,"dirs":6545,"ertificate":6546,"Second":6547,"\\\"\\<":6548,"reshold":6549,"extension":6550,"Stmt":6551,"Step":6552,"Ġleast":6553,"mitive":6554,"csv":6555,"Ġwidget":6556,"xe":6557,"Ident":6558,"ç½":6559,"Ġencoding":6560,"703":6561,"Ġturn":6562,"2005":6563,"ĠShow":6564,"uggest":6565,"CHAR":6566,"Ġcopyright":6567,"Ġcenter":6568,"ĠâĨĴ":6569,"Report":6570,"ãĤĭ":6571,"ĠSY":6572,"Ġnv":6573,"=\",":6574,"ä¸į":6575,"FIELD":6576,"ĠInclude":6577,"Sched":6578,"holder":6579,"Ġalong":6580,"Region":6581,"DIT":6582,"chapter":6583,">\"]::":6584,"Ġvec":6585,"alyt":6586,"ĠFind":6587,"Ġxs":6588,"operations":6589,"ially":6590,"panelName":6591,"gz":6592,"Keys":6593,"CLK":6594,"ĠIssue":6595,"à´ķ":6596,"MainMenu":6597,"agnost":6598,"Ġ70":6599,"erature":6600,"2012":6601,"ĠRequest":6602,"FOR":6603,"mpeg":6604,"Results":6605,"ple":6606,"194":6607,"ENDIF":6608,"aking":6609,"arguments":6610,"assoc":6611,"va":6612,"vue":6613,"259":6614,"rece":6615,"Ġ/><":6616,"Ġabsolute":6617,"Ġmetadata":6618,"cel":6619,"ĠSOFTWARE":6620,"like":6621,"ãģĻ":6622,"Ġinside":6623,"BoxData":6624,"æ²":6625,"Ġ45":6626,"iving":6627,"@@_":6628,"RIGHT":6629,"xc":6630,"*'":6631,"Ġhapp":6632,"ĠPO":6633,"024":6634,"å¯":6635,"Ġvalidate":6636,"say":6637,"sock":6638,"Mesh":6639,"zen":6640,"Ġdiff":6641,"NV":6642,"isL":6643,"ĠCCVS":6644,"ĠPart":6645,"PCI":6646,"Factory":6647,"294":6648,"ilities":6649,"Ġforce":6650,"Gdip":6651,"lots":6652,"success":6653,"Ġ!==":6654,"ãĥ³":6655,"XML":6656,"Ġexport":6657,"uuid":6658,"att":6659,"Ġandroid":6660,"Acc":6661,"parameters":6662,"ENV":6663,"cessed":6664,"ric":6665,"Ġconstruct":6666,"IPT":6667,"Filters":6668,"FIL":6669,"Ġperson":6670,"ansparent":6671,"uit":6672,"warning":6673,"227":6674,"Ġyes":6675,"Memory":6676,"Å¿":6677,"accept":6678,"AIN":6679,"LP":6680,"slice":6681,"ja":6682,"strip":6683,"[\\\"":6684,"ulated":6685,"Ġautomatic":6686,"197":6687,"756":6688,"anner":6689,"%%%":6690,"Ġabstract":6691,"ãģ«":6692,"Ġ74":6693,"ĠSECTION":6694,"cachep":6695,"Ġthrows":6696,"ali":6697,"Configuration":6698,"SOURCE":6699,"Ġord":6700,"Ġstored":6701,"vt":6702,"unless":6703,"Require":6704,"Ġsetup":6705,"265":6706,"Duration":6707,"Rot":6708,"[],":6709,"Ġbar":6710,"1508":6711,"results":6712,"unlikely":6713,"ĠDis":6714,"subsection":6715,"=\"\"":6716,"ĠComm":6717,"framework":6718,"ĠJava":6719,"LOW":6720,"deps":6721,"ung":6722,"InputUser":6723,"reat":6724,"268":6725,"Ġrules":6726,"power":6727,"444":6728,"Ġsubject":6729,"Ġheaders":6730,"dispatch":6731,"STATE":6732,"\\\"\",":6733,"BIN":6734,"Ġpublished":6735,"CX":6736,"ĠClo":6737,"APP":6738,"329":6739,"Depend":6740,"Ġimplicit":6741,"ervices":6742,"definition":6743,"Pa":6744,"Ġ88":6745,"pdf":6746,"Ġsignature":6747,"amb":6748,"ĠHT":6749,"Ġvideo":6750,"Ġassume":6751,"Ã£o":6752,"Ã§":6753,"Ġarea":6754,"ISE":6755,"ichText":6756,"269":6757,"aving":6758,"complete":6759,"lists":6760,"compiler":6761,"Ġabap":6762,"CFLAGS":6763,"Ġcint":6764,"Ġplatform":6765,"2010":6766,"deep":6767,"ĠChat":6768,"GTH":6769,"syms":6770,"navbar":6771,"mx":6772,"Ġpur":6773,"texttt":6774,"mediate":6775,"UTED":6776,"ĠINT":6777,"éĹ":6778,"ĠMy":6779,"laced":6780,"Ġslice":6781,"syn":6782,"Ġcoll":6783,"CONT":6784,"çľģ":6785,"à·":6786,"ĠIMPORT":6787,"Ġdisable":6788,"323":6789,"ĠWR":6790,"Ġnamespace":6791,"PF":6792,"factor":6793,"generate":6794,"utorial":6795,"SELECT":6796,"GF":6797,"Ġdefp":6798,"Ġprec":6799,"entley":6800,"Ġsyn":6801,"Depth":6802,"Ġtell":6803,"ocr":6804,"XY":6805,"licate":6806,"Ġoperations":6807,"Area":6808,"pell":6809,"ĠMod":6810,"LOAD":6811,"Member":6812,"ĠWork":6813,"WA":6814,"Ġqueue":6815,"ilar":6816,"529":6817,"Ġplay":6818,"may":6819,"ĠCHAR":6820,"KERNEL":6821,"ĠDB":6822,"Ġ/=":6823,"lying":6824,"\\_":6825,"Ġoptim":6826,"RENT":6827,"mal":6828,"238":6829,"ools":6830,"repo":6831,"Ġ48":6832,"Indenting":6833,"tries":6834,"997":6835,"Ġdimension":6836,"NONE":6837,"ĠTHIS":6838,"Ġda":6839,"Ġ\"]\"}]}],":6840,"åı¯":6841,"Ġaround":6842,"Edge":6843,"AUT":6844,"121":6845,"ĠException":6846,"IZ":6847,"))]":6848,"Ġcomplex":6849,"Begin":6850,"ç®":6851,"028":6852,"IndentingNewLine":6853,"009":6854,"Ġmixed":6855,"Ġshared":6856,"ĠProject":6857,"oooooooo":6858,"Note":6859,"?(":6860,"agement":6861,"oose":6862,"/\"":6863,"ration":6864,"Exit":6865,"ĠREC":6866,"Ġcurrently":6867,"Ġ';":6868,"Prop":6869,"ĥ½":6870,"rename":6871,"ĠCur":6872,"Ġblocks":6873,"237":6874,"Ġincluding":6875,"Ġ68":6876,"Ġduration":6877,"ĠApache":6878,"Raw":6879,"CTRL":6880,"walk":6881,"Ġday":6882,"ĠEntity":6883,"download":6884,"quare":6885,"Stickers":6886,"Ġexpos":6887,"Rest":6888,"013":6889,"Ġ94":6890,"Queue":6891,"maz":6892,"\"`":6893,"646":6894,"Objects":6895,"Ġreferences":6896,"Letter":6897,"BER":6898,"Ġdie":6899,"Ġwritten":6900,"Setup":6901,"Card":6902,"RED":6903,"jj":6904,"isOn":6905,"ĠCom":6906,"ement":6907,"173":6908,"hd":6909,"INSTALL":6910,"258":6911,"ATED":6912,"PROC":6913,"worker":6914,"Internal":6915,"Ġincluded":6916,"AGES":6917,"ChangeTimes":6918,"Ġagainst":6919,"flutter":6920,"Dec":6921,"ĠCellChangeTimes":6922,"apon":6923,"111000":6924,"\"));":6925,"Ġconsider":6926,"hub":6927,"reason":6928,"Ġmk":6929,"ilent":6930,"Ġ\"&":6931,"PTR":6932,"available":6933,"×Ķ":6934,"ĠInline":6935,"toggle":6936,"ATOR":6937,"phi":6938,"awk":6939,"Ġcdecl":6940,"CDNode":6941,"CriticalPath":6942,"isLCDNode":6943,"isOnCriticalPath":6944,"MASK":6945,"Ġ\\@":6946,"lx":6947,"integrity":6948,"raries":6949,"Ġtail":6950,"1174":6951,"AdminLogEventAction":6952,"ĠAST":6953,"INTER":6954,"Sync":6955,"]}]":6956,"One":6957,"ullable":6958,"ĠINIT":6959,"ium":6960,"ä¿":6961,"Unknown":6962,"Ã½":6963,"1100":6964,"ffe":6965,"imate":6966,"Language":6967,"amma":6968,"ARR":6969,"tests":6970,"Put":6971,"Ġchats":6972,"nk":6973,"Ġcolumns":6974,"################################################################":6975,"Ã¼":6976,"reverse":6977,"FUNCTION":6978,"MC":6979,"`)":6980,"995":6981,"LET":6982,"Allow":6983,"mar":6984,"Ġ98":6985,"958":6986,"0019":6987,"ĠMOD":6988,"027":6989,"\"];":6990,"redentials":6991,"ZX":6992,"à´¯":6993,"OPY":6994,"Wait":6995,"igits":6996,"ĠMon":6997,"ĠExpression":6998,"Bitmap":6999,"Ġ127":7000,"ĠThere":7001,"Dist":7002,"pet":7003,"Ġless":7004,"operation":7005,"Meta":7006,"Lines":7007,"Other":7008,"\\\\\\\"":7009,"Ġnumbers":7010,"Å¾":7011,"Ġentities":7012,"vd":7013,"Ġsite":7014,"peated":7015,"AAB":7016,"Clip":7017,"OUTPUT":7018,"allel":7019,"kl":7020,"Ġpp":7021,"ĠAB":7022,"ĠLV":7023,"nu":7024,"RESS":7025,"Ġshell":7026,"plus":7027,"Ġexpand":7028,"Src":7029,"Ġcaller":7030,"GP":7031,"unded":7032,"upper":7033,"UMMY":7034,"Initial":7035,"Ġcause":7036,"Ġ\");":7037,"TABLE":7038,"antity":7039,"ROUTINE":7040,"Warning":7041,"Ġjob":7042,"SB":7043,"vid":7044,"enar":7045,"erate":7046,"cos":7047,"Fs":7048,"133":7049,"Ġgoto":7050,"Http":7051,"248":7052,"Product":7053,"ĠWARRANTY":7054,"LICENSE":7055,"InputChannel":7056,"Fore":7057,"which":7058,"ku":7059,"Ġcar":7060,"Ġ3355":7061,"è¡Į":7062,"labor":7063,"Ñĩ":7064,"386":7065,"ĠCF":7066,"509":7067,"Ġ08":7068,"Static":7069,"...)":7070,"srctree":7071,"issues":7072,"identifier":7073,"ĠSw":7074,"ĉĉĠĠ":7075,"Ġfi":7076,"username":7077,"changed":7078,"andid":7079,"wiki":7080,"mas":7081,"254":7082,"/$":7083,"æŃ":7084,"lementation":7085,"Ġnecessary":7086,",%":7087,"ĠDef":7088,"æŀ":7089,"Gen":7090,"Ro":7091,"yes":7092,"eff":7093,"hr":7094,"Policy":7095,"*\"":7096,"mand":7097,"-%":7098,"ĠServer":7099,"^^":7100,"Ġliteral":7101,"(\",":7102,"ĠPointBox":7103,"Ä±":7104,"ĠMan":7105,"antic":7106,"TAG":7107,"Ġ($(":7108,"ĠTop":7109,"'d":7110,"Timer":7111,"ĠWHEN":7112,"OC":7113,"327":7114,"bentley":7115,"security":7116,"ĉĉĉĊ":7117,"Ġ85":7118,"ĠCOPY":7119,"tinu":7120,"OBJECT":7121,"Ġcompute":7122,"Ġeas":7123,"Ġexposing":7124,"Ð·":7125,"kmem":7126,"ĠĠĠĠĠĠĠĠĠĠĠĠĠĠĠĠĠĠĠĠĠĠĠĠĠĠĠĠĠĠĠĠĠĠĠĠĠĠĠĠĠĠ":7127,"Install":7128,"./":7129,"urs":7130,"ÐµÐ½":7131,"rypted":7132,"014":7133,"ÏĢ":7134,"otion":7135,"Eq":7136,"tick":7137,"jpg":7138,"ÙĦ":7139,"Release":7140,"pb":7141,"309":7142,"ros":7143,"isk":7144,"ĠTIME":7145,"iform":7146,"Shell":7147,"Ġimm":7148,"PW":7149,"istics":7150,"226":7151,"Ġplayer":7152,"Ġnr":7153,"Fail":7154,"Volume":7155,"Ġsolid":7156,"=-":7157,"ĠĠĠĠĠĠĊ":7158,"mitted":7159,"ĠField":7160,"244":7161,"Ġ!!":7162,"Points":7163,"Category":7164,"more":7165,"ĠExp":7166,"Ġfactor":7167,"398":7168,"dq":7169,"rsp":7170,"236":7171,"Trace":7172,"href":7173,"ĠNONE":7174,"TRY":7175,"LOB":7176,"ä¼ļ":7177,"274":7178,"]|\\":7179,"328":7180,"Ġradius":7181,"Ġ%}":7182,"Ġtags":7183,"special":7184,"647":7185,"015":7186,"Ġshall":7187,"296":7188,"Ġ---":7189,"))))))":7190,"legal":7191,"ä»¥":7192,"500000":7193,"Ġamount":7194,"Ġseconds":7195,"Lv":7196,"bal":7197,"SK":7198,"validate":7199,"+)":7200,",'[\\\"":7201,"\\\"]','":7202,"Ġ79":7203,"rect":7204,"oh":7205,"Ġphoto":7206,"jure":7207,"RUN":7208,"oll":7209,"INES":7210,"ASH":7211,"GroupData":7212,"ĠâĢ":7213,"orrect":7214,"368":7215,"Ġboot":7216,"Selection":7217,"Ġ../":7218,"Ġapplicable":7219,"rank":7220,"Ġcollect":7221,"Pixel":7222,"ĠUp":7223,"Ġyy":7224,"-$(":7225,"Scroll":7226,"_)":7227,"dump":7228,"routine":7229,"EXEC":7230,"Ġdelay":7231,"ĠMat":7232,"ĠĠĠĠĠĠĠĠĠĠĠĠĠĠĠĠĠĠĠĠĠĠĠĠĠĠĠĠĠĠĠĠĠĠĠĠĠĠĠĠĠĠĠĠĠ":7233,"vi":7234,"è¦":7235,"=\"../../":7236,"ĠFrom":7237,"Ġpure":7238,"usic":7239,"timer":7240,"catch":7241,"Ġreduce":7242,"257":7243,"![":7244,"Qt":7245,"zh":7246,"é»":7247,"sheet":7248,"otos":7249,"ĠDI":7250,"IZE":7251,"ĠCONTENT":7252,"!\"":7253,"NU":7254,"Ġexplicit":7255,"ç§":7256,"Ġĉĉĉĉĉĉ":7257,"orth":7258,"Ġcomput":7259,"Ġvisit":7260,"variant":7261,"218":7262,"gcc":7263,"Ġserial":7264,"ĠLast":7265,"mr":7266,"å§":7267,"ĠErr":7268,"Ġensure":7269,"ĠUInt":7270,"men":7271,"DECL":7272,"FALSE":7273,"wa":7274,"Ġagre":7275,"webkit":7276,"åĩº":7277,"Wrap":7278,"dll":7279,"mul":7280,"Ġnever":7281,"Clear":7282,"Ġdid":7283,"Ġrequires":7284,"users":7285,"ĠHttp":7286,"ĠCOMMENT":7287,"404":7288,"316":7289,"agent":7290,"Ġquot":7291,"locked":7292,"2104":7293,"Ġns":7294,"==}":7295,"DH":7296,"Ġgra":7297,"ĠĠĠĠĠĠĠĠĠĠĠĠĠĠĠĠĠĠĠĠĠĠĠĠĠĠĠĠĠĠĠĠĠĠĠĠĠĠĠĠĠĠĠĠ":7298,"argument":7299,"/;":7300,"htm":7301,"STANDARD":7302,"Ġbranch":7303,"Ġselection":7304,"ffc":7305,"ãģĹ":7306,"grc":7307,"hh":7308,"PRINT":7309,"repeat":7310,"ĠAUT":7311,"ĠNe":7312,"Ġdefaults":7313,"Ġtimes":7314,"Ġnative":7315,"Ġ42":7316,"statement":7317,"Sequence":7318,"strap":7319,"ĠWith":7320,"ords":7321,"Ġstarting":7322,"ĠControl":7323,"warn":7324,"ĠĠĠĠĠĠĠĠĠĠĠĠĠĠĠĠĠĠĠĠĠĠĠĠĠĠĠĠĠĠĠĠĠĠĠĠĠĠĠĠĠĠĠĠĠĠ":7325,"DEP":7326,"Ġvisible":7327,"CACHE":7328,"conv":7329,"windows":7330,"nel":7331,"ĠDet":7332,"Align":7333,"une":7334,"Ġrb":7335,"Owner":7336,"idual":7337,"Ġhome":7338,"ĠLay":7339,"ĠUt":7340,"fast":7341,"111000110000":7342,"BASE":7343,"Bin":7344,"Ġgover":7345,"è§":7346,"support":7347,"'\"":7348,"017":7349,"LB":7350,"Std":7351,"954":7352,"CN":7353,"wood":7354,"tor":7355,"Ġ'';":7356,"CG":7357,"ĠBE":7358,"Ġinitialize":7359,"Binary":7360,"éļ":7361,"REM":7362,"failed":7363,"origin":7364,"Ġcb":7365,"Ġ56":7366,"contents":7367,"asp":7368,"Ġ!,":7369,"Ġrows":7370,"æ¬":7371,"Ġdisabled":7372,"Ġ69":7373,"Ġvb":7374,"abc":7375,"collect":7376,"(_,":7377,"prototype":7378,"sample":7379,"Ġsaved":7380,"644":7381,"Ġbus":7382,"erscript":7383,"actual":7384,"Events":7385,"568":7386,"]::":7387,"Ġstage":7388,"reater":7389,"Ġ38":7390,"General":7391,"yg":7392,"parator":7393,"ĠMin":7394,"Ġoverflow":7395,"translate":7396,"Ġdriver":7397,"abi":7398,"parser":7399,"CellGroupData":7400,"xp":7401,"ao":7402,"Ġtranslate":7403,"Missing":7404,"eth":7405,"$\\":7406,"\"}]}":7407,"ĠCal":7408,"Selected":7409,"GroupNumber":7410,"ĠGraph":7411,"(|":7412,"design":7413,"Ġprintf":7414,"packages":7415,"ecx":7416,"resolve":7417,"Ġbottom":7418,"307":7419,"video":7420,"formed":7421,"asis":7422,"ĠCase":7423,"âķĲâķĲ":7424,"ym":7425,"2064":7426,"191":7427,"Î»":7428,"vol":7429,"yr":7430,"Ġ-=":7431,"Ġrepeat":7432,"->{{":7433,"ĠThese":7434,"AMP":7435,"wl":7436,"Weight":7437,"AH":7438,"æĢ":7439,"ĉĉĉĠ":7440,"Ġnote":7441,"highlight":7442,"Ġ??":7443,"299":7444,"MSG":7445,"777":7446,"CMake":7447,"blob":7448,"Ġdep":7449,"Metadata":7450,"CSS":7451,"Ġprop":7452,"complex":7453,"MI":7454,"pres":7455,"After":7456,"]\\":7457,"1110001100001000":7458,"Animation":7459,"Bo":7460,"ano":7461,"Ġ#'":7462,"Ġsig":7463,"sch":7464,"Ġvarchar":7465,"FFFFFFFFFFFFFFFF":7466,"<#":7467,"rv":7468,"sect":7469,"ĠDUMMY":7470,"sq":7471,"ĠHow":7472,"Ġcomplete":7473,"classes":7474,"Ġcare":7475,"ãĤ¹":7476,".;":7477,"HH":7478,"æİ":7479,"Ġast":7480,"Runtime":7481,"Ġpin":7482,"=&":7483,"serial":7484,"295":7485,"Ġperiod":7486,"ÑģÑĤ":7487,"-----------":7488,"ĠDocument":7489,"keyword":7490,"High":7491,"StartOf":7492,"nat":7493,"_(":7494,"clip":7495,"zer":7496,"ond":7497,"encoding":7498,"SIGN":7499,"Ġ66":7500,"ĠAct":7501,"658":7502,"Ġcard":7503,"FAIL":7504,"Binding":7505,"Ġ'\"":7506,"Ġcoordinates":7507,"Ġcrate":7508,"326":7509,"ĠKIND":7510,"atar":7511,"Dev":7512,"SPE":7513,"1110":7514,"scribe":7515,"kh":7516,"Ġ----------------------------------------------------------------":7517,"Ġcor":7518,"ĠOTHER":7519,"789":7520,"247":7521,"ĠBack":7522,"ç¨":7523,"Ġupdates":7524,"Ġscripts":7525,"Ġfast":7526,"ifact":7527,"attach":7528,"ĠASS":7529,"289":7530,"ĠSO":7531,"ĠBEGIN":7532,"plan":7533,"green":7534,"ĠOffset":7535,"Ġ54":7536,"344":7537,"__,":7538,"034":7539,")[":7540,"246":7541,"PIN":7542,"clarations":7543,"016":7544,"Ġutf":7545,"=\"/\"":7546,"DP":7547,"ula":7548,"',[":7549,"stor":7550,"trim":7551,"inder":7552,"Ġfixed":7553,"Ġcommit":7554,"#[":7555,"ktop":7556,"striction":7557,"{-|":7558,"æ³ķ":7559,"ĠIMPORTING":7560,"Small":7561,"Information":7562,"'},":7563,",+":7564,"ĠCC":7565,"0100":7566,".{":7567,"ĠDllCall":7568,"Ġjs":7569,"288":7570,"Returns":7571,"labels":7572,"Ġpower":7573,"emy":7574,"pandas":7575,"Operation":7576,"538":7577,"ĠMath":7578,"Parse":7579,"Ġts":7580,"Ġcs":7581,"scroll":7582,"need":7583,"Rec":7584,"Ġsync":7585,"Ġdirection":7586,"ĠView":7587,"vb":7588,"yw":7589,"Ġcname":7590,"BotInline":7591,"ĠMal":7592,"230":7593,"Ġdistribution":7594,"ĠAcc":7595,"Ġcomponents":7596,"Ġallows":7597,"ĠBO":7598,"Ġprob":7599,"ĠGET":7600,"->{'":7601,"ĠElement":7602,"timestamp":7603,"policy":7604,"Network":7605,"Ġ$::":7606,"signal":7607,"Ġcluster":7608,"Âł":7609,"unmap":7610,"CPU":7611,"100000":7612,"RU":7613,"ONT":7614,"installdir":7615,";\"":7616,"ĠRectangle":7617,"Ġscan":7618,"CHECK":7619,"744":7620,"agraph":7621,"supported":7622,"Iterator":7623,"Ġ\"+\",":7624,"âĶĢ":7625,"isStartOf":7626,"ĠRO":7627,"Ġ44":7628,"clusterGroupNumber":7629,"topoIndex":7630,"isStartOfPath":7631,"239":7632,"dataset":7633,"Ġsur":7634,"cogn":7635,"Some":7636,"beta":7637,"Ġbad":7638,"Ġabs":7639,"Download":7640,"Fe":7641,"}[":7642,"éģ":7643,"Ġbaseinstalldir":7644,"Ok":7645,"ĠJson":7646,"GA":7647,"reply":7648,"aps":7649,"ĠĠĠĠĠĠĠĠĠĠĠĠĠĠĠĠĠĠĠĠĠĠĠĠĠĠĠĠĠĠĠĠĠĠĠĠĠĠĠĠĠĠĠĠĠĠĠĠ":7650,"LINK":7651,"AAWw":7652,"957":7653,"anned":7654,"tabs":7655,"chunk":7656,"Ġexpress":7657,"Ġcategory":7658,"ĠUP":7659,"wards":7660,"ĠElse":7661,"dh":7662,"Ġwarning":7663,"typeof":7664,"443":7665,"ission":7666,"HX":7667,"upb":7668,"rules":7669,"dynamic":7670,"train":7671,"Ġcommands":7672,"Ġ(<":7673,"Ġ@(":7674,"kzz":7675,"fifo":7676,"Ġul":7677,"ĠMASK":7678,"Nodes":7679,"Ġautomatically":7680,"dns":7681,"Ġvolume":7682,"Exists":7683,"Ġremain":7684,"ĠSTART":7685,"Ġ\"\\\"\\<":7686,"cour":7687,"Standard":7688,"gtk":7689,"ĠCORRECT":7690,"volume":7691,"Ġ\"~":7692,"subst":7693,"Ġchecks":7694,"352":7695,"importc":7696,"Ġpartial":7697,"Ġri":7698,"Ġ#[":7699,"most":7700,"Ġ87":7701,"enty":7702,"Ġdw":7703,"648":7704,"068":7705,"759":7706,"oost":7707,"Ġwarr":7708,"Ġextension":7709,"RW":7710,"048":7711,"Ġitself":7712,"343":7713,"Else":7714,"Ġanchors":7715,")])":7716,"Fin":7717,"uf":7718,"Track":7719,"055":7720,"Ġhope":7721,"Margin":7722,"ĠMain":7723,"functions":7724,"Split":7725,"ategy":7726,"anded":7727,"ĠVer":7728,"multi":7729,"Ð¿":7730,"ĠÐ¿":7731,"xmm":7732,"atory":7733,"131":7734,"Sn":7735,"745":7736,"285":7737,"quation":7738,"micro":7739,"imize":7740,"333":7741,"Ġsm":7742,"ROP":7743,"Ġcompare":7744,"Ġmatches":7745,"ĠColumn":7746,"anty":7747,"Ġ(@":7748,"role":7749,"ĠPICT":7750,"ands":7751,"elm":7752,"Ġbasic":7753,"080":7754,"ĠPICTURE":7755,"Ġcmp":7756,"Ġsql":7757,"Ġredistrib":7758,"ToString":7759,"hot":7760,"ĠNUM":7761,"540":7762,"aker":7763,"mn":7764,"Ġweight":7765,"NET":7766,"pixel":7767,"----------------------------------------------------------------------------------------------------":7768,"DateTime":7769,"Ġ37":7770,"666":7771,"Gu":7772,"inger":7773,"etc":7774,"ä¸º":7775,"POST":7776,"Assert":7777,"Total":7778,"vp":7779,"Ġ{[":7780,"PORTING":7781,"×¨":7782,"orter":7783,"sep":7784,"rcu":7785,"ĠOBJECT":7786,"freelist":7787,"Mar":7788,"ĠLocal":7789,"quivalent":7790,"illed":7791,"Ġdisp":7792,"Pool":7793,"Ġdat":7794,"ĠINSTR":7795,"sz":7796,"sharp":7797,"aging":7798,"ĠKing":7799,"âĤĸ":7800,"Ġrate":7801,"libs":7802,"ĠCount":7803,"Ġgood":7804,"Ġax":7805,"Ġusername":7806,"Participants":7807,"Sent":7808,"vals":7809,"Ġmid":7810,":</":7811,"èĢ":7812,"comma":7813,"Ġunsafe":7814,"TEMP":7815,"shm":7816,"020":7817,"212":7818,"AU":7819,"Ġpixel":7820,"Ġhard":7821,"INUE":7822,"668":7823,"324":7824,"Ġ***":7825,"construct":7826,"Ġ04":7827,"Ġinstruction":7828,"lict":7829,"Ġsyntax":7830,"ĠTOKEN":7831,"Ġrequested":7832,"755":7833,"ersistent":7834,"peer":7835,"alf":7836,"defs":7837,"Ġcalling":7838,"Ġpackages":7839,"missing":7840,"Ġelem":7841,">\",":7842,"Ġ57":7843,"batch":7844,"Shift":7845,"Pass":7846,"183":7847,"ĠByte":7848,"ĠChange":7849,"Ġemit":7850,"Î¼":7851,"endar":7852,"Ġunowned":7853,"Ġverify":7854,"entication":7855,"217":7856,"Clause":7857,"Pe":7858,"shell":7859,"ĠDWORD":7860,"Dictionary":7861,"ada":7862,"ĠALL":7863,"âĨ":7864,"ĠTask":7865,"strings":7866,"rmap":7867,"Enable":7868,"2007":7869,"Ġmodified":7870,"Present":7871,"Side":7872,"Ġnd":7873,"ĠExit":7874,"ROW":7875,"Ġtx":7876,"liance":7877,"erscriptBox":7878,"relation":7879,"Ġrepeated":7880,"ICK":7881,"RM":7882,"tc":7883,"Break":7884,"apture":7885,"ifications":7886,"Ġhex":7887,"Ġworks":7888,"Ġsay":7889,"RST":7890,"ĠEnc":7891,"å®ļ":7892,"Ġ\"--":7893,"DV":7894,"Ġmade":7895,"249":7896,"Ġmonth":7897,"history":7898,"Ġfailure":7899,"wrapper":7900,"AAWwAAWw":7901,"Cancel":7902,"sin":7903,"Ġpaths":7904,"Ġdataset":7905,"Ġedge":7906,"para":7907,"ĠCOL":7908,"Ġ105":7909,"ĠEnum":7910,"Fields":7911,"Ġnegative":7912,"covery":7913,"(\"%":7914,"shmem":7915,"Ġcity":7916,"ç©":7917,"ike":7918,"Ġ{%":7919,"ĠAda":7920,"ĠDouble":7921,"ĠWidth":7922,"atis":7923,"ya":7924,"setting":7925,"Ġruntime":7926,"Ġ%{":7927,"Ġ21508":7928,"required":7929,"214":7930,"Ġvery":7931,"orary":7932,"Ġgfp":7933,"ĠGroup":7934,"684":7935,"asing":7936,"ĠLL":7937,"Authorization":7938,"Ġ84":7939,"devices":7940,"ĠAuto":7941,"INCLUDE":7942,"scala":7943,"Join":7944,"654":7945,"Ġsomething":7946,"Ġsl":7947,"Sort":7948,"star":7949,"CLUD":7950,"æĹ¶":7951,"ĠDelete":7952,"Payment":7953,"Ġorigin":7954,"LU":7955,"Tuple":7956,"ĠLINE":7957,"cls":7958,"enced":7959,"áŁĴ":7960,"xf":7961,"ĠEQUAL":7962,"Ð¾Ð²":7963,"Ġremote":7964,"paths":7965,"CLUDING":7966,"mv":7967,"Ġscal":7968,"ĠDim":7969,"193":7970,"æĸĩ":7971,"ANGU":7972,"645":7973,"Multi":7974,"nginx":7975,"DELETE":7976,"MARK":7977,"Ġlayer":7978,"amount":7979,"unwrap":7980,"pathname":7981,"Complete":7982,"708":7983,"aged":7984,"Ġexact":7985,"]=":7986,"icular":7987,"Stat":7988,"Ġdf":7989,"222":7990,"ĠPROC":7991,"Ġmuch":7992,"Cursor":7993,"Ġtracking":7994,"kw":7995,"arison":7996,"Ġ39":7997,"336":7998,"COUNTER":7999,"Ġ[];":8000,"Ġproblem":8001,"Ġ83":8002,"Ġnamed":8003,"è¾":8004,"Reply":8005,"LOOP":8006,"ÑĢÐ°":8007,"inct":8008,"Ġfact":8009,"Delta":8010,"Ġcfg":8011,"Ġwarranty":8012,"BX":8013,"VC":8014,"Ġcover":8015,"sources":8016,"ĠCOMPUTED":8017,"Util":8018,"166666666666":8019,"ĠIter":8020,"manager":8021,"United":8022,"GH":8023,"è¡¨":8024,"(#":8025,"^{":8026,"prot":8027,"IVATE":8028,"åĢ":8029,"Saveable":8030,"Drop":8031,"gui":8032,"mer":8033,"nz":8034,"uv":8035,"ĠAdv":8036,"ĉĉĠĠĠĠĠ":8037,"Ġrect":8038,"lug":8039,"ĠĠĠĠĠĠĠĠĠĠĠĠĠĠĠĠĠĠĠĠĠĠĠĠĠĠĠĠĠĠĠĠĠĠĠĠĠĠĠĠĠĠĠĠĠĠĠĠĠ":8040,"Ġfinally":8041,"OU":8042,"Ġms":8043,"Ġworld":8044,"++++++++":8045,"mix":8046,"UBLE":8047,"Ġsafe":8048,"elem":8049,"ãĥĪ":8050,"Ġmaybe":8051,"voice":8052,"ĠMethod":8053,"TMP":8054,"DAT":8055,"Actor":8056,"Ġ--------------------":8057,"{%":8058,"Ġê":8059,"erved":8060,"ĠME":8061,"ĠExec":8062,"CONST":8063,"ĉĉĠĠĠĠ":8064,"ots":8065,"ĠPACK":8066,"Ġredistribute":8067,"'$":8068,"ç´":8069,"examples":8070,"Tensor":8071,"YP":8072,"compare":8073,")->":8074,"pace":8075,"Register":8076,"gregate":8077,"ĠExpr":8078,"Ġputs":8079,"956":8080,"Ġmedia":8081,"malloc":8082,"Old":8083,"uel":8084,"itect":8085,"298":8086,"Ġ500":8087,"primary":8088,"ĠAX":8089,"cesses":8090,"Ġdepth":8091,"223":8092,"GRAM":8093,"Ġdc":8094,"ĠYes":8095,"istic":8096,"Security":8097,"coll":8098,"Ġreceive":8099,"bz":8100,"ĠHTML":8101,"rint":8102,"ĠSuperscriptBox":8103,"ERT":8104,"ðŁı":8105,"Å¡":8106,"ĠÂ":8107,"atype":8108,"Ġtargets":8109,"Ġflex":8110,"cgi":8111,"ĠBU":8112,"AXI":8113,":!":8114,"emon":8115,"Ġ76":8116,"ENOMEM":8117,"Ġ256":8118,"2006":8119,"Quick":8120,"jection":8121,">`":8122,"Big":8123,"elements":8124,"qc":8125,"black":8126,"279":8127,"776":8128,"Ġ52":8129,"Nil":8130,"è¨":8131,"297":8132,"gds":8133,"Ġrequests":8134,"Bottom":8135,"Ġart":8136,"ĠSM":8137,"Ġconsole":8138,"Ġregular":8139,"ĠMETHODS":8140,"ĠGOTO":8141,"Include":8142,"èĥ½":8143,"Ġtransaction":8144,"Ġpa":8145,"\"/":8146,"290":8147,"334":8148,"tached":8149,"jl":8150,"xd":8151,"Ġloaded":8152,"SCRIPT":8153,"large":8154,"Ġclause":8155,"Ġ86":8156,"Ġdelta":8157,"bm":8158,"686":8159,"chars":8160,"(--":8161,"Ġ$<":8162,"Ġstable":8163,"ifest":8164,"Desktop":8165,"veloper":8166,"lier":8167,"358":8168,"ANCE":8169,"reduce":8170,"Encoding":8171,"Buf":8172,"Ġ(->)":8173,"Bus":8174,"verter":8175,"748":8176,"359":8177,"Ġprocessing":8178,"ĠOpt":8179,"ele":8180,"Ġproper":8181,"Ġknown":8182,"owner":8183,"saved":8184,"mysql":8185,"Ġactually":8186,"ouse":8187,"338":8188,"Ġchain":8189,"284":8190,"Canvas":8191,"CALL":8192,"ople":8193,"links":8194,"Ġprovides":8195,"<!--":8196,"2001":8197,"crease":8198,"vv":8199,"avg":8200,"253":8201,"Ġtimestamp":8202,"ANGUAGE":8203,"alog":8204,"Ġfa":8205,"gebra":8206,"iso":8207,"NODE":8208,"Ans":8209,"Vec":8210,"cancel":8211,"Usage":8212,"ç¤":8213,"defmethod":8214,"Ġ\"}\"}],":8215,"Css":8216,"çī":8217,"Ġcross":8218,"Ġ<!--":8219,"cursive":8220,"GROUP":8221,"216":8222,"virtual":8223,"room":8224,"758":8225,"transition":8226,">âĨ":8227,"Ty":8228,"..\\":8229,"Ġalt":8230,"Interval":8231,"union":8232,"Ġkeyword":8233,"Ġinputs":8234,"Ġtensor":8235,"×ľ":8236,"lastic":8237,"ĠEXPORTING":8238,"Focus":8239,"ĠĠĠĠĠĠĠĠĠĠĠĠĠĠĠĠĠĠĠĠĠĠĠĠĠĠĠĠĠĠĠĠĠĠĠĠĠĠĠĠĠĠĠĠĠĠĠĠĠĠ":8240,"ãģĹãģ":8241,"ĠFFI":8242,"Ġresolve":8243,"Ġbuilt":8244,"Ġrespon":8245,"Ġprogress":8246,"747":8247,"groups":8248,"updates":8249,"pgoff":8250,"ker":8251,"Ġ@[":8252,"Comment":8253,"hint":8254,"Role":8255,"Ġclasses":8256,"ĠAc":8257,"350":8258,"Ġaxis":8259,"2004":8260,"UBE":8261,"1234":8262,"texture":8263,"logger":8264,"VS":8265,"Ġpad":8266,"ales":8267,"MX":8268,"096":8269,"320":8270,"@\"":8271,"éĿ":8272,"Ġ95":8273,"ĠEdit":8274,",*)":8275,"ĠRES":8276,"resp":8277,"1094":8278,"Surface":8279,"EMP":8280,"Ġ\"`":8281,"Ð¹":8282,"Ġpat":8283,"unsafe":8284,"ires":8285,"à´°":8286,"?\"":8287,"dv":8288,"Ġextract":8289,"EXIT":8290,"Ġ09":8291,"ĠGLib":8292,"TRAN":8293,"scheme":8294,"RP":8295,"ari":8296,"::__":8297,"Ġ59":8298,"Ġadjust":8299,"cert":8300,"ĠKBUILD":8301,"2009":8302,"Ġlaw":8303,"ĠTele":8304,"ki":8305,"Ġ82":8306,"ĠStandard":8307,"_\\":8308,"Ġlit":8309,"epsZ":8310,"ĠepsZ":8311,"ĠKingdom":8312,"SDL":8313,"Bits":8314,"317":8315,"utdown":8316,"charseq":8317,"Launch":8318,"VB":8319,"Arch":8320,"ĠStatus":8321,"tection":8322,"Ġexecution":8323,"Ġenter":8324,"649":8325,"className":8326,"GENER":8327,"adreno":8328,"Ġ...)":8329,"ky":8330,"åī":8331,"anti":8332,"018":8333,"bine":8334,"activate":8335,"ship":8336,"1111110000010000":8337,"ferred":8338,"Ġ~=":8339,"tm":8340,"Projects":8341,"Ġrepresentation":8342,"655":8343,"Ġmult":8344,"Ġtech":8345,")..":8346,"000000000000":8347,"CURRENT":8348,"á¼Ģ":8349,"Ġgot":8350,"278":8351,"Serial":8352,"ante":8353,"Ġhel":8354,"Ġ335544":8355,"ĠTree":8356,"Ġ58":8357,"WP":8358,"Îº":8359,"---------":8360,"nf":8361,"aring":8362,"600143":8363,"EXP":8364,"JR":8365,"wg":8366,");}":8367,"277":8368,"Ġbaseline":8369,"\".}":8370,"JO":8371,"Ġsample":8372,"np":8373,"Ġslot":8374,"IGH":8375,"changes":8376,"Ġfoo":8377,"Ġdx":8378,"plugins":8379,"ISING":8380,"Single":8381,"Eng":8382,"ĠOnly":8383,"GDK":8384,"kin":8385,"Ġbatch":8386,"Loader":8387,"MR":8388,"ĠSLAB":8389,"ĠNAME":8390,"Export":8391,"ulia":8392,"extent":8393,"Ġproto":8394,"ĠArgs":8395,"ĠEXP":8396,"#,":8397,"378":8398,"ĠLength":8399,"ORS":8400,"ĠStream":8401,"TAIL":8402,"clusive":8403,"ĠPSI":8404,"Software":8405,"367":8406,"controller":8407,"Ġ\\[":8408,"æĬ":8409,"named":8410,"757":8411,"Ġ51":8412,"sizeof":8413,"ĠLoad":8414,"AABb":8415,"Slice":8416,"æµ":8417,"Ġ$*":8418,"aves":8419,"Common":8420,"Ġev":8421,"ĠGlobal":8422,"267":8423,"Ġenough":8424,"kZ":8425,"perl":8426,"Ġmaterial":8427,"797":8428,"Support":8429,"\\+":8430,"994":8431,"payload":8432,"extract":8433,"fff":8434,"EIN":8435,"142":8436,"379":8437,"dirty":8438,"ĠCONTINUE":8439,"(\"#":8440,"orig":8441,"LV":8442,"Ġsimp":8443,"Ġparts":8444,"lette":8445,"Ġ72":8446,"Ġred":8447,"emit":8448,"Ġfall":8449,"356":8450,"Rules":8451,"Helper":8452,"Factor":8453,"ONY":8454,"CXX":8455,"Html":8456,"des":8457,"045":8458,"standalone":8459,"Ġund":8460,"286":8461,"Ġgeneral":8462,"Ġprecision":8463,"Limit":8464,"trunc":8465,"Modified":8466,"10000":8467,"standard":8468,"èĩª":8469,"287":8470,"UBLIC":8471,"Ġauthor":8472,"019":8473,"fy":8474,"oggle":8475,"Ġzcl":8476,"Ġworking":8477,"ral":8478,"Ġprevent":8479,"å¤§":8480,"Speed":8481,"058":8482,"ĠSTRING":8483,"por":8484,"xFF":8485,"adv":8486,"Ġforward":8487,"cli":8488,"DEVICE":8489,"Ġchunk":8490,"263":8491,"Success":8492,"Gtk":8493,"norm":8494,"Ġpartition":8495,"Contents":8496,"ä½¿":8497,"Flow":8498,"11100":8499,"Ġ49":8500,"Idx":8501,"ĠULONG":8502,"Proxy":8503,"irror":8504,"Ġconn":8505,"ĠMA":8506,"ãģ§":8507,"Ġwords":8508,"OPTION":8509,"ili":8510,"logo":8511,"2008":8512,"ĠSearch":8513,"Maybe":8514,"hello":8515,"ĠChr":8516,"Capacity":8517,"}\",":8518,"çĲ":8519,"ĠDep":8520,"Ġwarnings":8521,"nth":8522,"unnel":8523,"Ġfold":8524,"progress":8525,"photo":8526,"mouse":8527,"Ġroutine":8528,"gers":8529,"Ġmulti":8530,"ensitive":8531,"ĠĠĠĠĠĠĠĠĠĠĠĠĠĠĠĠĠĠĠĠĠĠĠĠĠĠĠĠĠĠĠĠĠĠĠĠĠĠĠĠĠĠĠĠĠĠĠĠĠĠĠĠĠĠĠĠĠĠĠĠĠĠĠĠĠĠĠĠĠĠĠĠĠ":8532,"030":8533,"396":8534,"[(":8535,"undef":8536,"ĠRest":8537,"688":8538,"ORDER":8539,"finite":8540,"AQ":8541,"Fixed":8542,"ratio":8543,"å¿":8544,"Ġbel":8545,"ĠLayout":8546,"notation":8547,"Ġclk":8548,"ogs":8549,"IMIT":8550,"ĠBAS":8551,"040":8552,"Public":8553,"Problem":8554,"Filename":8555,"esi":8556,"330":8557,"335":8558,"Ġ63":8559,"baz":8560,"ĠSection":8561,"Platform":8562,"ĉĉĉĠĠ":8563,"ĠWin":8564,"ĠPointer":8565,"Difference":8566,"Ġuri":8567,"ĠMe":8568,"tau":8569,"stmt":8570,"Ġdt":8571,"Ġatt":8572,"Super":8573,"Ġtakes":8574,"Domain":8575,"HOST":8576,"flex":8577,"itches":8578,"permission":8579,"ensity":8580,"Schema":8581,"Ġdictionary":8582,"339":8583,"ĠINPUT":8584,"æľ¬":8585,"ĠPost":8586,"()}":8587,"Ġivc":8588,"crypto":8589,"Ġbounds":8590,"CES":8591,"stock":8592,"bio":8593,"contact":8594,"notify":8595,"coration":8596,"Ġattemp":8597,"Markup":8598,"Ġtrigger":8599,"ĠExt":8600,"\"},\"":8601,"batim":8602,"Pop":8603,"ĠSG":8604,"etale":8605,"ĠDIV":8606,"ĠNOTE":8607,"MU":8608,"è½":8609,"Ġbg":8610,"779":8611,"ARRAY":8612,"gray":8613,"iu":8614,"ĠExample":8615,"IDE":8616,"260":8617,"Ġresources":8618,"itespace":8619,"IQ":8620,"Ġdetermin":8621,"enario":8622,"ç©º":8623,"ĠSeq":8624,"ods":8625,"Home":8626,"patch":8627,"arb":8628,"Ġlat":8629,"mazon":8630,"LW":8631,"è¦ģ":8632,"Aspect":8633,"pur":8634,"746":8635,"Job":8636,"LAN":8637,"Year":8638,"ĠBit":8639,"æĮ":8640,"ina":8641,"inx":8642,"asi":8643,"Fl":8644,"folder":8645,"ording":8646,"CellContext":8647,"?)([":8648,"PREFIX":8649,">'":8650,"ĠCA":8651,"Ġrm":8652,"ĠOp":8653,"Reader":8654,"172":8655,"Ġyield":8656,"dyn":8657,"ĠAPP":8658,"attrs":8659,"PARAM":8660,"Ġclip":8661,"ĠIT":8662,"337":8663,"354":8664,"za":8665,"Inf":8666,"Ġalgorithm":8667,"038":8668,"pending":8669,"Enter":8670,"Ġ@_":8671,"1754":8672,"_${":8673,"created":8674,"Ġque":8675,"046":8676,"ĠCONTR":8677,"ãģ¯":8678,"Force":8679,"Alias":8680,"æĸ°":8681,"}?)([":8682,"scene":8683,"Ġzif":8684,"313":8685,"Ġbin":8686,"ĠNet":8687,"HR":8688,"typeHash":8689,"Ġ81":8690,"360":8691,"Ġminimum":8692,"Ï²":8693,"UEST":8694,"Ġdescribe":8695,"-[":8696,"here":8697,"ipher":8698,"Ġinstalled":8699,"Ġna":8700,"front":8701,"Diff":8702,"heel":8703,"Compiler":8704,"MessagesFilter":8705,"efficient":8706,"BLOCK":8707,"Rows":8708,"RESULT":8709,"vertical":8710,"xF":8711,"Ġlarge":8712,"material":8713,"315":8714,"Ġdeclaration":8715,"389":8716,"plist":8717,"SZ":8718,"oe":8719,"Ġca":8720,"elt":8721,"Each":8722,"Microsoft":8723,"dialog":8724,"ĠEQ":8725,"endor":8726,"hk":8727,"Ġ2000":8728,"ĠButton":8729,"LEAR":8730,"Ġverts":8731,"Look":8732,"Ġutil":8733,"rozen":8734,"Ġquote":8735,"Cost":8736,"Ġhy":8737,"ĠEach":8738,"ĠSte":8739,"prod":8740,"STACK":8741,"theta":8742,".',":8743,"rust":8744,"348":8745,"finished":8746,"BACK":8747,"Ġbuilder":8748,"binding":8749,"Ġclosed":8750,"deg":8751,"ĠLicensed":8752,"ĠLIKE":8753,"serialize":8754,"ulk":8755,"697":8756,"Ġke":8757,"ĠDec":8758,"Ġgets":8759,"Ġrepresents":8760,"ulator":8761,"Ġbest":8762,"sas":8763,"Ġdue":8764,"trait":8765,"âĶĢâĶĢ":8766,"database":8767,"à§":8768,"unic":8769,"resses":8770,"ĠOtherwise":8771,"(`":8772,"ĠOrder":8773,"182":8774,"Condition":8775,"AABbAABb":8776,",:":8777,"Lit":8778,"Pred":8779,"effect":8780,"FFF":8781,"314":8782,"ico":8783,"Rece":8784,"lers":8785,"QK":8786,"Ġplot":8787,"Insert":8788,"Ġ300":8789,"icks":8790,"ashboard":8791,"Ġimpl":8792,"Prev":8793,"RESP":8794,",,,,,,,,,,,,,,,,":8795,"948":8796,"uts":8797,"ceptions":8798,"ANGE":8799,"025":8800,"AI":8801,"Ġthird":8802,"uda":8803,"blinkid":8804,"FN":8805,"ĠLink":8806,"guide":8807,"Writer":8808,"lc":8809,"åĴ":8810,"Ġtheme":8811,"Ġ07":8812,"æ±":8813,"edi":8814,"lax":8815,"protected":8816,"Sym":8817,"ĠUnicode":8818,"AMETER":8819,"ACTIVE":8820,"Ġappropri":8821,"Ġcontacts":8822,"Ġtf":8823,"785":8824,"LOAT":8825,"Äį":8826,"ĠUTF":8827,"acl":8828,"ç¬":8829,"Ġct":8830,"],'":8831,"397":8832,"áŀ¶":8833,"åĪĨ":8834,"RB":8835,"Ġindent":8836,"hdr":8837,"394":8838,"-------------":8839,"Engine":8840,"vf":8841,"ones":8842,"FUN":8843,"ĠOPT":8844,"Arguments":8845,"Ġretrie":8846,"1064":8847,"Ð½Ð°":8848,"ĠImport":8849,"Async":8850,"Pair":8851,"============":8852,"Analyt":8853,"literal":8854,"rn":8855,"duced":8856,"speed":8857,"Controls":8858,"~~~~~~~~":8859,"Lower":8860,"Ġtimer":8861,"Ġfur":8862,"Ġam":8863,"opro":8864,"Neg":8865,"(){":8866,"é¡":8867,"details":8868,"(${":8869,"SHA":8870,"TeX":8871,"INDEX":8872,"Ġshare":8873,"nology":8874,"Wall":8875,"ĠLibrary":8876,"ENAME":8877,"ĠInternal":8878,"Ġnvram":8879,"Ġface":8880,"049":8881,"53125":8882,"uni":8883,"ĠSave":8884,"750":8885,"]$":8886,"à»":8887,"Ġ(#":8888,"<'":8889,"Ġ0000":8890,"ĠTarget":8891,"Direct":8892,"GX":8893,"]];":8894,"aff":8895,"constructor":8896,"Ġisn":8897,"anted":8898,"fw":8899,"horizontal":8900,"lisp":8901,"await":8902,"Community":8903,"ĠSW":8904,"Ġparticular":8905,"Ret":8906,"Ġgive":8907,"fol":8908,"Ġcx":8909,"276":8910,"Shader":8911,"argv":8912,">\");":8913,"ĠPort":8914,"columns":8915,"ĠOver":8916,"Ġ89":8917,"SYS":8918,"llegal":8919,"xxx":8920,"HK":8921,"rink":8922,"take":8923,"ĠCONDIT":8924,"libc":8925,"Constant":8926,"é¢":8927,"Ġ41":8928,"Ġcompliance":8929,"duration":8930,"Ġsubst":8931,"Ġscheme":8932,"Ġ&=":8933,"HTTP":8934,"_\"":8935,"Ġdobranch":8936,"*-":8937,"364":8938,"Ġrad":8939,"gramming":8940,"Progress":8941,"operand":8942,"è¿Ļ":8943,"ĠTot":8944,"PHONY":8945,"twitter":8946,"posedge":8947,"BINARY":8948,"ridge":8949,"Power":8950,"Ġschema":8951,"Ke":8952,"Ġtuple":8953,"ĠMIN":8954,"784":8955,"Ġspan":8956,"icons":8957,"ĠVariable":8958,"Ġsteps":8959,"ocation":8960,".....":8961,"entries":8962,"ĠVAR":8963,"Transaction":8964,"Ctrl":8965,"IENT":8966,"Ġmaster":8967,"050":8968,"^.":8969,"Ġss":8970,"brid":8971,"Ġbetter":8972,"Cs":8973,"cum":8974,"Ġfit":8975,"ĠConst":8976,"radio":8977,"ĠRECORD":8978,"ĠINITIAL":8979,"Dem":8980,"Tags":8981,"ãģĦ":8982,"hl":8983,")],":8984,"Ġ(__":8985,"ĠOper":8986,"Ġparticip":8987,"Notification":8988,"driver":8989,"Ġchannels":8990,"world":8991,"VT":8992,"Ġrefer":8993,"gines":8994,"Ñİ":8995,"Ġmultip":8996,"Ġcontrib":8997,"0800":8998,"------------------------------------------------------------------------------":8999,"XM":9000,"ilon":9001,"Ġ120":9002,"ĠEXIT":9003,"QUI":9004,")|":9005,"ĠHandle":9006,"WITH":9007,"Vars":9008,"alert":9009,"Ġpairs":9010,"Ġhidden":9011,"magic":9012,"HW":9013,"Ġ[])":9014,"loader":9015,"Ġleg":9016,"ĠPrimary":9017,"åĴĮ":9018,"312":9019,"pmd":9020,"Ġbo":9021,"ĠVis":9022,"310":9023,"Renderer":9024,"Ġ%>%":9025,",.":9026,"geo":9027,"Ġlight":9028,"ä¸Ĭ":9029,"ĠDISPLAY":9030,"RichText":9031,"Ġflow":9032,"ĠIOSTANDARD":9033,"ĠInitial":9034,"Ġintegr":9035,"Strings":9036,"Ġcontroller":9037,"Ġlisten":9038,"aN":9039,"ĠFORM":9040,"builder":9041,"helper":9042,"Ã³n":9043,"Ġfetch":9044,"grams":9045,"357":9046,"forms":9047,"Ġparser":9048,"iw":9049,"tuple":9050,"declaration":9051,"llers":9052,"TL":9053,"tty":9054,"endpoint":9055,"Ġthree":9056,"ĠWrit":9057,"ä»¶":9058,"Ġdownload":9059,"CASE":9060,"}|":9061,"Ġ))":9062,"ĠPtr":9063,"props":9064,"Ġbinding":9065,"DY":9066,"trins":9067,"pred":9068,"Assign":9069,"ĠLIC":9070,"044":9071,"Ġtables":9072,"Ġappear":9073,"Since":9074,"uter":9075,"ĠGrid":9076,"boardButton":9077,"ĠPACKAGE":9078,"Git":9079,"ĠCommand":9080,"mgr":9081,"æį":9082,"Repository":9083,"rpc":9084,"tls":9085,"698":9086,"Proto":9087,"Ġnorm":9088,"smith":9089,"388":9090,"ĠTyp":9091,"171":9092,"Decl":9093,"Ġincludes":9094,"Final":9095,"Ġhig":9096,"Dest":9097,"features":9098,"çĲĨ":9099,"ymo":9100,"relative":9101,"isa":9102,"Ġ<$":9103,"Ġeditor":9104,"<-":9105,"Pawn":9106,"Sem":9107,"Ġfuture":9108,"385":9109,"question":9110,"SN":9111,"hdf":9112,"Ġdispatch":9113,"scall":9114,"347":9115,"resources":9116,"Sender":9117,"Ġendpoint":9118,"LIED":9119,"Ġprepare":9120,"Ġrs":9121,"grad":9122,"unknown":9123,"Ġpull":9124,"Ġ73":9125,"Disp":9126,"tex":9127,"}'":9128,"ĠCRE":9129,"=>['":9130,"Math":9131,"gpu":9132,"Ġ\"\\\"":9133,"Ġsb":9134,"unique":9135,"structure":9136,"650":9137,"039":9138,"349":9139,"^\\":9140,"writer":9141,"Extension":9142,"Ġfront":9143,"950":9144,"ĠÐ²":9145,"TagChange":9146,"bison":9147,"Ġcat":9148,"Reset":9149,"compute":9150,"person":9151,"ising":9152,"usb":9153,"qrt":9154,"CEPT":9155,"dependent":9156,"EINVAL":9157,"absolute":9158,"ĠOS":9159,"Ġgoverning":9160,"restore":9161,"ĠLIMIT":9162,"proof":9163,"forward":9164,"Ġlimitations":9165,"have":9166,"ĠAvg":9167,"\">&":9168,"665":9169,"cook":9170,"Ġclock":9171,"prog":9172,"ĠOptional":9173,"Ġsprintf":9174,"243":9175,"Req":9176,"037":9177,"ä¾":9178,"Ġ$@":9179,"åĪ°":9180,"Latency":9181,"754":9182,"ĠCONDITIONS":9183,"xE":9184,"Ġlua":9185,"ĠInsert":9186,"Ġ(!(":9187,"Advanced":9188,"áº":9189,"988":9190,"ysical":9191,"ĠBuffer":9192,"upt":9193,"ango":9194,"gls":9195,"atural":9196,"Ġimportc":9197,"UV":9198,"keysyms":9199,"ãĤ¯":9200,"Ġ$!":9201,"Ġ53":9202,"Ġallocated":9203,"])(.{":9204,"onal":9205,"provider":9206,"iterator":9207,"Ġ47":9208,"FileLocation":9209,"åĬ¨":9210,"ç¨ĭ":9211,"...\"":9212,"ymous":9213,"Ġ@_;":9214,"ĠContext":9215,"ĠHeight":9216,"Uri":9217,"094":9218,"Zero":9219,"Ġ62":9220,"Ġpreserve":9221,"based":9222,"COLOR":9223,"Ġagreed":9224,"740":9225,"dsn":9226,"ino":9227,"Mac":9228,"pv":9229,"ofont":9230,"Ġ./":9231,"Ġwin":9232,"lapsed":9233,"Ġĉĉĉĉĉĉĉĉ":9234,"gdkkeysyms":9235,"andidate":9236,"306":9237,"ye":9238,"CAP":9239,"Site":9240,"atibility":9241,"exercise":9242,"ĠDAM":9243,"ĠSELECT":9244,"Hit":9245,"pw":9246,"ARM":9247,"Ġperformance":9248,"adoop":9249,".$":9250,"bes":9251,"tcp":9252,"axi":9253,"exInfo":9254,"emma":9255,"ansion":9256,"iny":9257,"Ġpool":9258,"ZZ":9259,"velopment":9260,"å¦":9261,"ayments":9262,"047":9263,"035":9264,";;;;;;;;;;;;;;;;;;;;;;;;;;;;;;;;":9265,"ĠStyleBox":9266,"DQ":9267,"086":9268,"TRACE":9269,"BUF":9270,"Ġaccording":9271,"!,":9272,"376":9273,"clared":9274,"Ġstrict":9275,"Ġowner":9276,"cont":9277,"AAAAAAAAAAAAAAAAAAAAAAAAAAAAAAAA":9278,"Abs":9279,"two":9280,"2003":9281,"Pin":9282,"newline":9283,"Units":9284,"but":9285,"adjust":9286,"ä½ľ":9287,"LENGTH":9288,"Î·":9289,"Ġrepository":9290,"eln":9291,"ĠCPU":9292,"ĠFrame":9293,"ĠKyw":9294,"Ġinterval":9295,"ĠTotHHI":9296,"ĠAvgHHI":9297,"riend":9298,"Ġprofile":9299,"UPDATE":9300,"Dict":9301,"`](":9302,"xbf":9303,"ĠFAIL":9304,"270":9305,"sop":9306,"icles":9307,"ĠConvert":9308,"verbose":9309,"localhost":9310,"ĠUs":9311,"BOOL":9312,"................":9313,"lst":9314,"Ġ------------------------------------------------":9315,"orn":9316,"Ġcancel":9317,"termine":9318,"IA":9319,"smi":9320,"ffected":9321,"WD":9322,"ĠAV":9323,"=_":9324,"xl":9325,"ĠGdk":9326,"DataFrame":9327,"When":9328,"mean":9329,"Visible":9330,"benchmarks":9331,"ĠDest":9332,"Selector":9333,"IES":9334,"STEM":9335,"796":9336,"Before":9337,"Gra":9338,"gi":9339,"icofont":9340,"Ġdyn":9341,"Ġ<%":9342,"irk":9343,"Ġ67":9344,"\\>\\\"\",":9345,"returns":9346,"áŀĵ":9347,"Ġimplements":9348,"mf":9349,"wp":9350,"URI":9351,"585":9352,"score":9353,"PLACE":9354,"Ġ\"^":9355,"DEL":9356,"CCCC":9357,"gold":9358,"659":9359,"Ġchecking":9360,"clause":9361,"Ġmatching":9362,"Series":9363,"ç¼":9364,"fixnum":9365,"TOK":9366,"war":9367,"ialogs":9368,"Ġ<:":9369,"ĠAction":9370,"ĠBUT":9371,"640":9372,"Weapon":9373,"CMOS":9374,"suffix":9375,"Background":9376,"ĠRectangleBox":9377,"))*(":9378,",{":9379,"Counter":9380,"indexOf":9381,"glyph":9382,"ĠLabel":9383,"fall":9384,"tz":9385,"Ġdistance":9386,"Conn":9387,"Ġ(&":9388,"route":9389,"istant":9390,"messageAction":9391,"::::::::::::::::":9392,"ĠTensor":9393,"ipping":9394,"lipse":9395,"Ġembed":9396,"Ġspaces":9397,"expandafter":9398,"CMakeFiles":9399,"Cr":9400,"Ġ(**":9401,"ĠFuture":9402,"à´Ł":9403,"overflow":9404,"ĠMessageAction":9405,"æĪĳ":9406,"urb":9407,"Ġlst":9408,"builtin":9409,"FFER":9410,"[{\"(\",":9411,"Hex":9412,"osite":9413,"_\",":9414,"seg":9415,"Ġmachine":9416,"chg":9417,"ĠMode":9418,"ãģ¨":9419,"ĠdefaultValue":9420,"NX":9421,"blog":9422,"Ġins":9423,"346":9424,"ĠFiles":9425,"Duck":9426,"Ġinner":9427,"hip":9428,"sdk":9429,"aming":9430,"ĠUint":9431,"Df":9432,"Az":9433,"BT":9434,"lus":9435,"reet":9436,"mooth":9437,"MessageAction":9438,"Ñħ":9439,"IFI":9440,"ĠSymbol":9441,"ĠBASIS":9442,"ĠNow":9443,"Ġmouse":9444,"çİ":9445,"Ġdelegate":9446,"Delegate":9447,"ĠUsed":9448,"ĠREG":9449,"Ġscroll":9450,"Ġdeleted":9451,"aken":9452,"×Ĳ":9453,"ĠHel":9454,"stroke":9455,"Hunt":9456,"TON":9457,"_:":9458,"kill":9459,"Ġsolution":9460,"REAM":9461,"Ġmount":9462,"Relation":9463,"ĠASSIGN":9464,"DOWN":9465,"ĠRounding":9466,"ELL":9467,"Ġtk":9468,"puts":9469,"tokens":9470,"prepare":9471,"098":9472,"786":9473,"ĠFIX":9474,"Ġpt":9475,"ĠMark":9476,"ĠØ":9477,"romise":9478,"Errors":9479,"åĬĽ":9480,"HER":9481,"ifn":9482,"Ġ'_":9483,"************************************************":9484,"ä¸»":9485,"oproto":9486,"åĵ":9487,"Ġ\"(":9488,"Secure":9489,"Ġrhs":9490,"numeric":9491,"548":9492,"dffe":9493,"|<":9494,"ç¦":9495,"Ġreally":9496,"checkbox":9497,"å¼ı":9498,"-\",":9499,"Day":9500,"thers":9501,"Ġbehavior":9502,"pkt":9503,"Ġpy":9504,"alyze":9505,"TB":9506,"Ġ#-}":9507,"Ġear":9508,"ä¸ĭ":9509,"CMD":9510,"-_":9511,"×ŀ":9512,"HS":9513,"gog":9514,"Ġfew":9515,"252":9516,"Uint":9517,"ĠGame":9518,"Ġwhite":9519,"ĠRegister":9520,"markup":9521,"Ġignored":9522,"Dot":9523,"hair":9524,"ipt":9525,"ims":9526,"Ġinterrupt":9527,"Cre":9528,"Div":9529,"ksm":9530,"987":9531,"ĠParse":9532,"ĠLOOP":9533,"AnalytPar":9534,"priv":9535,"smithy":9536,"ention":9537,"Ġ[$":9538,"diction":9539,"Low":9540,"THEN":9541,"RETURN":9542,"SIG":9543,"utors":9544,"Setting":9545,"ACES":9546,"Ġcaption":9547,"Ġ\"=\",":9548,"ĠTok":9549,"Ġhis":9550,"Ġmakes":9551,"outer":9552,"Completion":9553,"calc":9554,")([":9555,"hf":9556,"same":9557,"Ġchecked":9558,"finity":9559,"ç«":9560,"det":9561,"cljs":9562,"ĠUnless":9563,"Ġtw":9564,"Ġsound":9565,"blk":9566,"cols":9567,"moz":9568,"ograph":9569,"889":9570,"icol":9571,"749":9572,"third":9573,"IFDEF":9574,"Tex":9575,"pan":9576,"rgb":9577,"Ġ[_":9578,"LIBR":9579,"gas":9580,"kk":9581,"nick":9582,"tar":9583,"abilities":9584,"669":9585,"088":9586,"Ġunknown":9587,"Place":9588,"ĠPython":9589,"ĠLICENSE":9590,"dout":9591,"microsoft":9592,"454":9593,"environment":9594,"Ġflat":9595,"lications":9596,"à´Ĥ":9597,"Ġallocate":9598,"395":9599,"atest":9600,"221":9601,"Yes":9602,"Ġser":9603,"Ġspark":9604,"console":9605,"ĠAP":9606,"quad":9607,"788":9608,"001953125":9609,"\")))":9610,"brev":9611,"NL":9612,"Ġcd":9613,"Columns":9614,"hard":9615,"ĠDraw":9616,"Ġsec":9617,"181":9618,"ç®¡":9619,"]):":9620,"Ġtid":9621,"448":9622,"uestfs":9623,"maybe":9624,"Ġmac":9625,"AAFs":9626,"PhoneCall":9627,",</":9628,"VR":9629,"056":9630,"280":9631,"GroupCall":9632,"specific":9633,"Ġcapacity":9634,"Random":9635,"ura":9636,"369":9637,"escape":9638,"059":9639,"Ġpriority":9640,"Ùħ":9641,"Ġaut":9642,"ĠClear":9643,"ĠInfo":9644,"USA":9645,"Notebook":9646,"Ġdisk":9647,"390":9648,"=$(":9649,"åĳ":9650,"logical":9651,"Email":9652,"through":9653,"spot":9654,"ĠReplace":9655,"FILES":9656,"rk":9657,"yaml":9658,"Ġ.\"":9659,"989":9660,"ĠUSING":9661,"crete":9662,"455":9663,"Py":9664,"æĽ":9665,"ategories":9666,"Rate":9667,"Console":9668,"Ġmaps":9669,"ĠPASS":9670,"Ġft":9671,"ĠLet":9672,"Ġgeo":9673,"/%":9674,"685":9675,"ĠProblem":9676,"Ġhappen":9677,"=[":9678,"ĠMY":9679,"dicates":9680,"mediately":9681,"fire":9682,"LOSE":9683,"ãĥ¼ãĥ":9684,"Lear":9685,"ĠCreates":9686,"Ġappropriate":9687,"dma":9688,"eno":9689,"Ġparsed":9690,"---------------------------------------------------------------------*":9691,"ĠSign":9692,"Front":9693,"fm":9694,"{#":9695,"Ġcir":9696,"ĠLVCMOS":9697,"rg":9698,"Ïħ":9699,"Ġstats":9700,"outh":9701,"Ġsubroutine":9702,"Ġwhose":9703,"036":9704,"CssParameter":9705,"Ġ'@":9706,"Ġdetermine":9707,"Ġapplied":9708,"Ġversions":9709,"\"\"\"\"\"\"\"\"":9710,"Scalar":9711,"ĠSu":9712,"PASS":9713,"ĠPC":9714,"UNT":9715,"eg":9716,"1164":9717,"percent":9718,"Ġdestination":9719,"inout":9720,"ä¸Ģä¸ª":9721,"å¦Ĥ":9722,"jump":9723,"Ġ46":9724,"orphism":9725,"Ġsimilar":9726,"ĠRoundingRadius":9727,"Ġsa":9728,"subject":9729,"/>\\":9730,"scriptor":9731,"Vertex":9732,"ctrl":9733,"backend":9734,"Qual":9735,"sequ":9736,"3000":9737,"leaf":9738,"ĠCG":9739,"Ġ43":9740,"phy":9741,"Login":9742,"Append":9743,"crate":9744,"kong":9745,"once":9746,"atime":9747,"Ġsymbols":9748,"rome":9749,"Ġide":9750,"unused":9751,"Saved":9752,"LOCAL":9753,"Hotkeys":9754,"rol":9755,"ĠParams":9756,"lood":9757,"ĠWidget":9758,"2524":9759,"Ġconstants":9760,"Ġoverload":9761,"SSL":9762,"ordinate":9763,"Ġfeatures":9764,"`;":9765,"---------------":9766,"+(":9767,"ĠTab":9768,"ĠDisplay":9769,"ĠMPI":9770,"hc":9771,"ttot":9772,"ĠEnv":9773,",&":9774,"Po":9775,"WM":9776,"ica":9777,"layui":9778,"Ids":9779,"Ġsock":9780,"istent":9781,"TERNAL":9782,"qa":9783,"440":9784,"istration":9785,"iol":9786,"LEASE":9787,"078":9788,"gogoproto":9789,"!/":9790,"bucket":9791,"Ġregex":9792,"ĠEmpty":9793,"STER":9794,"reader":9795,"Ġstarts":9796,"Hint":9797,"ĠBut":9798,"387":9799,"ÐµÑĢ":9800,"+\\":9801,"))*":9802,"ALLOC":9803,"Agent":9804,"ëĭ¤":9805,"çĤ":9806,"demo":9807,"IFY":9808,"capacity":9809,"Cast":9810,"è¥":9811,"ĠPL":9812,"ĠHAVE":9813,"Ġmx":9814,"Ġkh":9815,"Ġcla":9816,"ĠRequire":9817,"ĠValid":9818,")^":9819,"Ang":9820,"ÑĨ":9821,"ĠGit":9822,";\">":9823,"Ġarm":9824,"Mutable":9825,"drain":9826,"ĠCT":9827,"DEFINE":9828,"flatten":9829,"Ġ----":9830,"Ġattach":9831,"Ġ71":9832,"equals":9833,"Med":9834,"Ġthings":9835,"leton":9836,".<":9837,"flash":9838,"gate":9839,"Ġ\\$":9840,"Ġexclude":9841,"Ġtile":9842,"Ġinf":9843,"446":9844,"787":9845,"Ġweak":9846,"Family":9847,"Ġ,(":9848,"Ġdefines":9849,"Confirm":9850,"rift":9851,"cores":9852,"pped":9853,"459":9854,")\\\\":9855,"GS":9856,"Pat":9857,"yB":9858,"ife":9859,"ebx":9860,"æĻ":9861,"spring":9862,"å§Ķ":9863,"Ġprovider":9864,"Am":9865,"Border":9866,"bw":9867,"151":9868,"Ġ!(":9869,"ooter":9870,"089":9871,"293":9872,"OKUP":9873,"oj":9874,"Ġrestore":9875,"added":9876,"prolog":9877,"closed":9878,"IH":9879,"Named":9880,"Route":9881,"week":9882,"Ġplane":9883,"ĠReal":9884,"Modules":9885,"Commit":9886,"231":9887,"Art":9888,"emph":9889,"Padding":9890,"1054":9891,"054":9892,"Ġ]*\\":9893,"Ġzone":9894,"Ġdiag":9895,"ATOM":9896,"Ġdefinitions":9897,"699":9898,"DM":9899,"Ġpending":9900,"gradient":9901,"Ġelif":9902,"Kernel":9903,"Pi":9904,"AutoConfig":9905,"Details":9906,"00000001":9907,"currency":9908,"anc":9909,"dem":9910,"stdout":9911,"GeoPoint":9912,"ĉĉĠĠĠĠĠĠ":9913,"hem":9914,"Ġsecurity":9915,"450":9916,"targets":9917,"BYTE":9918,"BotInlineMessage":9919,"Just":9920,"sleep":9921,"ĠQuery":9922,"Ġmime":9923,"ĠClient":9924,"ookie":9925,"World":9926,"Price":9927,"Signature":9928,"Ġconversion":9929,"Ġstrip":9930,"culate":9931,"Children":9932,"ureValueType":9933,"agnostics":9934,",\\":9935,"ĠFraction":9936,"coming":9937,"Ġimg":9938,"318":9939,"pfn":9940,"zx":9941,"Ġsz":9942,"251":9943,"985":9944,"--------------":9945,"!!!!":9946,"Ġvertical":9947,"'ll":9948,"Ġable":9949,"Ġbra":9950,"Ind":9951,"ĠOK":9952,"Ġtransition":9953,"AAFsAAFs":9954,"Sta":9955,"ĠContainer":9956,"Ġactions":9957,"]/":9958,"Ġ/;":9959,"perm":9960,"Ġreading":9961,"TJv":9962,"555":9963,"Groups":9964,"Ġ'-'":9965,"seed":9966,"spacing":9967,"Ġwhole":9968,"ĠLD":9969,"095":9970,"ä½¿çĶ¨":9971,"aq":9972,"å»":9973,"Ġsever":9974,"Logger":9975,"itecture":9976,")`":9977,"recordn":9978,"Ġtd":9979,"expect":9980,"chart":9981,"wan":9982,"Ġmix":9983,"ached":9984,"Span":9985,"GV":9986,"(['":9987,"Syn":9988,"Ġsupports":9989,"ehicle":9990,"OPENCV":9991,"Hide":9992,"jc":9993,"çº":9994,"1200":9995,"buffers":9996,"Ġengines":9997,"pageBlock":9998,"Ġ???":9999,"nan":10000,"Ġ--------------------------------":10001,"members":10002,"689":10003,"spaces":10004,"anization":10005,"Ġequivalent":10006,"PRESS":10007,"Ra":10008,"ìĹ":10009,"ads":10010,"=\"-":10011,"ĠPlease":10012,"footer":10013,"Scheduler":10014,"MH":10015,"Ġ}}":10016,"Blue":10017,"\"])":10018,"CAL":10019,"band":10020,"794":10021,"Components":10022,"uro":10023,"éĽ":10024,"ĠĠĠĠĠĠĠĠĠĠĠĠĠĠĠĠĠĠĠĠĠĠĠĠĠĠĠĠĠĠĠĠĠĠĠĠĠĠĠĠĠĠĠĠĠĠĠĠĠĠĠĠĠ":10025,"ĠTerm":10026,"ONENT":10027,"Ġoperand":10028,"lour":10029,"Ġ{'":10030,"verbatim":10031,"743":10032,"DED":10033,"Spacing":10034,"sidebar":10035,"ĠIMPLIED":10036,"Ġdeclare":10037,"Ġpositive":10038,"constraint":10039,"Ġsources":10040,"Ġindices":10041,"Fun":10042,"!(\"":10043,"rase":10044,"ĠSQLITE":10045,":%":10046,"Ġ\"</":10047,"Ġgreater":10048,"assignment":10049,"676":10050,"DuckHunt":10051,"COPY":10052,"ĠRef":10053,"Ġentire":10054,"Graphics":10055,"hest":10056,"VK":10057,"soc":10058,"Ġcer":10059,"Ġpick":10060,"ITS":10061,"486":10062,"eref":10063,"projects":10064,"åĲĮ":10065,"gether":10066,"ãĤ¤":10067,"sktop":10068,"functor":10069,"]:=":10070,"rier":10071,"compress":10072,"Tools":10073,"fv":10074,"Ġdesign":10075,"Ġzip":10076,"1111110":10077,"æ¸":10078,"coord":10079,"Ġarrays":10080,"Ġsticker":10081,"1111110000100000":10082,"802":10083,"sser":10084,"Ġlabels":10085,"**************":10086,"Ent":10087,"ges":10088,"Ġruns":10089,"NUMBER":10090,"nw":10091,"ille":10092,"Ġforms":10093,"parts":10094,"Ġimplemented":10095,"])(.)([":10096,"cles":10097,"Ġscalar":10098,"ĠTotal":10099,"ERENCE":10100,"allowed":10101,"HAVE":10102,"Ġclick":10103,"Ġpm":10104,"MESS":10105,"Ġroute":10106,"ãĥĥ":10107,"ĠAddress":10108,"secure":10109,"(\"/":10110,"449":10111,"'));":10112,")',":10113,"Ġdict":10114,"ĠCore":10115,"docker":10116,"è¥¿":10117,";*":10118,"Ġrespect":10119,"Ui":10120,"ĠRCSS":10121,"imes":10122,"Ġ!.":10123,"TOT":10124,"ĠPUBLIC":10125,"Ġconcat":10126,"pas":10127,"åĲį":10128,"Required":10129,"BI":10130,"ĠMenu":10131,"#####":10132,"guard":10133,"Ġcopies":10134,")>":10135,"Db":10136,"ĠÑģ":10137,"ĠREAL":10138,"*\",":10139,"MON":10140,"VO":10141,"Ġengine":10142,"Trigger":10143,"WT":10144,"1114":10145,"ĠPageBlock":10146,"çĦ":10147,"Ġsilent":10148,"ĠCmd":10149,"mention":10150,"Example":10151,"Ġlik":10152,"Fill":10153,"LN":10154,"refs":10155,"Hy":10156,"ĠRA":10157,"077":10158,"ãģĮ":10159,"ĠCONST":10160,"tended":10161,"Accept":10162,"IMP":10163,"0002":10164,"ambda":10165,"ste":10166,"urnal":10167,"phase":10168,"ĠMessages":10169,"Ġpayload":10170,"uman":10171,"332":10172,"Ġprintln":10173,"tid":10174,"057":10175,"BUT":10176,"Ġseparate":10177,"Ġir":10178,"INGS":10179,"ãģª":10180,"running":10181,"Ġworker":10182,"Preview":10183,"hrow":10184,"Ġreverse":10185,"apps":10186,"assets":10187,"079":10188,"USH":10189,"clojure":10190,"\";\"$":10191,"Paper":10192,"igen":10193,"Ġpredicate":10194,"Ġrelated":10195,"Ġlonger":10196,"Ġbags":10197,"configuration":10198,"compatible":10199,"stderr":10200,"trinsic":10201,"conj":10202,"ĠBox":10203,"ĠWORK":10204,"products":10205,">[":10206,"Pub":10207,"è´":10208,"ĠSort":10209,"ĠPosition":10210,"MQ":10211,"multiple":10212,"archive":10213,"âĢį":10214,"traits":10215,",#":10216,"Credentials":10217,"HU":10218,"ĠVER":10219,"090":10220,"067":10221,"latex":10222,"sumer":10223,"Fn":10224,"kv":10225,"roke":10226,"Ġprice":10227,"Ġtokens":10228,"Ġinherited":10229,"ĠFilter":10230,"ucch":10231,"LA":10232,"Mov":10233,"::{":10234,"LEFT":10235,"076":10236,"Zone":10237,"audio":10238,"694":10239,"0000000000000000000000000000000000000000000000000000000000000000":10240,"ĠLIMITED":10241,"Vm":10242,"transport":10243,"ĠRetrie":10244,"ĠDefin":10245,"finish":10246,"RANGE":10247,"éĩı":10248,"that":10249,"ENG":10250,"ĠSTD":10251,"(**":10252,"VP":10253,"Ġupload":10254,"Shadow":10255,"FORMAT":10256,"ĠOUTPUT":10257,"ellow":10258,"preter":10259,"Ġ1024":10260,"Ġí":10261,"242":10262,"ï¿":10263,"inet":10264,"Ġflash":10265,"ĠOld":10266,"Ġprimary":10267,"Ġtasks":10268,"ucchini":10269,"984":10270,"Trip":10271,"ĠHowever":10272,"ččĊ":10273,"Ġ$.":10274,"Ġscore":10275,"LEMENT":10276,"DETAIL":10277,"tcode":10278,"ALT":10279,"locity":10280,"Driver":10281,"codes":10282,"Ġadv":10283,"Typ":10284,"0026":10285,"vmlinux":10286,"Plot":10287,"lru":10288,"ĠPass":10289,"Ġprom":10290,"ifndef":10291,"Ġ]*\\/":10292,"Ġmv":10293,"Arrow":10294,"methods":10295,"Ġgoing":10296,"rst":10297,"trigger":10298,"ĠSch":10299,"%<":10300,"ITEM":10301,"311":10302,"sound":10303,"ality":10304,"arc":10305,"Ġmd":10306,"ifeq":10307,"Marker":10308,"Bounds":10309,"SF":10310,"nim":10311,"Chart":10312,"swift":10313,"@(":10314,"objs":10315,"ĉĉĉčĊ":10316,"Ġtesting":10317,"ĠApplication":10318,"schedule":10319,"Own":10320,"ACC":10321,"([],":10322,"[{\"-\",":10323,"Ġverbose":10324,"(+":10325,"ĠĠčĊ":10326,"ĉĉĉĠĠĠĠĠ":10327,"Ġ`:":10328,"ysics":10329,"OBJ":10330,"*$":10331,"ĠCR":10332,"ĠPOS":10333,"à¥į":10334,"Ġidentity":10335,"ACH":10336,"äºĨ":10337,"Ġsupp":10338,"arante":10339,"market":10340,"æı":10341,"Ġthumb":10342,"atable":10343,"ĠCl":10344,"('\\":10345,"ICAL":10346,"pairs":10347,"+/":10348,"YS":10349,"scr":10350,"458":10351,"ĠComponent":10352,"SERVER":10353,"åĲĪ":10354,"Damage":10355,"FREE":10356,"cadr":10357,"Ġfocus":10358,"060":10359,"ĠRange":10360,"9500":10361,"Ġanything":10362,"Push":10363,"xA":10364,"ament":10365,"ĠOFF":10366,"ĠGenerate":10367,"Ġatomic":10368,"ĠParameters":10369,":$":10370,"WE":10371,"Wr":10372,"unicode":10373,"2034":10374,"ĠWScript":10375,"pull":10376,"Ġenergy":10377,"chip":10378,"Ġseed":10379,"newcommand":10380,"avigation":10381,"ï¿½":10382,"GLOB":10383,"QI":10384,"lis":10385,"ĉĉĉĉĠ":10386,"osen":10387,"TRA":10388,"valuation":10389,"ìĿ´":10390,"Mut":10391,"hour":10392,"ĠPM":10393,"Ġ[::":10394,"izations":10395,"--------------------------------------------------------------------------------":10396,"overlay":10397,"Ġprior":10398,"ĠAPPEND":10399,"dro":10400,"lude":10401,"Ġgroups":10402,"OBS":10403,"Opts":10404,"inher":10405,"Ġdot":10406,"Ġ]],":10407,"]*?":10408,"PD":10409,"×©":10410,"ĠService":10411,"2002":10412,"Ġdiscard":10413,"SIGNED":10414,"ĠARE":10415,"ĠPol":10416,"quency":10417,"OG":10418,"xC":10419,"ryption":10420,"Sch":10421,"Ġctxt":10422,"Ġpf":10423,"ĠVec":10424,"`:":10425,"Ġhandling":10426,"YX":10427,"anchor":10428,"gre":10429,"Ġmath":10430,"\\\"/>\\":10431,"Ġ61":10432,"{-#":10433,"pwr":10434,"matches":10435,"Ġinitialized":10436,"Goal":10437,"caption":10438,"FILTER":10439,"Mapping":10440,"Ġspeed":10441,"Ġrestriction":10442,"Kit":10443,"ĠSingle":10444,"äºº":10445,"Ġvs":10446,"023":10447,"Ġpublish":10448,"Ġqualified":10449,"pressed":10450,"Bg":10451,"UST":10452,"Ġplan":10453,"Ġops":10454,"Ġconstraints":10455,"321":10456,"answer":10457,"955":10458,"Makefile":10459,"poly":10460,"Ġmembers":10461,"ITLE":10462,"rdname":10463,">';":10464,"Wide":10465,"eration":10466,"Ġ199":10467,"USED":10468,"foreign":10469,"Ġaudio":10470,"ĠNEXT":10471,"ONLY":10472,"Ġsegment":10473,"Sets":10474,"687":10475,"ternative":10476,"Ġscene":10477,"services":10478,"ç½®":10479,"RAM":10480,"Ġsi":10481,"ĠBot":10482,"Ġask":10483,"353":10484,"UINT":10485,"Ġwa":10486,"ĠAC":10487,"ĠLE":10488,"Ġsecret":10489,"works":10490,"2084":10491,"àµĨ":10492,"inspect":10493,"vl":10494,"ĠPlay":10495,"1154":10496,"445":10497,"Capital":10498,"lint":10499,"Ġsuffix":10500,"(\\\"":10501,"mig":10502,"Ġansw":10503,"ensors":10504,"println":10505,"lapse":10506,"LF":10507,"Î´":10508,"Ġindicates":10509,"-*-*":10510,"Spark":10511,"Ġplease":10512,"Ġrather":10513,"ioblock":10514,"''''":10515,"Mal":10516,"segment":10517,"Ġali":10518,"Chunk":10519,"!]":10520,"ddr":10521,"[-":10522,"nh":10523,"Ġdeprecated":10524,"LIMIT":10525,"enumerate":10526,"playlist":10527,"ĠInitialize":10528,"JJ":10529,"SUP":10530,"ised":10531,"Destroy":10532,"éĢļ":10533,">|":10534,"Mid":10535,"Ġdump":10536,"inputs":10537,"tu":10538,"Ġ\"'":10539,"Ġ':":10540,"(::":10541,"Coord":10542,"Ġstarted":10543,"'])":10544,"Tk":10545,"isters":10546,"omin":10547,"substr":10548,"Ġiteration":10549,"*&---------------------------------------------------------------------*":10550,"ruby":10551,"Ġoutside":10552,"Available":10553,"Ã¥":10554,"retry":10555,"ĠOPEN":10556,"Pragma":10557,"anks":10558,"AES":10559,"Ġ\\@@_":10560,"ĠWord":10561,"huge":10562,"xff":10563,"|\"":10564,"Ġve":10565,"888":10566,"SHARE":10567,"ChatInvite":10568,"kb":10569,"Elements":10570,"MenuItem":10571,"ä»¬":10572,"RS":10573,"icate":10574,"Constraint":10575,"ĠAssign":10576,"ĠFractionBox":10577,"Ġpte":10578,"ĠScan":10579,"Contacts":10580,"aven":10581,"factory":10582,"verify":10583,"653":10584,"ternet":10585,"\\\\(":10586,"Ġĉ":10587,"Identity":10588,"999999999999":10589,"ĠCHE":10590,"Ġtypeof":10591,"PX":10592,"Sol":10593,"Ġ91":10594,"à¤¾":10595,"1010":10596,"Ġvars":10597,"476":10598,"[\"\\[":10599,"Bold":10600,"tod":10601,"Ġ2017":10602,"ĠEnable":10603,"GlobalAnalytPar":10604,"::<":10605,"322":10606,"SLAB":10607,"scalar":10608,"Paths":10609,"æĪĲ":10610,"Exist":10611,"WriteLine":10612,"534":10613,"WX":10614,"iness":10615,"usted":10616,"ANK":10617,"097":10618,"959":10619,"NEW":10620,"Detail":10621,"Ġimmediately":10622,"LIT":10623,"488":10624,"ï¼Ī":10625,"negative":10626,"Ġtrim":10627,"HC":10628,"ftrace":10629,"Ġbal":10630,"Ġincrement":10631,"verts":10632,"ĠEVENT":10633,"generator":10634,"414":10635,"åŁ":10636,"Ġmis":10637,"mapped":10638,"](#":10639,"Ġ###":10640,")**":10641,"joint":10642,"Ġhad":10643,"åº¦":10644,"*))":10645,"GN":10646,"Ġum":10647,"Ġonclick":10648,"Ġdifference":10649,"Dynamic":10650,"RDD":10651,"Ġquick":10652,"ĠEdge":10653,"sembly":10654,"Please":10655,"izers":10656,"imm":10657,"ĠCREATE":10658,"==\"":10659,"Ġseg":10660,"æīĢ":10661,"=${":10662,"ench":10663,"otes":10664,"457":10665,"Ġui":10666,"ï¼ī":10667,"PACKAGE":10668,"éĹ´":10669,"Ġftrace":10670,"Ġ):":10671,"assistant":10672,"Ġblue":10673,"ĠRedistrib":10674,"KNO":10675,"bet":10676,"Ġut":10677,"ÐµÑĤ":10678,"Ġnumeric":10679,"ÏĤ":10680,"uting":10681,"Team":10682,"åŃĺ":10683,"identity":10684,"Ġdeal":10685,"iming":10686,"errno":10687,"dependencies":10688,"610":10689,"mutable":10690,"DROP":10691,"Echo":10692,"WW":10693,"Optional":10694,"bounds":10695,"Bison":10696,"metric":10697,"cks":10698,"Ġ].":10699,"\"}]],":10700,"ĠCons":10701,"Formatter":10702,"Ġhint":10703,"Integr":10704,"Ġcomments":10705,"bold":10706,"UCT":10707,"Ġbs":10708,"Ġdays":10709,"STREAM":10710,"Actions":10711,"matcher":10712,"ĠContent":10713,"Execute":10714,"live":10715,"ĠDir":10716,"osition":10717,"Ġnotification":10718,"prm":10719,"[{-":10720,"3600":10721,"weak":10722,"Ð½Ð¸":10723,"366":10724,"Sim":10725,"Ġmig":10726,"Ġ<|":10727,"Syntax":10728,"319":10729,"Machine":10730,"vn":10731,"Ġacross":10732,"upgrade":10733,"1314":10734,"anging":10735,"crimin":10736,"colors":10737,"HOME":10738,"DECLARE":10739,"-.":10740,"022":10741,"cw":10742,"cdecl":10743,"raise":10744,"Ġleave":10745,"Ġbug":10746,"Ġ2015":10747,"Ġxmlns":10748,"OSUB":10749,"lm":10750,"|%":10751,"exact":10752,"986":10753,"KI":10754,"recv":10755,"ĠScript":10756,"Ġkill":10757,"652":10758,"Encoder":10759,"---|":10760,"HIGH":10761,"Nt":10762,"TOP":10763,"éĥ":10764,"ĠĠĠĠĠĠĠĠĠĠĠĠĠĠĠĠĠĠĠĠĠĠĠĠĠĠĠĠĠĠĠĠĠĠĠĠĠĠĠĠĠĠĠĠĠĠĠĠĠĠĠĠ":10765,"Ġ>>>":10766,"Ġcompilation":10767,"WAIT":10768,"Ġremaining":10769,"gif":10770,"Ġ'>=":10771,"ased":10772,"Ġnotify":10773,"hp":10774,"tile":10775,"Ġ'#":10776,"[,":10777,"ÑĪ":10778,"stick":10779,"Ġ(#\\":10780,"ICS":10781,"Ġ96":10782,"Ġcreating":10783,"extend":10784,"/*.":10785,"Ġ\"./":10786,"Ġexpressions":10787,"Score":10788,"Ini":10789,"BG":10790,"Descript":10791,"references":10792,"ĠLIABILITY":10793,"Ġfprintf":10794,"ĠExamples":10795,"Ġactor":10796,"bas":10797,"Ġcnt":10798,"Ġfar":10799,"localized":10800,"tables":10801,"Remote":10802,"Ġdescribed":10803,"Seconds":10804,"UIF":10805,"Ġhalf":10806,"layers":10807,"BUFFER":10808,"Ġflush":10809,"æĶ¯":10810,"Nullable":10811,"ĠDict":10812,"Ġcompletion":10813,"Ġtrain":10814,"frac":10815,"026":10816,"marker":10817,"Resources":10818,"ISTS":10819,"FIN":10820,"Pen":10821,"ima":10822,"wk":10823,"ĠQAST":10824,"Upper":10825,"how":10826,"Ġpot":10827,"Ġecx":10828,"ĠINDEX":10829,"jar":10830,"allet":10831,"Indic":10832,"273":10833,"372":10834,"sur":10835,"Ø±":10836,"ĠAccess":10837,"ĉĉĉĉĠĠĠ":10838,"ubic":10839,"modified":10840,"Mult":10841,"UU":10842,"follow":10843,"×ĳ":10844,"Ġqs":10845,"Fh":10846,"1084":10847,")-(":10848,"iM":10849,"Ġresulting":10850,"Disabled":10851,"\"}]}]}],":10852,"secret":10853,"iframe":10854,"tok":10855,"Ġoutputs":10856,"ĠLOCK":10857,"uber":10858,"Styles":10859,"Ġdecimal":10860,"course":10861,"IDENT":10862,"742":10863,"Ġ\"-\",":10864,"documentation":10865,"FPD":10866,"ĠSyn":10867,"ĠCor":10868,"RECISION":10869,"glib":10870,"hold":10871,"roy":10872,"Ġbrowser":10873,"ĠTObject":10874,")\")":10875,"HD":10876,"Ġrepo":10877,"áŀļ":10878,"symbols":10879,"Ignore":10880,"ftp":10881,"ç±":10882,"Ġconstraint":10883,"Ġsystems":10884,"sqlite":10885,"ĠAuthor":10886,"ĠCloud":10887,"nail":10888,"ĠĠĠĠĠĠĠĠĠĠĠĠĠĠĠĠĊ":10889,"Ġwon":10890,"INVALID":10891,"DIRECT":10892,"wqe":10893,"åīį":10894,"animation":10895,"691":10896,"MessageEntity":10897,"Ġ2012":10898,"576":10899,"ajor":10900,"bn":10901,"åĭ":10902,"sto":10903,"usion":10904,"Ġ/\\":10905,"STC":10906,"ALIGN":10907,"formance":10908,"Transp":10909,"Shared":10910,"ygon":10911,"Tile":10912,"Ġgrow":10913,"087":10914,"2514":10915,"ACTER":10916,"wc":10917,"refresh":10918,"447":10919,"Ġbuilding":10920,"ĠâĪ":10921,"fuel":10922,"linearize":10923,"029":10924,"}).":10925,"Ġcome":10926,"(*)":10927,"Ġconfigure":10928,"Automatic":10929,"BAR":10930,"Round":10931,"intro":10932,"izard":10933,"models":10934,"________________________________":10935,"Ġcertain":10936,"ĠMove":10937,"REEN":10938,"ĠHost":10939,"Ġexecuted":10940,"Ġwrong":10941,"536":10942,"Ġ×Ķ":10943,"(/":10944,"Ġdialog":10945,"Ġgp":10946,"ĠUnknown":10947,"ĠParent":10948,"COD":10949,"cached":10950,"pping":10951,"ained":10952,"KNOWN":10953,"325":10954,"isms":10955,"Decode":10956,"åĬł":10957,"COMMAND":10958,"\\>\\":10959,"ç¥":10960,"ĠCustom":10961,"indices":10962,"Answer":10963,"Bi":10964,"Da":10965,"QL":10966,"éł":10967,"Now":10968,"ĠPlayer":10969,"Ġ[-":10970,"Ġ2020":10971,"ĠProgram":10972,"ĠDOUBLE":10973,"Ġhit":10974,"exports":10975,"ARB":10976,"Ġsuccessful":10977,"Ġlar":10978,"locks":10979,"Ġready":10980,"vnd":10981,"Ġdestroy":10982,"Ġ\\(":10983,"seen":10984,"Ġdd":10985,"Ġleading":10986,"ĠINTER":10987,"Ġstdcall":10988,"descr":10989,"Ð³":10990,"Ġprefer":10991,"ĠFl":10992,"Ġgt":10993,"åľ°":10994,"ĠTIMES":10995,"]_":10996,"ĠĠĠĠĠĠĠĠĠĠĠĠĠĠĠĠĠĠĠĠĠĠĠĠĠĠĠĠĠĠĠĠĠĠĠĠĠĠĠĠĠĠĠĠĠĠĠĠĠĠĠĠĠĠĠ":10997,"Ġimages":10998,"çĶŁ":10999,"MV":11000,"Ġsorted":11001,"YTIME":11002,"wall":11003,"sbinfo":11004,"mkv":11005,"pag":11006,"ouch":11007,"\\\\.":11008,"ĠCOPYRIGHT":11009,"ĠURI":11010,"Temperature":11011,",--,--,--,--,":11012,"Spr":11013,"onical":11014,"Ġ1998":11015,"Ġgreen":11016,"Ġ/></":11017,"Ġsynchron":11018,"mime":11019,"slide":11020,"notification":11021,"Ġlogical":11022,"invokeWith":11023,"xD":11024,"Regex":11025,"wm":11026,"283":11027,"Ġinstances":11028,"Ġexplicitly":11029,"TU":11030,"freq":11031,"ATURE":11032,"Ġ[^":11033,"IBUT":11034,"PB":11035,"tif":11036,"repository":11037,"ĉĉĉĠĠĠĠ":11038,"Ġrv":11039,"umpt":11040,"asset":11041,"ract":11042,"caled":11043,"Ġguard":11044,"+\"":11045,"Hidden":11046,"Ġ{};":11047,"Ġ400":11048,"340":11049,"Ġemission":11050,"ä¹ĭ":11051,"oring":11052,"1500":11053,"/*!":11054,"plain":11055,"Ġcreation":11056,"uh":11057,"Disk":11058,"Ġix":11059,"Ġsnd":11060,"ĠSIZE":11061,"STORE":11062,"ĠAllow":11063,"}_{":11064,"Environment":11065,"////////////////////////////////////////////////////////////////":11066,"circle":11067,"bash":11068,"ĠEntry":11069,"flu":11070,"mq":11071,"ilinx":11072,"Ġdet":11073,"262":11074,"dividual":11075,"hesis":11076,"wi":11077,"starts":11078,"496":11079,"åĻ":11080,"æĥ":11081,"perf":11082,"Recent":11083,"Union":11084,"COND":11085,"Cluster":11086,"Ġdamage":11087,"ides":11088,"selector":11089,"cipe":11090,"Ġdependency":11091,"EOF":11092,"feng":11093,"lz":11094,"ving":11095,"Ġ())":11096,"embed":11097,"toChars":11098,"?,":11099,"ooool":11100,"ĠReference":11101,"!=":11102,"mis":11103,"Ġfilesystem":11104,"Ġexecutable":11105,"pct":11106,"Ġpun":11107,"ĠĠĠĠĠĊ":11108,"Ġopacity":11109,"azure":11110,"Ve":11111,"heap":11112,"373":11113,"ĠResource":11114,"uffle":11115,"RF":11116,"IMAGE":11117,"_-_":11118,"days":11119,"zA":11120,"å¥":11121,"Ġ06":11122,"TYP":11123,"atimestamp":11124,"BUTTON":11125,"qs":11126,"recur":11127,"Ġtransparent":11128,"NotifySettings":11129,"é»ŀ":11130,"Ġsimply":11131,"ĠProblemFilters":11132,"Ġà¦":11133,"Ġdelimit":11134,"udit":11135,"Ġabort":11136,"Ġlittle":11137,"485":11138,"NAM":11139,"Brush":11140,"imated":11141,"ials":11142,"lindex":11143,"éĩį":11144,"Ġothers":11145,"angular":11146,"Permission":11147,"ĠFIXME":11148,"799":11149,"Music":11150,"XT":11151,"fno":11152,"070":11153,"ROID":11154,"jz":11155,"locale":11156,"Ġaccum":11157,"Scal":11158,"INED":11159,"Ġguarante":11160,"Ġrelation":11161,"Ġrc":11162,"Ġproduction":11163,"642":11164,"Ġundef":11165,"Ġsigned":11166,"NORM":11167,"chk":11168,"=\"${":11169,"abstract":11170,"fog":11171,"Priority":11172,"Ġfurther":11173,"hist":11174,"(\".":11175,"Ġcompiled":11176,"connected":11177,"Monitor":11178,"Ġteam":11179,"Ġsatis":11180,"392":11181,"Ġgeneration":11182,"Ln":11183,"Ġmmap":11184,"ĠCS":11185,"Ġtogether":11186,"Ġ336":11187,"itemize":11188,"Ġschedule":11189,"`).":11190,"æ¯":11191,"380":11192,"latest":11193,"Ġcalculate":11194,"TOKEN":11195,"Scan":11196,"unfinished":11197,"Ġfails":11198,"374":11199,"Bad":11200,"Caption":11201,"Wno":11202,"Ġhorizontal":11203,"privacy":11204,"ĠProperty":11205,"navig":11206,"Ġtemporary":11207,"Disable":11208,"Rotation":11209,"ĠÐ¸":11210,"******":11211,"ĠVert":11212,"NF":11213,"272":11214,"IABLE":11215,"disk":11216,"Ġfreelist":11217,"DSET":11218,"ivation":11219,"ĠLanguage":11220,"REQUEST":11221,"isEmpty":11222,"\\>\\<#":11223,"Cert":11224,"UG":11225,"quit":11226,"beam":11227,"Ġassigned":11228,"-(":11229,"408":11230,"Ġanalysis":11231,"Alt":11232,"ĠDuration":11233,"Ġrd":11234,"Ġfollows":11235,"entities":11236,"Ġ150":11237,"Share":11238,"Ġbackend":11239,"%!":11240,"dz":11241,"lr":11242,"Ġdigits":11243,"outState":11244,"Ġelt":11245,"ĠSQLM":11246,"-----------------------------------------------------------------------":11247,"CLIENT":11248,"ĠInterface":11249,"pretation":11250,"!)":11251,"COMPILE":11252,"nid":11253,"643":11254,"Ġanimation":11255,"LIVM":11256,"']\",":11257,"loss":11258,"AAA":11259,"ICATION":11260,"ãĤĮ":11261,"Anno":11262,"Ġlinks":11263,"Ġescape":11264,"875":11265,"Tx":11266,"-->":11267,"izable":11268,"Ġsep":11269,"listen":11270,"Ġjump":11271,"!.":11272,"EVENT":11273,"aled":11274,"ĠPresent":11275,"Ġ(!$":11276,"BOX":11277,"<<__":11278,"Tip":11279,"ued":11280,"693":11281,"Ġcycle":11282,"Hook":11283,"ĠAWS":11284,"scape":11285,"éĺ²":11286,"111001000":11287,"andalone":11288,"Ġcells":11289,"levant":11290,"iÃ³n":11291,"vari":11292,"Ġdepends":11293,"stricted":11294,"kr":11295,"rho":11296,"defer":11297,"1300":11298,"Ġdevices":11299,"multip":11300,"rss":11301,"ĠGe":11302,"IEW":11303,"MFPD":11304,"VEND":11305,"aque":11306,"inState":11307,"241":11308,"Ġnothrow":11309,"Ġdoing":11310,"linfeng":11311,"261":11312,"åįĹ":11313,"DSETest":11314,"DLL":11315,"tell":11316,"00001":11317,"tasks":11318,"ÂłÂł":11319,"\\]":11320,"ĠMar":11321,"Ġseem":11322,"2222":11323,"åıĸ":11324,"derive":11325,"Ġhomeassistant":11326,"Ġblack":11327,"vest":11328,"0625":11329,"Ġpretty":11330,"ĠSets":11331,"1111110111001000":11332,"åĻ¨":11333,"ancy":11334,"489":11335,"556":11336,"APW":11337,"Plan":11338,"tbl":11339,"ĠSince":11340,",\"['":11341,"partition":11342,"metrics":11343,"ROL":11344,"dependency":11345,"å¼±":11346,"itute":11347,"Ġssl":11348,"Ġrecent":11349,"ĠAg":11350,"Ġconv":11351,"ĠWC":11352,"ourse":11353,"393":11354,"554":11355,"ASC":11356,"archy":11357,"ĠRecord":11358,"preserve":11359,"CIAL":11360,"Ġdesired":11361,"Ġpeek":11362,"Ġbook":11363,"))(":11364,"=\"&":11365,"ĠAli":11366,"Ġhook":11367,"ĠDon":11368,"Attach":11369,"Ġslabs":11370,"Ġtrunc":11371,"strees":11372,"Ġ\".\"":11373,"Ġ{-":11374,"ĠTool":11375,"ĠDel":11376,"00000000000000":11377,"453":11378,"ĠJS":11379,"Ġmodels":11380,"Ġpgoff":11381,"drag":11382,"662":11383,"testing":11384,"schools":11385,"microblink":11386,"ĠASC":11387,"ATIVE":11388,"SPACE":11389,"->{$":11390,"folio":11391,"pic":11392,"Ġdy":11393,"Then":11394,"brk":11395,"Ġcombin":11396,"?;":11397,"sil":11398,"Ġ(_,":11399,"ĠTry":11400,"quiet":11401,"dropdown":11402,"Toggle":11403,"ĠCLEAR":11404,"Ġrt":11405,"ĠGRO":11406,"DeclareInput":11407,"Ġmu":11408,"åĨħ":11409,"Lookup":11410,"_%":11411,"Ġencoded":11412,"erator":11413,"country":11414,"Ġ123":11415,"prof":11416,"Ġadding":11417,"Ġcolspan":11418,"Registry":11419,"channelAdminLogEventAction":11420,"ĠChannelAdminLogEventAction":11421,"RNG":11422,"à¹":11423,"--;":11424,"maj":11425,"0009":11426,"die":11427,"bootstrap":11428,"Ġpeople":11429,"Ð±":11430,"terms":11431,"Ġequ":11432,"484":11433,"487":11434,"ëĬ":11435,"Ġwarn":11436,"VI":11437,"Ġretry":11438,"Ġlex":11439,"CLANG":11440,"ĠArgument":11441,"\\'":11442,"Ġwx":11443,"igure":11444,"antics":11445,"================================================":11446,"variables":11447,"ĠIdentifier":11448,"Master":11449,"cgo":11450,"Ġlinux":11451,"nonce":11452,"KB":11453,"Lf":11454,"iece":11455,"julia":11456,"Ġhistory":11457,"versions":11458,"MAIN":11459,"cred":11460,"075":11461,"æ¨":11462,"ully":11463,"ĠIdent":11464,"lips":11465,"RELEASE":11466,"0862":11467,"processing":11468,"FM":11469,"ĵ</":11470,"Ġpolicy":11471,"Ġcomplet":11472,"Ġpara":11473,"Alloc":11474,"confirm":11475,"ĠUnivers":11476,"Ð°ÑĤ":11477,"VENDOR":11478,"HAND":11479,"zn":11480,"Ġwalk":11481,"curr":11482,"Bracket":11483,"oratimestamp":11484,"Ġmag":11485,"Ġlibraries":11486,"previous":11487,"Expected":11488,"Ġdebugging":11489,"GOH":11490,"1999":11491,"895":11492,"Ġebx":11493,"Ġxor":11494,"Stage":11495,"2277":11496,"Ġallocation":11497,"ãģ¾":11498,">âĨĵ</":11499,"Classes":11500,"FROM":11501,"Hub":11502,"çł":11503,"ĠSIG":11504,"prom":11505,"Ġvarious":11506,"ĠFill":11507,"Ø§ÙĦ":11508,"ĠUtils":11509,"Ġmt":11510,"********************************************************************************":11511,"initialize":11512,"ĠRETURNING":11513,"HL":11514,"fragment":11515,"repl":11516,"ermine":11517,"APPEND":11518,"Fix":11519,"Ġreturning":11520,"arency":11521,"loading":11522,"Unique":11523,"#\"":11524,"å¯¹":11525,"GPL":11526,"xi":11527,"submit":11528,"hib":11529,"unce":11530,"Ġseper":11531,"Tech":11532,"Closed":11533,"805":11534,"Cannot":11535,"KUBE":11536,"MULT":11537,"1600":11538,"implicit":11539,"Timestamp":11540,"Car":11541,"ABS":11542,"Ġcolors":11543,"icture":11544,")_":11545,"GUI":11546,"Under":11547,"æ´":11548,"ĠGr":11549,"085":11550,"ĠdataType":11551,"ĠINFO":11552,"ĠPROVID":11553,"\"\\":11554,"ÄĽ":11555,"DEC":11556,"ĠSPACES":11557,"Ġrewrite":11558,"Ġunlock":11559,"370":11560,"Ġposs":11561,"Virtual":11562,"hid":11563,"Ġgs":11564,"0007":11565,"292":11566,"configure":11567,"xyz":11568,"Copyright":11569,"'!":11570,"abic":11571,"subrc":11572,"Ġphase":11573,"Ġgranted":11574,"/#":11575,"MW":11576,"oreground":11577,"CTL":11578,"):-":11579,"å§Ķä¼ļ":11580,"ĠCHECK":11581,"ĠOne":11582,"Constraints":11583,"subset":11584,"ĠTemplate":11585,"éļĬ":11586,"ĠDateTime":11587,"bined":11588,"ĠACC":11589,"sendMessage":11590,"Termin":11591,"468":11592,"Ġdu":11593,"ĠUsing":11594,"poll":11595,"Fire":11596,"Skip":11597,"ena":11598,"ĠFT":11599,"ĠLemma":11600,"predicate":11601,"Ġangle":11602,"463":11603,"mkdir":11604,"30403":11605,"/{":11606,"Ġfault":11607,"FileType":11608,"Separator":11609,"ociation":11610,"Ratio":11611,"ĠSPE":11612,"Ġlogin":11613,"ĠSettings":11614,"ĠLOG":11615,"popup":11616,"initialized":11617,"Ġmen":11618,"ĠEng":11619,"article":11620,"Encode":11621,"bk":11622,"à´®":11623,"Ġcomma":11624,"Services":11625,"gw":11626,"ĠSrc":11627,"Ġ@@":11628,"([\\":11629,"Party":11630,"Ã§Ã£o":11631,"ä¼į":11632,",\"['/":11633,"Gif":11634,"Ġ=================================================================":11635,"Ġ*/;":11636,"Ġtools":11637,"ç¤º":11638,"bre":11639,"amble":11640,".\";":11641,"ĠMIT":11642,"POINT":11643,"Poly":11644,"å¼±é»ŀ":11645,"616":11646,"Created":11647,"stm":11648,"moji":11649,"Ġrecords":11650,"oi":11651,"alv":11652,"084":11653,"Ġ<<__":11654,"MOVE":11655,"977":11656,"Ġdimensions":11657,"WISE":11658,"ables":11659,"1907":11660,"ĠCLASS":11661,"éļĬä¼į":11662,"GSU":11663,"ĠLen":11664,"ĠReserved":11665,"æĢ§":11666,"çĤ¹":11667,"bon":11668,"dummy":11669,"oct":11670,"Ġtaken":11671,"crefname":11672,"mMin":11673,"ĠPCI":11674,"271":11675,"Endpoint":11676,"processor":11677,"ĠInstall":11678,"TripCount":11679,"Extra":11680,"20030403":11681,"encrypted":11682,"ĠLevel":11683,"æŀľ":11684,"302":11685,"mMax":11686,"alty":11687,"åĢ¼":11688,"KS":11689,"Ġmysql":11690,"Ġdistinct":11691,"íķĺ":11692,"Ġstuff":11693,"Ġgc":11694,"Ġgap":11695,"Ġ329":11696,"âĤģ":11697,"NI":11698,"Nu":11699,"UIG":11700,"ĉĉčĊ":11701,"Ġlhs":11702,"ĠGR":11703,"Ã©s":11704,"ĠMatrix":11705,"instr":11706,"Headers":11707,"Ġconsidered":11708,"626":11709,"ĠFL":11710,"views":11711,"catalog":11712,"detail":11713,"Ġaff":11714,"ĠNon":11715,"Ġcontinu":11716,"ttt":11717,"monitor":11718,"ĠMessageEntity":11719,"æ¬Ħ":11720,"605":11721,"itation":11722,"Ġpkg":11723,"\\\"))":11724,"Sys":11725,"Ġpod":11726,"ĠSum":11727,"ãĥª":11728,"MODULES":11729,"oooooooooo":11730,"Ġ({":11731,"unix":11732,"ĠAfter":11733,"IMARY":11734,"implify":11735,"agnostic":11736,"fac":11737,"Ġdrag":11738,"331":11739,"Ġapplications":11740,"vh":11741,"Ġ(/":11742,"=\"$":11743,"Ġlogger":11744,"Ready":11745,"Ġloading":11746,"Recording":11747,"Ġfeed":11748,"tcl":11749,"×ł":11750,"ìł":11751,"åı¯ä»¥":11752,"ĠRel":11753,"ISO":11754,"(([":11755,"ĠColors":11756,"ĠLOOKUP":11757,"ç©ºæ¬Ħ":11758,"Dup":11759,"×ª":11760,"Ġ'{":11761,"rief":11762,"LEX":11763,"Sl":11764,"cod":11765,"()</":11766,"noindent":11767,"DEFINES":11768,"Ġvertex":11769,"ä¿¡":11770,"BM":11771,"Ġthink":11772,"Convert":11773,"ĠSTAT":11774,"Ġunderlying":11775,"priority":11776,"Done":11777,"},{\"":11778,"Ġparallel":11779,"æĭ":11780,"Green":11781,"æģ":11782,"buff":11783,"ĠWRK":11784,"WK":11785,"VERT":11786,"Ġplus":11787,",(":11788,"ball":11789,"497":11790,"æİ¥":11791,"=/":11792,"Ġ93":11793,"Ġpercent":11794,"Requested":11795,"QT":11796,"toBe":11797,"Exported":11798,"FilePath":11799,"PTkZ":11800,"TEXTURE":11801,"PTkZJR":11802,"jk":11803,"coin":11804,"ĠMAP":11805,"implementation":11806,"ĠReport":11807,"å»º":11808,"FACE":11809,"ENC":11810,"ĠLoop":11811,"éĥ¨":11812,"ctype":11813,"riter":11814,"ĠSession":11815,"AUTH":11816,"Ġce":11817,"arest":11818,"JavaScript":11819,"#!/":11820,"Cor":11821,"HB":11822,"VX":11823,"olt":11824,"ĠPackage":11825,"4700":11826,"065":11827,"Ġkw":11828,"TOOL":11829,"dots":11830,"Ġmapped":11831,"ĠStore":11832,"diag":11833,"ĠStruct":11834,"Ġinvok":11835,"ih":11836,"arity":11837,"idle":11838,"1400":11839,"291":11840,"ĠCOLL":11841,"vuejs":11842,"defmacro":11843,"ĠVoid":11844,"Chain":11845,"ĠYY":11846,"å¼Ģ":11847,"625":11848,"Ġ2022":11849,"toolbar":11850,"æķµ":11851,"maps":11852,"åħ¥":11853,"ĠDIVISION":11854,"SAT":11855,"åŀ":11856,"éĸ":11857,"secs":11858,"units":11859,"Resolution":11860,"åŃ¦":11861,"æĸ¹éļĬä¼į":11862,"728":11863,"Rx":11864,"ĠIND":11865,"tos":11866,"Ġattached":11867,"Ġbucket":11868,"requires":11869,"<:":11870,"aco":11871,"ĠWhether":11872,"EAR":11873,"cq":11874,"ï¸":11875,"ĠIcon":11876,"ĠObj":11877,"Also":11878,"ahk":11879,"Ġcopied":11880,"/_":11881,"ENTITY":11882,"()),":11883,"snapshot":11884,"Ġanswer":11885,"LEAN":11886,"949":11887,"MESSAGE":11888,"Hand":11889,"algorithm":11890,"ĠGFP":11891,"Ġseen":11892,"allocate":11893,"à¤°":11894,"cycle":11895,"Mix":11896,"zoom":11897,"}),":11898,"692":11899,"@.":11900,"Und":11901,"7777":11902,"NSString":11903,"Descriptor":11904,"invokeWithLayer":11905,"741":11906,"udp":11907,"charge":11908,"PROTO":11909,"è®¾":11910,"simulated":11911,"-$":11912,"tras":11913,"TN":11914,"Ġannot":11915,"0005":11916,"THON":11917,"Pipeline":11918,"410":11919,"ZERO":11920,"gtr":11921,"uous":11922,"Ġdark":11923,"quant":11924,"Ġintent":11925,"ĠĠĠĠĠĠĠĠĠĠĠĠĠĠĠĠĠĠĠĠĊ":11926,"*----------------------------------------------------------------------":11927,"VN":11928,"zOrder":11929,"Ġbeginning":11930,"Ġpathname":11931,"ĠRule":11932,"AutoSA":11933,"Ġoccurre":11934,"Distance":11935,"$=\"":11936,"ĠSAS":11937,"1800":11938,"ãģĻãĤĭ":11939,"Wrapper":11940,"733":11941,"Used":11942,"gdx":11943,"Cons":11944,"383":11945,"warded":11946,"466":11947,"864":11948,"uzz":11949,"Thrift":11950,"Colors":11951,"æķµæĸ¹éļĬä¼į":11952,"TMY":11953,"Ġiex":11954,"ĠCUR":11955,"ĠGUI":11956,"pot":11957,"updated":11958,"textarea":11959,"ĠXML":11960,"å¤ļ":11961,"Ġhelper":11962,"Ġslow":11963,"tran":11964,"verb":11965,"states":11966,"Ġfloating":11967,"åĲİ":11968,"wf":11969,"Ġ\"{":11970,"Ġmg":11971,"Ġprobably":11972,"Ġ104":11973,"Ġstatements":11974,"Ġexamples":11975,"Ġcached":11976,"403":11977,"RA":11978,"logs":11979,"ĠInvalid":11980,"epsz":11981,"Month":11982,"More":11983,"]'":11984,"Ġff":11985,"Arr":11986,"Ġ]]":11987,"PanelLabel":11988,"ĠBYTE":11989,"ĠDAMAGES":11990,"=.":11991,"Ġ110":11992,"ĠTP":11993,")))))))":11994,"HEADER":11995,"UIForeground":11996,"UIGlow":11997,"ï¸ı":11998,"jmp":11999,"Ġ\"!":12000,"ĠPut":12001,"Ġdemand":12002,"Stamp":12003,"localizedPanelLabel":12004,"gm":12005,"Ġasc":12006,"ĠCASE":12007,"ĠThat":12008,"Enc":12009,"Resolver":12010,"goal":12011,"DfPipe":12012,"must":12013,"()]":12014,"Ġ2014":12015,"AIM":12016,"Ġfp":12017,"ĠApi":12018,"ĠLa":12019,"ĠGu":12020,"ĠHOLD":12021,"netes":12022,"Ġimmutable":12023,"vr":12024,"Ġ<.":12025,"ĠMESS":12026,"External":12027,"commands":12028,"677":12029,"fname":12030,"ĠTri":12031,"META":12032,"Tok":12033,"Mag":12034,"TZ":12035,"ĠFE":12036,"proj":12037,"stylesheet":12038,"å®ī":12039,"havi":12040,"Hh":12041,"dif":12042,"gfp":12043,"SCI":12044,"machine":12045,"Ġrepresenting":12046,"åŃĹ":12047,"ĠpreserveAspect":12048,"ubernetes":12049,"_[":12050,"nÃŃ":12051,"uge":12052,"FFE":12053,"Ġje":12054,"Ġaddition":12055,"?>":12056,"SETQ":12057,"ĠAUTO":12058,"æĪĳä»¬":12059,"GIT":12060,"Ġccall":12061,"opacity":12062,"282":12063,"dbg":12064,"Ġ×ķ":12065,"\\<":12066,"]</":12067,"ĠSc":12068,"596":12069,"poses":12070,"Ġsuc":12071,"Ġimportant":12072,"å·ŀ":12073,"420":12074,"endmodule":12075,"ĠDi":12076,"Ġ%_":12077,"('#":12078,"Ġresolved":12079,"pci":12080,"Ġ{{{":12081,"adj":12082,"mock":12083,"Ġouter":12084,"Ġfinish":12085,"ĠOBJECTS":12086,"DeclareInputText":12087,"Ġseperated":12088,"Es":12089,"ibly":12090,"Ġlistener":12091,"ĠSocket":12092,"OVER":12093,"gnat":12094,"Ġwrapper":12095,"aes":12096,"tb":12097,"ermin":12098,"Ġ[%":12099,"ĠFlash":12100,"topic":12101,"æĹ¥":12102,"nm":12103,"nod":12104,"aru":12105,"Ġ180":12106,"asy":12107,"Ġrank":12108,"acct":12109,"Ġzcx":12110,"VA":12111,"got":12112,"Î³":12113,"ĠDirect":12114,"ENDCLASS":12115,"many":12116,"Updated":12117,"æį®":12118,"zÃŃ":12119,"Ġpatch":12120,"sprint":12121,"Ġ2016":12122,"ĠStorage":12123,"Ð¶":12124,"ĠÄ":12125,"andatory":12126,"ĠClose":12127,"extensions":12128,"ĠBl":12129,"ABC":12130,"890":12131,"Ġadreno":12132,"ìŀ":12133,"Ġnested":12134,"Ġmova":12135,"protobuf":12136,"ìĦ":12137,"hostname":12138,"ëĬĶ":12139,"Ġinactive":12140,"workspace":12141,"Variant":12142,"Ł¥":12143,"Ġpython":12144,"ĠFO":12145,"ANY":12146,"vention":12147,"HLS":12148,"Ġthing":12149,"typeID":12150,"\"){":12151,"listener":12152,"342":12153,"Ġparsing":12154,"Ġabbrev":12155,"metic":12156,"cookie":12157,"measuredH":12158,"measuredW":12159,"Ġcos":12160,"Ġstamp":12161,"Ġemp":12162,"TransformWindow":12163,"RGBColor":12164,"éĶ":12165,"Ġfour":12166,"Ġprocessed":12167,"ALS":12168,"Failure":12169,"fla":12170,"erce":12171,"Ġretain":12172,"ĠRoot":12173,"ĠNormal":12174,"550":12175,"definitions":12176,"ç¥ŀ":12177,"ÙĬ":12178,"åĿ":12179,"ĠAlt":12180,"avatar":12181,"ampler":12182,"minus":12183,"ĠINST":12184,"ĠPRIVATE":12185,"SAMP":12186,"EncryptedFile":12187,"Ġdynlib":12188,"Ġring":12189,"Measure":12190,"messageEntity":12191,"udy":12192,"Ġlocked":12193,"ĠTech":12194,"eof":12195,"fk":12196,"ĠMust":12197,"figure":12198,"Segment":12199,"à´µ":12200,"ĠInputMedia":12201,"Ġsleep":12202,"Ġ{#":12203,"Ġprops":12204,"Ġexperimental":12205,"Complex":12206,"ffffff":12207,"ATTRIB":12208,"Ġhigher":12209,"ĠBind":12210,"ĠDevice":12211,"341":12212,"Ġuuid":12213,"written":12214,"FRAME":12215,"ĠConfiguration":12216,"Nov":12217,"Î¯":12218,"Ġpci":12219,"Ġbuffers":12220,"Tick":12221,"Ġbtn":12222,"LED":12223,"ĠPATH":12224,"Ġgcc":12225,"Ġextern":12226,"inputMedia":12227,"ĠSUBROUTINE":12228,"regexp":12229,"064":12230,"encoder":12231,"Ġthough":12232,"mainder":12233,"351":12234,"Printer":12235,"Tot":12236,"Ġshl":12237,"584":12238,"Ġ(.-":12239,"bridge":12240,"Ġhot":12241,"Python":12242,"TV":12243,"ĠSDL":12244,"ĠPROGRAM":12245,"Keyboard":12246,"Writable":12247,"Ġexactly":12248,"'];":12249,"Ip":12250,"eros":12251,"ĠSC":12252,"Ġletter":12253,"Ð»Ð¸":12254,"âķĲâķĲâķĲâķĲ":12255,"browser":12256,"ĠFORCE":12257,"ĠLocation":12258,"BP":12259,"Try":12260,"gQ":12261,"Ġpaste":12262,"Ġmeasure":12263,"Partition":12264,"'ve":12265,"BEGIN":12266,"pow":12267,"launch":12268,"()`":12269,"Ġchr":12270,"bindings":12271,"bing":12272,"olute":12273,"ĠPRECISION":12274,"Dependencies":12275,"**********":12276,"Converter":12277,"Ð¾ÑĢ":12278,"Ġdirectories":12279,"illian":12280,"STEP":12281,"Ġ}];":12282,"clr":12283,"780":12284,"deepord":12285,"Ġssize":12286,"Ġbroadcast":12287,"Ġinte":12288,"iga":12289,"Formal":12290,"Checked":12291,"visit":12292,"åħĥ":12293,"cpy":12294,"Ġnl":12295,"ĠCaption":12296,"elseif":12297,"lined":12298,"chozÃŃ":12299,"ĠResponse":12300,"Ġlambda":12301,"Ġeverything":12302,"377":12303,"WO":12304,"ĠBasic":12305,"Ġfollowed":12306,"Execution":12307,"ivative":12308,"registry":12309,"4000":12310,"INLINE":12311,"clang":12312,"Ġksm":12313,"DataValue":12314,"ĠINCLUDING":12315,"ranges":12316,"417":12317,"Ms":12318,"dg":12319,"regs":12320,"seek":12321,"Ġpres":12322,"Functions":12323,"Ġsuccessfully":12324,"ĠSHA":12325,"UC":12326,"peek":12327,"0400":12328,"ĠDELETE":12329,"pck":12330,"ĠFull":12331,"ORkl":12332,"Ġthreads":12333,"rotate":12334,"accounting":12335,"Ġinstanceof":12336,"Signal":12337,"QQ":12338,"mpol":12339,"Ġlcl":12340,"ĠLook":12341,"FFmpeg":12342,"transaction":12343,"optim":12344,"ĠCompute":12345,"ETHER":12346,"sld":12347,"Ġstdout":12348,"TOTAL":12349,"557":12350,"fdt":12351,"={'":12352,"Relative":12353,"TAL":12354,"ĉĉĉĉĠĠ":12355,"Ġhaving":12356,"ances":12357,"897":12358,"btle":12359,"ReplyMarkup":12360,"èµ":12361,"Ġrestart":12362,"Ġxxx":12363,"Ġvariant":12364,"690":12365,"ILER":12366,"Ġ×©":12367,"Branch":12368,"ç±»":12369,"464":12370,"çŃ":12371,"Ġlatest":12372,"EK":12373,"ENSION":12374,"Ġcharge":12375,"loyment":12376,"Ġsupplied":12377,"rhs":12378,"ongs":12379,"Procedure":12380,"Ġvalign":12381,"macros":12382,"SHARED":12383,"ĠLANGUAGE":12384,"Li":12385,"Oct":12386,"ulse":12387,"ullet":12388,"mak":12389,"Ġblank":12390,"clusion":12391,"AZ":12392,"Sel":12393,"vx":12394,"DESCRIPT":12395,"Ġcomparison":12396,"blems":12397,"ARGS":12398,"ĠCONSTANT":12399,"uj":12400,"Ġing":12401,"Ġproduce":12402,"Apply":12403,"Suffix":12404,"Ġholds":12405,"pragma":12406,"Ġedges":12407,"mass":12408,"Ġchoose":12409,"281":12410,"à´ª":12411,"secondary":12412,"DOM":12413,"Percent":12414,"basicDataValue":12415,"measuredValue":12416,"Ġattack":12417,"405":12418,"Fold":12419,"Ġ97":12420,"half":12421,"WINDO":12422,"507":12423,"wheel":12424,"//!":12425,"asci":12426,"ĠRelease":12427,"Ġcomputation":12428,"vÃ½":12429,"without":12430,"Ġtransfer":12431,"ĠMESSAGE":12432,"ORklHX":12433,"liver":12434,"NotFound":12435,"abe":12436,"quillian":12437,"aret":12438,"Ġorig":12439,"CTYPE":12440,"Geometry":12441,"ĠCOLLATE":12442,"GUID":12443,"Ġpast":12444,"ĠALI":12445,"ĠLinux":12446,"quantity":12447,"Ġroll":12448,"BS":12449,"Ck":12450,"Future":12451,"ĠNov":12452,"Ġunion":12453,"Ġcreates":12454,"ãĥ¼ãĤ":12455,">:":12456,"EST":12457,"Pressed":12458,"Ġ\"*":12459,"illic":12460,"Ġregard":12461,"Org":12462,"publish":12463,"_|":12464,"ĠPur":12465,"ĠMS":12466,"PSU":12467,"router":12468,"1034":12469,"ALI":12470,":@\"":12471,"ĠCreated":12472,"ĠNil":12473,"INC":12474,"Ġ|\\":12475,"Ġ92":12476,"Username":12477,"Ġ×ŀ":12478,"ĠAbstract":12479,"636":12480,"Hi":12481,"XF":12482,"hdl":12483,"toc":12484,"953":12485,"readonly":12486,"inputMessagesFilter":12487,"20180":12488,"Ġseveral":12489,"ĠMessagesFilter":12490,"recogn":12491,"ĠYour":12492,"retval":12493,"smart":12494,"ĠMYSQL":12495,"until":12496,"Ġalignment":12497,"Ġunread":12498,"nodetype":12499,"general":12500,"ĠFIELD":12501,"Ġinitialization":12502,"illiseconds":12503,"ĠAUTH":12504,"415":12505,"ĠMaterial":12506,"(\"\",":12507,"Unicode":12508,"Angle":12509,"news":12510,"726":12511,"391":12512,"Ġroom":12513,"claimer":12514,"hat":12515,"enix":12516,"what":12517,"ĠEXPRESS":12518,"766":12519,"curl":12520,"ĠONE":12521,"Ġ'*'":12522,"Ġshr":12523,"ĠCharacter":12524,"eclipse":12525,"Ġaddresses":12526,"580":12527,"credent":12528,"JK":12529,"VG":12530,"geometry":12531,"752":12532,"-----------------------------------------------------------------------------":12533,"301":12534,"pick":12535,"Ġcanvas":12536,"Bundle":12537,"Ġage":12538,"GSUdf":12539,"/<":12540,"Payload":12541,"emu":12542,"Ġglyph":12543,"11111111":12544,"Tests":12545,"cleanup":12546,"ĠBegin":12547,"Dh":12548,"Ġdeclarations":12549,"logies":12550,"586":12551,"([^":12552,"who":12553,"ĠCollection":12554,"ĠSendMessageAction":12555,"Press":12556,"Ġ*.":12557,"rient":12558,"maximum":12559,".__":12560,"Att":12561,"CAR":12562,"æ°":12563,"ĠAv":12564,"ĠCond":12565,"ScriptDir":12566,"'+":12567,"Ġ\"}\"}]}],":12568,"SIC":12569,"digit":12570,"Ġ999":12571,"Ġĉĉĉĉĉĉĉ":12572,"ĠSqrt":12573,"Partitions":12574,"Ġlazy":12575,"Ġselector":12576,"standing":12577,"Ġfilled":12578,"ĠLEN":12579,"Latin":12580,"ç¦¦":12581,"éĺ²ç¦¦":12582,")];":12583,"505":12584,"yz":12585,"rac":12586,"Ġimpro":12587,"ĠStop":12588,"}}],":12589,"Ġdistribute":12590,"Ð¾Ð»":12591,"vet":12592,"ampling":12593,"ELSE":12594,"Ġ.;":12595,"Ġpinned":12596,"ç¼ĸ":12597,"535":12598,"577":12599,"WI":12600,"]|":12601,"nes":12602,"Ġtt":12603,"BITS":12604,"bazel":12605,"udo":12606,"Øª":12607,"notes":12608,"åĮĸ":12609,"kernels":12610,"WHEN":12611,"bank":12612,"Ġvim":12613,"ando":12614,"Ġ@\"":12615,"ĠGC":12616,"Ġarbit":12617,"ĠĠĠĠĠĠĠĠĠĠĊ":12618,"ãĥ«":12619,"Ġwindows":12620,"Ġfilters":12621,"Ġconnected":12622,"æĿ¥":12623,"*----------------------------------------------------------------------*":12624,"sprintf":12625,"éĺ²ç¦¦åĬĽ":12626,"bum":12627,"cular":12628,"Ġ0000000000000000000000000000000000000000000000000000000000000000":12629,"}/${":12630,"Period":12631,"equation":12632,"čččĊ":12633,"ĠĠĠĠĠĠĠĠĠĠĠĠĠĠĠĠĠĠĠĠĠĠĠĠĠĠĠĠĠĠĠĠĠĠĠĠĠĠĠĠĠĠĠĠĠĠĠĠĠĠĠĠĠĠĠĠ":12634,"qt":12635,"Sep":12636,"Ġargv":12637,"Ġconfigured":12638,"ĠParser":12639,"SimplePlugin":12640,"ç¬¬":12641,"ensure":12642,"Ġchars":12643,"/${":12644,"MATCH":12645,"598":12646,"ê°":12647,"0200":12648,"480":12649,"presentation":12650,"ĠQtQuick":12651,"503":12652,"MIS":12653,"SUM":12654,"gd":12655,"slash":12656,"Ġaux":12657,"abort":12658,"ipedia":12659,"Ġsubstr":12660,"claim":12661,"ĠNim":12662,"textbf":12663,"ĠHead":12664,"Props":12665,"558":12666,"medium":12667,"tracker":12668,"Ġevaluation":12669,"actualGlobalAnalytPar":12670,"Ġprompt":12671,"Ġspecifies":12672,"ĠOPTION":12673,":_":12674,"floor":12675,"ĠMatch":12676,"1700":12677,"Namespace":12678,"`\",":12679,"cstring":12680,"past":12681,"Ġmaint":12682,"pts":12683,"Ġones":12684,"ROSS":12685,"connectAttr":12686,"*:*:":12687,"Ġinherit":12688,"%/":12689,"Hz":12690,"Ġreader":12691,"Ð½Ð¾":12692,"BIND":12693,"gid":12694,"vy":12695,"Ġsquare":12696,"celer":12697,"*****":12698,"Ġdetect":12699,"Ġids":12700,"559":12701,"manual":12702,"Variables":12703,"ĠPROVIDED":12704,"cj":12705,"Ġ136":12706,"Subprogram":12707,"graphics":12708,"æłĩ":12709,"åŀĭ":12710,"Ax":12711,"Using":12712,"ĠMATCH":12713,"probe":12714,"Chats":12715,"SYSTEM":12716,"åĬ¡":12717,"TK":12718,"atile":12719,"Ġdecl":12720,"__\",\"":12721,"mbed":12722,"Ġfinite":12723,"520":12724,"och":12725,"relax":12726,"Ġfamily":12727,"ithmetic":12728,"ĠBig":12729,"__(":12730,"ĠHex":12731,"859":12732,"Ġlevels":12733,"Detect":12734,"capture":12735,"Batch":12736,"LK":12737,"bundle":12738,"ĠĠĠĠčĊ":12739,"erable":12740,"ĠScope":12741,"ĠCalled":12742,"2504":12743,"Rights":12744,"INITION":12745,"Mu":12746,"Pid":12747,"lea":12748,"desktop":12749,"ĠSUM":12750,"Ġheap":12751,"Metrics":12752,"avigator":12753,"TAB":12754,"](\"":12755,"remain":12756,"also":12757,"),(":12758,"94210":12759,"ishing":12760,"PeerCategory":12761,"Linking":12762,"å¼±é»ŀéĺ²ç¦¦åĬĽ":12763,"éķ":12764,"Btn":12765,"èģ":12766,"Ġindividual":12767,"aching":12768,"Compare":12769,"å¹¿":12770,"2124":12771,"leave":12772,"ipc":12773,"à´²":12774,"886":12775,"ĠSHALL":12776,")')":12777,"anches":12778,"Ġsin":12779,"Decoder":12780,"Ġshadow":12781,"Ġunused":12782,"NotModified":12783,"Cloud":12784,"ĠHH":12785,"dimension":12786,"Clean":12787,"hit":12788,"you":12789,"Ġdeclared":12790,"857":12791,"qw":12792,"ffmpeg":12793,"16838":12794,"Ġbold":12795,"ãģĵ":12796,"SYNC":12797,"filters":12798,"ingerprint":12799,"çĻ":12800,"arry":12801,"Could":12802,"spotify":12803,"æĽ´":12804,"glob":12805,"Ġnp":12806,"licates":12807,"neq":12808,"There":12809,"å·²":12810,":\",":12811,"qx":12812,"858":12813,"regions":12814,"ĠAppend":12815,"AWS":12816,"arse":12817,"Ġrename":12818,"ipv":12819,"062":12820,"placeholder":12821,"ĠTypes":12822,"Ġbindings":12823,"playerversion":12824,"434":12825,"YST":12826,"sites":12827,"Ġini":12828,"ĠNIL":12829,"syscall":12830,"fromList":12831,"EventListener":12832,"Ġdisplayed":12833,"475":12834,"604":12835,"FLOAT":12836,"interr":12837,"wnd":12838,"Ġmp":12839,"ĠGets":12840,"Ġappe":12841,"ĠAdjust":12842,"Ġ<$>":12843,"Ñĸ":12844,"thumb":12845,"ĠGEN":12846,"anning":12847,"lectron":12848,"Ġstates":12849,"Transition":12850,"Overlay":12851,"Ãª":12852,"ĠIgnore":12853,"ĠMesh":12854,"ĠLesser":12855,"enue":12856,"Ġrev":12857,"Ġdummy":12858,"ĠSU":12859,"textit":12860,"posix":12861,"Ġexponent":12862,"()).":12863,"ĠÐ´":12864,"threads":12865,"Lang":12866,"zt":12867,"idata":12868,"=(#\\":12869,"Den":12870,"]*\\":12871,"Î¸":12872,"Ġvol":12873,"getOr":12874,"Ġcontact":12875,"Ġ&_":12876,"ippet":12877,"793":12878,"508":12879,"kan":12880,"paste":12881,"packet":12882,"Ġboundary":12883,"receive":12884,"Slot":12885,"editorName":12886,"Ev":12887,"Ġmiddle":12888,"(<":12889,"cuda":12890,"rat":12891,"Insets":12892,"ä¸ľ":12893,"#></":12894,"Im":12895,"VF":12896,"mart":12897,"steps":12898,"ĠSL":12899,"encv":12900,"Ð¸ÑĤ":12901,"RowBox":12902,"Curve":12903,"wxSTC":12904,"Ġderived":12905,"HY":12906,"cz":12907,"wide":12908,"Ġredirect":12909,"6547":12910,"Ġtranslation":12911,"orrespon":12912,"realized":12913,"decimal":12914,"Rad":12915,"bv":12916,"water":12917,"lacing":12918,"Skin":12919,"824":12920,"Js":12921,"]])":12922,"Ġgives":12923,"PRI":12924,"ĠWHETHER":12925,"Ġmonitor":12926,"Ġprodu":12927,"Ġvari":12928,"############":12929,"Ġpriv":12930,"ĠAnno":12931,"DRAW":12932,"707106":12933,"Ġinstructions":12934,"*;":12935,"nogc":12936,"Expand":12937,"ĠControllers":12938,"NM":12939,"future":12940,"Ġnop":12941,"ĠAm":12942,"SYM":12943,"slabs":12944,"Hello":12945,"Ġimmediate":12946,"ĠLIABLE":12947,"km":12948,"ë¡":12949,"Ġvfs":12950,"00000000000":12951,"5800":12952,"Initialize":12953,"boost":12954,"Pur":12955,"Ġcompleted":12956,"rdf":12957,"3333333333":12958,"ĠCanvas":12959,"prox":12960,"850":12961,"ĠJString":12962,"Ġwriter":12963,"ota":12964,"????":12965,"Ġ*>":12966,"ĠCP":12967,"Dep":12968,"Ġunittest":12969,"positive":12970,"sigma":12971,"atalog":12972,"[#":12973,"ology":12974,"Ġld":12975,"947":12976,"Ġreadonly":12977,"specified":12978,"Origin":12979,"2154":12980,"Aux":12981,"Pane":12982,"hm":12983,"Ġ'&":12984,"ĠMessageMedia":12985,"REFERENCE":12986,"HAS":12987,"NY":12988,"`\\[":12989,"ĠSim":12990,"2500":12991,"IDs":12992,"compose":12993,"Ġtexture":12994,"Ġoverrid":12995,"incip":12996,"Der":12997,"ĠRo":12998,"series":12999,"Ð¾Ð¼":13000,"Ġfinished":13001,"1666666666667":13002,"ĠBUILD":13003,"LX":13004,"))/":13005,"éĿ¢":13006,"truncate":13007,"MRO":13008,"spect":13009,"Ġpor":13010,"threshold":13011,"ĠEq":13012,"lazy":13013,"ĠTORT":13014,"Ġ}}}":13015,"preamble":13016,"anno":13017,"SETT":13018,"aligned":13019,"TES":13020,"Ġmaking":13021,"ĠonClick":13022,"åıĳ":13023,"LIBRARY":13024,"vÃ½chozÃŃ":13025,"jp":13026,"Ġti":13027,"imit":13028,"2857":13029,"734":13030,"xref":13031,"separator":13032,"Ġrmap":13033,"ENS":13034,"ĠGen":13035,"Ġencounter":13036,"substring":13037,"946":13038,"Ġconnections":13039,"Operator":13040,"Paint":13041,"Inc":13042,"1044":13043,"021":13044,"äºİ":13045,"corr":13046,"Keep":13047,"interrupt":13048,",*,":13049,"enr":13050,"ogram":13051,"DataType":13052,"Ġ2018":13053,"Ġbeta":13054,"PIO":13055,"constr":13056,"ĠFlags":13057,"Ġextended":13058,"ĠCONTRACT":13059,"Px":13060,"Ġtc":13061,"frames":13062,"ĠARISING":13063,"DESCRIPTION":13064,",../":13065,"PV":13066,"Ġcountry":13067,"Ġstructures":13068,"8000":13069,"{:":13070,"igrid":13071,"Conv":13072,"OFFSET":13073,"2277660":13074,"VRR":13075,"hn":13076,"Ġincrease":13077,"áŀĶ":13078,"Ġattempt":13079,"#>":13080,"Dc":13081,"annotation":13082,"Ġmarked":13083,"eds":13084,"Ġhist":13085,"Ġdeg":13086,"381":13087,"positor":13088,")/(":13089,"don":13090,"ssh":13091,"ĠSER":13092,"DIRS":13093,"588":13094,"ĠSimple":13095,"Ġlift":13096,"Ġ/(([":13097,"letter":13098,"áŀĢ":13099,"discard":13100,"]))/":13101,"Ġreplaced":13102,"Replication":13103,"MK":13104,");\"":13105,"best":13106,"382":13107,"Ġsubtype":13108,"limits":13109,"Ġseries":13110,"ĠPower":13111,"srcs":13112,"datatype":13113,"528":13114,"aos":13115,"opi":13116,"ãĥĹ":13117,"learn":13118,"agnitude":13119,"VJ":13120,"lon":13121,"comments":13122,"curve":13123,"227766016838":13124,"anim":13125,"Ġcapture":13126,"Ġshm":13127,"Ġshown":13128,"544":13129,"9900":13130,"753":13131,"Ġunset":13132,"scriptions":13133,"Ð½Ñĭ":13134,"\"#":13135,"Same":13136,"dj":13137,"áµ":13138,"oston":13139,"ĠReason":13140,"ĠEXISTS":13141,"Ġclone":13142,"Scheme":13143,"+'":13144,"atum":13145,"Ġ'~":13146,"Ġcock":13147,"ĠUseRuntime":13148,"ĠHEAD":13149,"ĠUseRuntimeLinking":13150,"[`":13151,"certificate":13152,"æº":13153,"Ġĉĉ":13154,"itution":13155,"ĠFin":13156,"\\\",\\\"":13157,"Ġindicate":13158,"POL":13159,"ĠGoogle":13160,"ĠWIN":13161,"Indexed":13162,"Ġheld":13163,"DIV":13164,"controls":13165,"NonNull":13166,"537":13167,"))),":13168,"Primary":13169,"XXXXXXXXXXXXXXXXXXXXXXXXXXXXXXXX":13170,"ez":13171,"olist":13172,"ĠPrivacy":13173,"2134":13174,"Trim":13175,"CONTROL":13176,"Aw":13177,"RY":13178,"Ġgas":13179,"ĠBr":13180,"outine":13181,"6875":13182,">-</":13183,"pal":13184,"pix":13185,"tre":13186,"~\\":13187,"stal":13188,"ĠDrop":13189,"ĠEXEC":13190,"visibility":13191,"umption":13192,"()))":13193,"flip":13194,"orts":13195,"sysenter":13196,"æľĢ":13197,"polation":13198,"Accessor":13199,"2114":13200,"yield":13201,"ë¥":13202,"Ġ\"../":13203,"Ġnx":13204,"Ġ'--":13205,"STRUCT":13206,"ëĭĪ":13207,"é«":13208,"363":13209,"Ġ]*":13210,"ãģŁ":13211,"ĠInterpretation":13212,"70710678":13213,"\\\">":13214,"lhs":13215,"arily":13216,"Ġdigit":13217,"listing":13218,"ĠUns":13219,"2100":13220,"efficients":13221,"ìĹĲ":13222,"gro":13223,"paper":13224,"Resize":13225,"Ġperformed":13226,"poch":13227,"MMU":13228,"Ġ[{:":13229,"BW":13230,"hore":13231,"night":13232,"Ġfk":13233,"Ġsurface":13234,"entially":13235,"race":13236,"161907":13237,"ENTRY":13238,"defaults":13239,"Drag":13240,"heat":13241,"Ġdead":13242,"Ġgetting":13243,"Ġstderr":13244,"Ġreflect":13245,"datetime":13246,"Ġoperators":13247,"How":13248,"Warn":13249,"san":13250,"Ġrecur":13251,"Ġrecursive":13252,"ĠIM":13253,"ĠMac":13254,"Extended":13255,"671":13256,"Throw":13257,"Ġrax":13258,"TTL":13259,";$":13260,"Ord":13261,"2505":13262,"createNode":13263,"ĠEncrypted":13264,"Ctx":13265,"Ġfreed":13266,"ĠJavaScript":13267,"ĠFORMAT":13268,"465":13269,"KQ":13270,"wu":13271,"Ġsuggest":13272,"apis":13273,"ĠDES":13274,"ĠYES":13275,"moving":13276,"æķ°æį®":13277,"pretty":13278,"received":13279,"aruco":13280,"70710678118":13281,"8333333333333":13282,"ACTION":13283,"bian":13284,"dig":13285,"ĠDr":13286,"(*,*)":13287,"Ġdisclaimer":13288,"Ġmodifier":13289,"Ġseparator":13290,"DN":13291,"yo":13292,"ups":13293,"ĠNull":13294,"589":13295,"ĉĉĉĉĉĉĉĉĉĉĉ":13296,"666666666666":13297,"GY":13298,"_&":13299,"shrink":13300,"Ð¾Ð´":13301,"Ġìŀ":13302,"%.":13303,"Ġasset":13304,"Ġmanually":13305,"ĠOTHERWISE":13306,"LWG":13307,"ĠDestroy":13308,",<":13309,"lsp":13310,"mixed":13311,"2503":13312,"Ġdocker":13313,"462":13314,"Special":13315,"lision":13316,"Ġwatch":13317,"\",\"\"":13318,"Ġcompatible":13319,"672":13320,"Ġmodification":13321,"Ġlinked":13322,"*[":13323,"Zh":13324,"atives":13325,"ĠDM":13326,"ndk":13327,"670":13328,"Ġtrailing":13329,"%>":13330,"fly":13331,"Ġrecomm":13332,"redirect":13333,"'),(":13334,"yped":13335,"ìĿĦ":13336,"svn":13337,"collections":13338,"Ġcli":13339,"Ġ107":13340,"emo":13341,"ĠDIM":13342,",,,,,,,,,":13343,"/****************************************************************":13344,"NING":13345,"eu":13346,"tutorial":13347,"Ġsing":13348,"Ġends":13349,"597":13350,"dims":13351,"Succ":13352,"Ġregistered":13353,"MACH":13354,"ĠqsTr":13355,"Cos":13356,"Eta":13357,"_(\"":13358,"tri":13359,"ĠOb":13360,"CHANGE":13361,"ĠNEW":13362,"restart":13363,"phen":13364,"includes":13365,"csname":13366,"Jo":13367,"TOD":13368,"equ":13369,"fz":13370,"purple":13371,"578":13372,"vor":13373,"els":13374,"Ġ'')":13375,"ĠMo":13376,"canvas":13377,"ĠAttribute":13378,"Ġoccurs":13379,"ĠUsage":13380,"418":13381,"fP":13382,"ÙĨ":13383,"Ġsamples":13384,"Ġtransport":13385,"Hotkey":13386,"CAT":13387,"Hard":13388,"}^":13389,"ĠSB":13390,"ĠMay":13391,"\":[],":13392,"artifact":13393,"Upload":13394,"Monad":13395,"orphisms":13396,"419":13397,"nj":13398,"ÑĦ":13399,"varname":13400,"770":13401,"ĠConnection":13402,"èĢħ":13403,"-------":13404,"ĠSetup":13405,"Plane":13406,"Ġrpc":13407,"OTE":13408,"\".}:":13409,"Generate":13410,"éĺ³":13411,"Ġrespons":13412,"ä¸»ç®¡":13413,"ety":13414,"\\\"\"}],":13415,"Ġproducts":13416,"AAWwAAWwAAWwAAWw":13417,"gal":13418,"gamma":13419,"Ġtax":13420,"eli":13421,"ãĢĢ":13422,"Ġarchive":13423,"major":13424,"payment":13425,"Ġnor":13426,"Ġ101":13427,"throws":13428,"ĠLIB":13429,"ĉĉĉĠĠĠĠĠĠ":13430,"CHO":13431,"WRAP":13432,"sequent":13433,"positories":13434,"DEST":13435,"modify":13436,"tfa":13437,"ÙĪ":13438,"lave":13439,"Ġbasis":13440,"2050":13441,"ĠDR":13442,"ĠDatabase":13443,"},\"":13444,"Ġcompatibility":13445,"PIX":13446,"ĠPRIMARY":13447,"Ġlif":13448,"854":13449,"lacement":13450,"filp":13451,"PrivacyKey":13452,"HASH":13453,"NON":13454,"hda":13455,"decoration":13456,"acer":13457,"aren":13458,"ĠContact":13459,"pkgs":13460,"Packet":13461,"VDB":13462,"èĪ":13463,"revision":13464,"ĠSA":13465,"Ġ512":13466,"CodeType":13467,"solve":13468,"asn":13469,"ĠNB":13470,"llvm":13471,"éľ":13472,"ä½ł":13473,"laboration":13474,"ĠInterpretationBox":13475,"Ġfully":13476,"outline":13477,"CUDA":13478,"Ġproperly":13479,"PART":13480,"uo":13481,"esome":13482,"endian":13483,"LECTION":13484,"Examples":13485,"archar":13486,"Ġassignment":13487,"SubObject":13488,"BUS":13489,"online":13490,"ĠRandom":13491,"2502":13492,"ĠobjectType":13493,"failure":13494,"\"].":13495,"Ġ000":13496,"uniform":13497,"ceeded":13498,"Ġ_}":13499,"Ġintro":13500,"DIP":13501,"ĠProduct":13502,"WARNING":13503,"FH":13504,"Sin":13505,"allen":13506,"INSTR":13507,"Ġ2019":13508,"middle":13509,"433":13510,"Sig":13511,"icult":13512,"Ġdword":13513,"ĠHere":13514,"Modifier":13515,"ubyte":13516,"%%%%%%%%%%%%%%%%%%%%%%%%%%%%%%%%%%%%%%%%%%%%%%%%%%%%%%%%%%%%%%%%":13517,"balance":13518,"iq":13519,"inlin":13520,"anger":13521,"Ġcomputed":13522,"Ġcounts":13523,"ĠIterator":13524,"DMA":13525,"inuse":13526,"Ġ*=":13527,"ĠCM":13528,"mob":13529,"CCESS":13530,"587":13531,"(()":13532,"uan":13533,"Ġyang":13534,"452":13535,"Ġlogic":13536,"Ġrefresh":13537,"å°ı":13538,"DISABLE":13539,"ĠBOOL":13540,"spawn":13541,"ĠThey":13542,"appings":13543,"à´±":13544,"outputs":13545,"GRP":13546,"LABEL":13547,"ĠUPDATE":13548,"595":13549,"Sample":13550,"bq":13551,"wbr":13552,"Ġtick":13553,"ĉĉĉĉĠĠĠĠ":13554,"iki":13555,"<=&":13556,"Ġconverted":13557,"Ġquestion":13558,"Ġlp":13559,"ĠContrib":13560,"Implementation":13561,"Ġoccur":13562,"ĠStack":13563,"calls":13564,">>,":13565,",---,":13566,"736":13567,"[/":13568,"bib":13569,"Ġmer":13570,"Ġalert":13571,"783":13572,"Ġ\",\"":13573,"specifier":13574,"Adjust":13575,"Ġmanager":13576,"Assignment":13577,"Ġ'+'":13578,"518":13579,"Dialogs":13580,"ĠSkip":13581,"ĠCSS":13582,"ĠFix":13583,"(\"<":13584,"Toks":13585,"EXTRA":13586,"ara":13587,"itis":13588,"mesh":13589,"Ġnear":13590,"filtered":13591,"prior":13592,"Members":13593,"Ġpurposes":13594,"çłģ":13595,"519":13596,"Ġdro":13597,"ĠTick":13598,"ĠCenter":13599,"team":13600,"built":13601,"USB":13602,"Ġreceiver":13603,"ĠAccount":13604,"ĉĉĉĉĊ":13605,"Contains":13606,"490":13607,"eeded":13608,"PARAMETER":13609,"Loading":13610,"<<\"":13611,"MAN":13612,"Ġhide":13613,"Suppress":13614,"ï¸ı|ðŁ":13615,"¸°":13616,"Ġnb":13617,"iline":13618,"ĠAttr":13619,"..\\..\\":13620,"Bs":13621,"ç³":13622,"Ġiterator":13623,"/'":13624,"425":13625,"899":13626,">{":13627,"IW":13628,"nam":13629,"vw":13630,"Ġpen":13631,"ĠPDO":13632,"INCLUDING":13633,"eee":13634,"Linear":13635,"retch":13636,"visor":13637,"*}":13638,"BQ":13639,"inp":13640,"ĠFF":13641,"Ġexpires":13642,"Upd":13643,"aliases":13644,"ĠDefine":13645,"6000":13646,"Dispatch":13647,"Kotlin":13648,"Proj":13649,"innerHTML":13650,"åĽŀ":13651,"/-":13652,"city":13653,"fatal":13654,"ignum":13655,"implement":13656,"451":13657,"HOW":13658,"Ġcontrols":13659,"dni":13660,"æĶ¯åĩº":13661,"DG":13662,"ĠÃ©":13663,"ĠRGB":13664,"Ġdetected":13665,"500235":13666,"ĠSupport":13667,"Tail":13668,"craft":13669,"Ġthus":13670,"ĠExternal":13671,"dbc":13672,"DIST":13673,"sysfunc":13674,"æĪĸ":13675,"quoted":13676,"æ¨¡":13677,"0004":13678,"Ġ@{":13679,"problem":13680,"Streaming":13681,"Numeric":13682,"/\",":13683,"524":13684,"Qo":13685,"gf":13686,"zd":13687,"increment":13688,"Ġspin":13689,"Ġ'/'":13690,"lisher":13691,"Fx":13692,"FULL":13693,"rh":13694,"Ġ')":13695,"Ġtouch":13696,"ĠRender":13697,"lvl":13698,"GLOBAL":13699,"409":13700,"slf":13701,"Ġratio":13702,"ãģ¦":13703,"Ġbitmap":13704,"435":13705,"RK":13706,"osed":13707,"è·":13708,"Ġ'*":13709,"Ġhour":13710,"1304":13711,"ĠWorld":13712,"PROJECT":13713,"NECTION":13714,"jx":13715,"æĵ":13716,"oding":13717,"indic":13718,"ĠCHARACTER":13719,"çĦ¡":13720,"rdd":13721,"ovy":13722,"atern":13723,"Ġ\"/\"":13724,"slub":13725,"@,":13726,"NZ":13727,"}};":13728,"semp":13729,"Ġcredentials":13730,"Ġ-*-":13731,"ĠFlow":13732,"Ġcharset":13733,")|(":13734,"HEL":13735,"jsontag":13736,"house":13737,"Replacement":13738,"725":13739,"Ġá¼Ģ":13740,"Ġtxt":13741,"orical":13742,"Ġpi":13743,"ĠMedia":13744,"Cover":13745,"Ġdefer":13746,"362":13747,"470":13748,"ught":13749,"UPtr":13750,"Ġlocale":13751,"Ġeasy":13752,"424":13753,"HOLD":13754,"LER":13755,"0505":13756,"SEQ":13757,"ĠYOU":13758,"Ġpartitions":13759,"VERAGE":13760,"ÑĢÐµ":13761,"1124":13762,"Ġshot":13763,"680":13764,"CHR":13765,"Ġnonce":13766,"primitive":13767,"Activity":13768,"While":13769,"cells":13770,"Running":13771,"journal":13772,"Ġcm":13773,"Ġaverage":13774,"952":13775,"valuate":13776,"gorithms":13777,"Ġattrs":13778,"lasticsearch":13779,"ĠUniversity":13780,"Ġ130":13781,"ĠTQt":13782,"uples":13783,"IFO":13784,"ĠENDLOOP":13785,"ĠaccessType":13786,"Gfx":13787,"Ġtm":13788,"Ġquant":13789,"modal":13790,"PtrSize":13791,"\":[],\"":13792,"=#":13793,"CString":13794,"dar":13795,"992":13796,"Ġkube":13797,"Ġpointers":13798,"Ġedi":13799,"å·¥":13800,"Ġpurpose":13801,"Aug":13802,"transparent":13803,"ĠFA":13804,"phys":13805,"going":13806,"PHA":13807,"Secret":13808,"Router":13809,"Ji":13810,"Ps":13811,"Ġtol":13812,"Ġ=:=":13813,"ĠCard":13814,"2214":13815,"ttk":13816,"549":13817,"Ġsubset":13818,"Topic":13819,"24514":13820,"Nb":13821,"reserved":13822,"Ġusually":13823,"Entries":13824,"546":13825,"ĠREDEFINES":13826,"ĠDEBUG":13827,"Ġmoved":13828,"Ġviews":13829,"technology":13830,"ĠPDOmapping":13831,"515":13832,"504":13833,"560":13834,"Za":13835,"}-":13836,"Ġlr":13837,"LESS":13838,"dobranch":13839,"platforms":13840,"JD":13841,"Ġaf":13842,"ĠRX":13843,"omial":13844,"ByName":13845,"Ġcalc":13846,"Fi":13847,"RQ":13848,"Ġaway":13849,"ilde":13850,"ĠSN":13851,"trail":13852,"Attrib":13853,"Ġ'./":13854,"KK":13855,"Ġbundle":13856,"ĠNatural":13857,"ĠLDA":13858,"ttl":13859,"876":13860,"ÐºÐ°":13861,"Ġpacket":13862,"EO":13863,"cid":13864,"npm":13865,"Ġcent":13866,"metry":13867,"lop":13868,"ĠÐº":13869,"ĠShort":13870,"ĠShould":13871,">`__\",\"":13872,"LAST":13873,"samples":13874,"á¶":13875,"Ġpanel":13876,"adc":13877,"Ġoften":13878,"ĉĉĉĉĠĠĠĠĠ":13879,"Intrinsic":13880,"SX":13881,"Ġ108":13882,"Ġeta":13883,"ĠSerial":13884,"uspend":13885,"072":13886,"notifier":13887,"RANCH":13888,"wrt":13889,"Ġlooking":13890,"[])":13891,"ita":13892,"Ġ117":13893,"ATT":13894,"\",\"|":13895,"DESC":13896,"Ġpunpck":13897,"635":13898,"æ·":13899,"coff":13900,"ĠSound":13901,"compat":13902,"ĠsubIndex":13903,"ĠController":13904,"hematic":13905,"GU":13906,"ĠGOSUB":13907,"Ġ!~":13908,"logic":13909,"Ġ2010":13910,"Ġtrying":13911,"Ġclosure":13912,"PYTHON":13913,"Clipboard":13914,"iom":13915,"uw":13916,"Ġpress":13917,"continu":13918,"subscribe":13919,"Combo":13920,"Plus":13921,"'m":13922,"dash":13923,"ãĤ¢":13924,"Ġcorrectly":13925,"camera":13926,"Ø¯":13927,"ĠHit":13928,"ored":13929,"itable":13930,"about":13931,"ENTIAL":13932,"ighb":13933,"Ġmatched":13934,"Ġreplacement":13935,"FY":13936,"Xilinx":13937,"ĠUSA":13938,"Ġ~~":13939,"Discard":13940,"Ah":13941,"ĠTitle":13942,"661":13943,"avor":13944,"Ġseparated":13945,"advance":13946,"706":13947,"Ãł":13948,"Ġsender":13949,"REAL":13950,"ĠnewJ":13951,"Ġ\"@\",":13952,"20000":13953,"ony":13954,"Ġrand":13955,"tti":13956,"manifest":13957,"FOUND":13958,"Ġretrieve":13959,"804":13960,"Gdk":13961,"ess":13962,"kn":13963,"will":13964,"Ġpermitted":13965,"Ġmoment":13966,"haviour":13967,"IAN":13968,"980":13969,"Ġquit":13970,"Ġvalidation":13971,"åŃĲ":13972,"Cref":13973,"TASK":13974,"mh":13975,"pll":13976,"cov":13977,"ĠDown":13978,"ĠMore":13979,"Ġauthorization":13980,"ood":13981,"ĠEV":13982,"Ġwhy":13983,"ĠReact":13984,"brand":13985,"UMN":13986,"åħ³":13987,"/+":13988,"LR":13989,"_@@_":13990,"ìĬ":13991,"Ġnnk":13992,"Ġ109":13993,"ueabi":13994,"ership":13995,"Ġ`%":13996,"442":13997,"gnueabi":13998,"runCy":13999,"Backend":14000,"430":14001,"Mi":14002,"uess":14003,"\">>,":14004,"ĠXXX":14005,"ĠVariant":14006,"wikipedia":14007,"ominator":14008,"ATTRIBUTE":14009,"Ġ\\'":14010,"Ġlb":14011,"663":14012,"4472":14013,"æ²»":14014,"429":14015,"513":14016,"FMT":14017,"rewrite":14018,"Ġfr":14019,"ements":14020,"ĠFixed":14021,"Processor":14022,"510":14023,"Multip":14024,"Ġwall":14025,"ĠPRE":14026,"Ġhf":14027,"EXPR":14028,"8944":14029,"Ġlooks":14030,"ĠDefaults":14031,"Gray":14032,"kp":14033,"ustr":14034,"Ïī":14035,"Ġcurrency":14036,"ĠRout":14037,"FONT":14038,"Zoom":14039,"ERIC":14040,"1875":14041,"UTABLE":14042,"Locale":14043,"è¿ĩ":14044,"427":14045,"rdata":14046,"æĦ":14047,"ĠSche":14048,"ixO":14049,"CFG":14050,"Ġ\"#{":14051,"ĠMouse":14052,"SED":14053,"7800":14054,"ĠTheme":14055,"prime":14056,"Validate":14057,"ĠRedistributions":14058,"Indicator":14059,"=`":14060,"Vs":14061,"{},":14062,"constants":14063,"FIND":14064,"assis":14065,"UNIT":14066,"ElementType":14067,"encoded":14068,"ENABLED":14069,"411":14070,"Fd":14071,"Ii":14072,"1989":14073,"ipient":14074,"Ġweek":14075,"Ġ\"\\\\":14076,"Ġ2011":14077,"Ġmarker":14078,"ĠGROUP":14079,":*":14080,"Ġpkt":14081,"proper":14082,"MEMORY":14083,"::_":14084,"ĠĠĠĠĠĠĠĠĠĠĠĠĠĠĠĠĠĠĠĠĠĠĠĠĠĠĠĠĠĠĠĠĠĠĠĠĠĠĠĠĠĠĠĠĠĠĠĠĠĠĠĠĠĠĠĠĠĠĠĠĠ":14085,"('%":14086,"('/":14087,"361":14088,"à´Ļ":14089,"Ġgenerator":14090,"caps":14091,"Worker":14092,"chronous":14093,"ZW":14094,"ĠTEXT":14095,"ventory":14096,"Ġmanagement":14097,"Ġabbreviation":14098,"vendor":14099,"}})":14100,"éħ":14101,"//-":14102,"Ġcont":14103,"resize":14104,"SCAL":14105,"ChatPhoto":14106,"directories":14107,"ience":14108,"ÅŁ":14109,"seudo":14110,"Ġdl":14111,"allery":14112,"Ġcontract":14113,"856":14114,"Ġauthentication":14115,"Ġlocks":14116,"ĠCMAKE":14117,"Ġgzip":14118,"ises":14119,"IRQ":14120,"\\/[^":14121,"ç³»":14122,"FW":14123,"spe":14124,"-----":14125,"coexist":14126,"ivated":14127,"ĠMAC":14128,"682":14129,"Ġ×Ĳ":14130,"toolchain":14131,"á¼Ĳ":14132,"ĠSparkContext":14133,"Person":14134,"×¢":14135,"stub":14136,"eden":14137,"Ġ2021":14138,"ELM":14139,"RULE":14140,"Ġlda":14141,"Ġ250":14142,"usepackage":14143,"Ġonto":14144,"REL":14145,"anspose":14146,"ĠARCH":14147,"ascii":14148,"809":14149,"plat":14150,"Ġcstring":14151,"2400":14152,"vertex":14153,"counters":14154,"æģ¯":14155,"é«ĺ":14156,"delegate":14157,"ĠSPAR":14158,"ĠWide":14159,"activity":14160,"CPP":14161,"FBX":14162,"ĠActive":14163,"ë¡ľ":14164,"5000":14165,"Ġaffect":14166,"ĠLP":14167,"DES":14168,"Ġles":14169,"ĠReset":14170,"Ġhandled":14171,"707106781186547":14172,"439":14173,"Cir":14174,"Elem":14175,"åģ":14176,"ĠLM":14177,"ĠBo":14178,"Ġregisters":14179,"Ġdirty":14180,"DDR":14181,"åħ¶":14182,"Ġhighlight":14183,"Cull":14184,"ĠAF":14185,"odies":14186,"omite":14187,"áŀĺ":14188,"SLUB":14189,"EV":14190,"------":14191,"ĠSys":14192,"ONCE":14193,"641":14194,"iph":14195,"InputFile":14196,"rypto":14197,"stdlib":14198,"ĠARM":14199,"Nn":14200,"jet":14201,"chor":14202,"ĠPred":14203,"ĠRuntime":14204,"Ġsel":14205,"upbdefs":14206,"GOTO":14207,"May":14208,"UA":14209,"lq":14210,"Ġtsd":14211,"Ġfraction":14212,"AGA":14213,"What":14214,"LoopField":14215,"Ġintegers":14216,"Beta":14217,"Ġnk":14218,"Ġ*(.":14219,"Experimental":14220,"Ġjo":14221,"773":14222,"Ġ×ĳ":14223,"Rank":14224,"Ġrepro":14225,"ALLE":14226,"2501":14227,"nothing":14228,"æ²³":14229,"++++++++++++++++":14230,"omitempty":14231,"Affected":14232,"uz":14233,"ì§":14234,"Ġ102":14235,"7400":14236,"Generator":14237,"Ġnormalize":14238,"Rectangle":14239,"ĠAndroid":14240,"=',":14241,"ĠTLS":14242,"touch":14243,"å®¹":14244,"Decimal":14245,"Imm":14246,"lated":14247,"Ġrgb":14248,"typed":14249,"Deprecated":14250,"lectric":14251,"ternate":14252,"Ġlogging":14253,"OX":14254,"]?":14255,"snd":14256,"detect":14257,"Ġ103":14258,"Ġmal":14259,"1976":14260,"ĠjQuery":14261,"Nothing":14262,"Ġextensions":14263,"20202020202020202020202020202020":14264,"FBXASC":14265,"Ġ*);":14266,"532":14267,"Jul":14268,"1144":14269,"ĠDirectory":14270,"Ġapplies":14271,"Ð¾ÑĤ":14272,"ĠArguments":14273,"569":14274,"KP":14275,"LANGUAGE":14276,"âĸ":14277,"ê³":14278,"Ġbc":14279,"2200":14280,"ĠJs":14281,"MASTER":14282,"EncryptedChat":14283,"YSTICK":14284,"Ġappears":14285,"ĠDUP":14286,"moe":14287,"371":14288,"790":14289,"backup":14290,"Ġformats":14291,"ĠBytes":14292,"jni":14293,"ìļ":14294,"Ġplaced":14295,"Ġsizes":14296,"063":14297,"SCREEN":14298,"HashMap":14299,"Ġevaluate":14300,"617":14301,"Ur":14302,"Ġĉĉĉĉĉ":14303,"otype":14304,"ĠPromise":14305,"addvar":14306,"ĠInStr":14307,"ADR":14308,"ãĤ·":14309,"\"/><":14310,"rnd":14311,"ida":14312,"ĠPrev":14313,"Ġchoice":14314,"547":14315,"pict":14316,"Ġrotate":14317,"gradle":14318,"#;":14319,"Did":14320,"Vy":14321,"[];":14322,"xn":14323,"xchg":14324,"è£":14325,"sticker":14326,"clj":14327,"Contract":14328,"ongo":14329,"Ġenc":14330,"Comments":14331,"ĠØ§ÙĦ":14332,"mega":14333,"ĠTRAN":14334,"2024":14335,"Ġ301":14336,"Ġ^:":14337,"ĠComplex":14338,"JOYSTICK":14339,"ora":14340,"ĠFail":14341,"messageMedia":14342,"tlb":14343,"Foreground":14344,"elems":14345,"634":14346,"surface":14347,"Ġmul":14348,"Ġ:>":14349,"ĠFD":14350,"('.":14351,"5547":14352,"IFIER":14353,"438":14354,"Ol":14355,"èĬ":14356,"Ġdeps":14357,"ĠĠĠĠĠĠĠĠĠĠĠĠĠĠĠĠĠĠĠĠĠĠĠĠĠĠĠĠĠĠĠĠĠĠĠĠĠĠĠĠĠĠĠĠĠĠĠĠĠĠĠĠĠĠ":14358,"Ġjav":14359,"menus":14360,"KL":14361,"Tw":14362,"tbody":14363,"Ġdm":14364,"amd":14365,"990":14366,"resolved":14367,"Ġwaiting":14368,"SCO":14369,"Into":14370,"prompt":14371,"681":14372,"plane":14373,"ĠSetting":14374,"FILL":14375,"898":14376,"Black":14377,"FG":14378,"Vehicle":14379,"mux":14380,"exchange":14381,"ĠPayment":14382,"dirname":14383,"ĠAnim":14384,"Ġrowid":14385,"Documents":14386,"SDK":14387,"avigable":14388,"Blood":14389,"Sheet":14390,"ato":14391,"Ġcut":14392,"Ġrelevant":14393,"ffi":14394,"Ġshipping":14395,"ãģķ":14396,",_,":14397,"416":14398,"YES":14399,"Ġcontained":14400,"ĠSTANDARD":14401,"Ġtraining":14402,"WER":14403,"Ġcum":14404,"extended":14405,"6400":14406,"Ġloss":14407,"Ġextend":14408,"FIXUP":14409,"ĉĉĉĉĉĉĉĉĉĉĉĉĉĉĉĉĉĉĉĉĉĉĉĉĉĉĉĉĉĉĉĉ":14410,"credentials":14411,"545":14412,"Ġ])":14413,"Ġfloor":14414,"ĠSD":14415,"oney":14416,"checksum":14417,"CORE":14418,".\"\"\"":14419,"×ĵ":14420,"oton":14421,"ATER":14422,"887":14423,"Ġ----------------------------":14424,"ĠTEMP":14425,"Fetch":14426,"VD":14427,"gender":14428,"digest":14429,"ClassName":14430,"lesi":14431,"TLS":14432,"Ġttl":14433,"Ġ(>":14434,"Ġcamera":14435,"locate":14436,"antiation":14437,"INTEL":14438,"áŀŁ":14439,"ĠRAISING":14440,"navigation":14441,"514":14442,"respon":14443,"Constants":14444,"normalize":14445,"destination":14446,"ADDRESS":14447,"Ġpixels":14448,"!\\":14449,"CTED":14450,"441":14451,"ĠRepresent":14452,"drv":14453,"opilot":14454,"Camera":14455,"hecked":14456,"Ġpred":14457,"Blocks":14458,"scen":14459,"openssl":14460,"Ġ'+',":14461,"CAN":14462,"Yr":14463,"lw":14464,"Ġrdf":14465,"Ġprof":14466,"REQUI":14467,"Ġ4228":14468,"751":14469,"ecar":14470,"896":14471,"ĠEXCEPT":14472,"executor":14473,"tooltip":14474,"azy":14475,"à¦°":14476,"ĠRights":14477,"ĠASCII":14478,"%=":14479,"Bio":14480,"ude":14481,"Ġtoggle":14482,"ivot":14483,"ENTER":14484,"autopilot":14485,"Schedule":14486,".âĢĿ</":14487,"Bal":14488,"ei":14489,"æ¥":14490,"irl":14491,"Transparency":14492,"ecarlesi":14493,"she":14494,"Ġpic":14495,"unct":14496,"ĠAutomatic":14497,"(\"$":14498,"OPTIONS":14499,"ĠROLE":14500,"Ġcone":14501,"Ġadds":14502,"ĠStatic":14503,"Ġissues":14504,"è§£":14505,"Icons":14506,"PATCH":14507,"Soc":14508,"iL":14509,"Ġblocked":14510,"TIAL":14511,"throughput":14512,"432":14513,"Fr":14514,"Ãº":14515,"Ġpan":14516,"Ġ115":14517,"LOCATION":14518,"Ġplugins":14519,"éłħ":14520,"(~":14521,"/$(":14522,"732":14523,"CATE":14524,"Ren":14525,"|.":14526,"Ġprocesses":14527,"ĠCOUNT":14528,"Ġopened":14529,"Ġsnapshot":14530,"IBUTORS":14531,"ReplicationInfo":14532,"Warnings":14533,"payments":14534,"ĠMix":14535,"Ġgrep":14536,"msize":14537,"photos":14538,"parents":14539,"Ġscheduler":14540,"CompletionResult":14541,"even":14542,"wake":14543,"ìĭ":14544,"upstream":14545,"ĠFire":14546,"Ġlogs":14547,"ificant":14548,"Checks":14549,"@@@@":14550,"Ġmacros":14551,"498":14552,"Far":14553,"Fragment":14554,"ODE":14555,"[_":14556,"ech":14557,"Ã¨":14558,"ĠPeer":14559,"quo":14560,"prob":14561,"..)":14562,"ĠVideo":14563,"pcg":14564,"EXTMOD":14565,"Ġstatistics":14566,"Foreign":14567,"nullable":14568,"Ġmorphism":14569,"rystal":14570,"Ġcommunic":14571,"901":14572,"algebra":14573,"otimes":14574,"([\"":14575,"CW":14576,"every":14577,"Ãµ":14578,"shutdown":14579,"interactive":14580,"SOCK":14581,"ĠTagBox":14582,"ArgumentException":14583,"WallPaper":14584,"478":14585,"kfree":14586,"Ġbb":14587,"Ġbio":14588,"untu":14589,"0700":14590,"012000":14591,"4742":14592,"Ġemissions":14593,"522":14594,"628":14595,"Ġreject":14596,"ĉĉĉĉĉĉĉĉĉĉĉĉ":14597,"ĠChild":14598,"Ġmeaning":14599,"ĠAlias":14600,"hg":14601,"çķ":14602,"Ġlab":14603,"Ġ\"|":14604,"Ġresp":14605,"ĠRa":14606,"ANN":14607,",,,,,":14608,"SeeAlso":14609,"ĠCommon":14610,"ography":14611,"'\\":14612,"KG":14613,"Pt":14614,"PINS":14615,"fed":14616,"iro":14617,"INX":14618,"792":14619,"Channels":14620,"ĠADV":14621,"436":14622,"511":14623,"Fit":14624,"TITLE":14625,"`),":14626,"Ġtv":14627,"ĠACTION":14628,"iring":14629,"043":14630,"Ġspawn":14631,"Author":14632,"Hours":14633,"PAT":14634,"grep":14635,"ĠEOF":14636,"Ġec":14637,"Buttons":14638,"Ġprojects":14639,"Vertical":14640,"Ġarbitrary":14641,"428":14642,"Days":14643,"dead":14644,"Ġllx":14645,"9998":14646,"deleted":14647,"Ġpcg":14648,"ĠIllegal":14649,"SEQU":14650,"ĠShape":14651,"chanism":14652,"Issue":14653,"did":14654,"åĤ":14655,"percpu":14656,"Ġclients":14657,"24513":14658,"ĠLock":14659,"Ġpreviously":14660,"Ġhappens":14661,"&#":14662,"broadcast":14663,"Ġ170":14664,"Ġ`$":14665,"880":14666,"requests":14667,"å¤©":14668,"åįķ":14669,"éľĢ":14670,"Sto":14671,"enk":14672,"trap":14673,"Ġstmt":14674,"EEE":14675,"Ġindicating":14676,"ProfilePhoto":14677,"Learn":14678,"+:":14679,"Capture":14680,"MG":14681,"QR":14682,"}(\\":14683,"alg":14684,"Ġchart":14685,"SEL":14686,"à´£":14687,"EDURE":14688,"istrator":14689,"Ġ>>=":14690,"ierarchy":14691,"Ġpassing":14692,",__":14693,"575":14694,"oss":14695,"Ġva":14696,"tooth":14697,"usercontent":14698,"formatter":14699,"connections":14700,"pearance":14701,"PN":14702,"}))":14703,"073":14704,"Ġdatetime":14705,"LIBS":14706,"depends":14707,"412":14708,"_{\\":14709,"à´³":14710,"Ġgoal":14711,"499":14712,"724":14713,"UF":14714,"Ġsaf":14715,"ĠCLOSE":14716,"opencv":14717,"verity":14718,"093":14719,"grp":14720,"ãĥĨ":14721,"Ġconfigur":14722,"Ġagent":14723,"å°Ĩ":14724,"GPU":14725,"Io":14726,"MN":14727,"bic":14728,"camp":14729,"CTOR":14730,"hv":14731,"tui":14732,"ycle":14733,"Ġ140":14734,"2474":14735,"483":14736,"Predicate":14737,"San":14738,"Safe":14739,"Ġtreat":14740,"Unable":14741,"æľį":14742,"pgas":14743,"ĠSpecial":14744,"ÐµÐ½Ð¸":14745,"cite":14746,"lk":14747,"recent":14748,"Ġfc":14749,"3300":14750,"ided":14751,"rights":14752,"ĠCODE":14753,"1993":14754,"ĠNON":14755,"Ġgamma":14756,"sorted":14757,"spinlock":14758,"Ġapprox":14759,"Ġerlang":14760,"Allowed":14761,"ĠVERSION":14762,"qi":14763,"incr":14764,"Ġreached":14765,"ĠBASE":14766,"(\"[":14767,"ordered":14768,"OPER":14769,"Ġprimitive":14770,"mirror":14771,"Ġservices":14772,"NotNull":14773,"Feed":14774,"AABbAABbAABbAABb":14775,"QY":14776,"Ġ\"\");":14777,"Ġfil":14778,"iding":14779,"ĠRUN":14780,"ĠBody":14781,"protect":14782,"STD":14783,"èĩªæ²»":14784,"Ġseems":14785,"redi":14786,"asan":14787,"Commands":14788,"sempos":14789,"cdf":14790,"Ł³":14791,"het":14792,"Lists":14793,"ĠExtract":14794,"ãĥ©":14795,"Ġframework":14796,"ĠSyntax":14797,"gmail":14798,"lations":14799,"separ":14800,"Ġ'</":14801,"ĠMicrosoft":14802,"ensive":14803,"åıĬ":14804,"such":14805,"<$":14806,"hom":14807,"ĠCACHE":14808,"Ġupon":14809,"INTERN":14810,"boring":14811,"rientation":14812,"714":14813,"NEXT":14814,"Tv":14815,"jac":14816,"ĠWait":14817,"undo":14818,"Ġlimited":14819,"Verbose":14820,"QB":14821,"Your":14822,"jb":14823,"STAMP":14824,"shal":14825,"UMENT":14826,"Forward":14827,"tempt":14828,"(:,":14829,"Board":14830,"ĠEditable":14831,"]=\"":14832,"vale":14833,"Ġinverse":14834,"Ġtok":14835,"prep":14836,"à§į":14837,"Ġparticipants":14838,"494":14839,"Ee":14840,"OO":14841,"nable":14842,"around":14843,"Ġzeros":14844,"Ġinstanti":14845,"DW":14846,"cam":14847,"1900":14848,"later":14849,"grpc":14850,"Ġpermit":14851,"velopers":14852,"urope":14853,"467":14854,"Ġ----------------------------------------------------------------------":14855,"ĠTCustom":14856,"Ġthreshold":14857,"ĠAbs":14858,"spi":14859,"Ġxx":14860,"Ġproblems":14861,"logging":14862,"Remain":14863,"!]!":14864,"Cg":14865,"Ġ}.":14866,"vmf":14867,"runs":14868,"Ð½Ðµ":14869,"Quality":14870,"808":14871,"Pad":14872,"cas":14873,"loopy":14874,"Ġ*;":14875,"READY":14876,"Ġsolver":14877,"ĠPARAMETER":14878,"Ġoptimization":14879,"Ġinstr":14880,"comes":14881,"Ġwater":14882,"Ġrsi":14883,"ENU":14884,"2300":14885,"åħ¨":14886,".....?\\":14887,"803":14888,"BAD":14889,"RV":14890,"Tmp":14891,"Ġscr":14892,"Ġintern":14893,"ĠAng":14894,"forge":14895,"////////////":14896,"763":14897,"levels":14898,"BYTES":14899,"ĠÄĳ":14900,"ĠActor":14901,"5555":14902,"ighter":14903,"Adapter":14904,">>>":14905,"iguous":14906,"OpenVDB":14907,"Ġcloud":14908,"ĠAuthors":14909,"413":14910,"IJ":14911,"smp":14912,"progn":14913,"Ġexported":14914,"Ġ160":14915,"(_.":14916,"}$.":14917,"ĠHashMap":14918,"è¨Ń":14919,",âĢĿ</":14920,"TM":14921,"etime":14922,"Ġstroke":14923,"SEC":14924,"683":14925,"ĠThread":14926,"started":14927,"999999":14928,"EMPTY":14929,"ĠStep":14930,"inlinable":14931,"574":14932,"709":14933,"Cla":14934,"equiv":14935,"Ñī":14936,"sta":14937,"uns":14938,"los":14939,"Peers":14940,"ĠRESULT":14941,"Pow":14942,"mathbf":14943,"mutation":14944,"Cached":14945,"Ġscala":14946,"855":14947,"Evaluation":14948,"xz":14949,"Ġcf":14950,"icial":14951,"vey":14952,"nologies":14953,"Devices":14954,"074":14955,"495":14956,"675":14957,"695":14958,"EZ":14959,"Ġchosen":14960,"claren":14961,"Methods":14962,"Drive":14963,"ISON":14964,"Ġ(((":14965,"charset":14966,"Ġbigint":14967,"âĢįâ":14968,"LPort":14969,"NaN":14970,"enant":14971,"strcmp":14972,"ieve":14973,"Ġduplicate":14974,"ĠFunctions":14975,"Archive":14976,"437":14977,"gj":14978,"nested":14979,"Ġsd":14980,"upcase":14981,"Ġxsi":14982,"Ġvarname":14983,"Ġlisted":14984,"Ġtherefore":14985,"ĠNetwork":14986,"sid":14987,"arf":14988,"Ġcert":14989,"Ġmajor":14990,"plor":14991,"/>.":14992,"Threshold":14993,"SLOT":14994,"ĠNSString":14995,"\"$":14996,"Rand":14997,"lite":14998,"appers":14999,"ãģĨ":15000,"IFN":15001,"ĠGeneric":15002,"å°±":15003,"978":15004,"JX":15005,"given":15006,"sender":15007,"Ġnav":15008,"Ġreports":15009,"shp":15010,"MPI":15011,"umed":15012,"CREMENT":15013,"FUNC":15014,"+$":15015,"422":15016,"TG":15017,"mw":15018,"edu":15019,"Ġmetrics":15020,"linenr":15021,"ĠSecond":15022,"AUTO":15023,"$-":15024,"401":15025,"735":15026,"pq":15027,"ĠGithub":15028,"flight":15029,"ĠISO":15030,"à¤¨":15031,"Images":15032,"Ġ**/":15033,"REGION":15034,"Ġ\")\"}],":15035,"cussion":15036,"ĠMemory":15037,"panic":15038,"Arc":15039,"WScript":15040,"Ġinout":15041,"ppp":15042,"fds":15043,"Ġlarger":15044,"PQ":15045,"Ġreload":15046,"oted":15047,"Ġdecoder":15048,"ĠDer":15049,"1264":15050,"Ġrx":15051,"Ġexports":15052,"STY":15053,"Ġonline":15054,"Ġcomes":15055,"Blocked":15056,"supp":15057,"ĠValues":15058,"ç½ĳ":15059,"ĠâĪĢ":15060,"Macro":15061,"Ġbecome":15062,"1474":15063,"creasing":15064,"Ġoverlay":15065,"Ġrace":15066,"æĹı":15067,"<%=":15068,"ĠNUMBER":15069,"ĠEngine":15070,"622":15071,"Amount":15072,"Bridge":15073,"MID":15074,"hz":15075,"Ġmappings":15076,"00003":15077,"ague":15078,"651":15079,"482":15080,"Updates":15081,"ALLEL":15082,"DAY":15083,"tim":15084,"99958":15085,"oved":15086,"Ġlive":15087,"Ġlapp":15088,"Ġdepending":15089,"åĽ¾":15090,"aditional":15091,"ĠXX":15092,"9375":15093,"Ġ[]),":15094,"dimensions":15095,"*************":15096,"Indices":15097,"TODO":15098,"éħį":15099,"Flash":15100,"KX":15101,"gres":15102,"sector":15103,"Ġ184":15104,"counts":15105,"Labels":15106,"Ġparticipant":15107,"ĠHOLDERS":15108,"Ġcro":15109,"Ġfifo":15110,"782":15111,"cedence":15112,"Remux":15113,"BloodNet":15114,"[#,":15115,"fingerprint":15116,"oug":15117,"ãģĭ":15118,"ledge":15119,"Prec":15120,"ĠChecks":15121,"Bj":15122,"bag":15123,"Ġinfix":15124,"Ġ*(":15125,"Ġ10000":15126,"Ġtopo":15127,"Ġ526":15128,"libraries":15129,"ĠÐ·":15130,"âĶĢâĶĢâĶĢâĶĢ":15131,"wave":15132,"KeyName":15133,"COMPILER":15134,"abcabc":15135,"BloodNetAGA":15136,"705":15137,"Ġpayment":15138,"ĠDET":15139,"3298":15140,"minimum":15141,"ĠRegex":15142,"UNKNOWN":15143,"Ġformatted":15144,"Ġretval":15145,"SVN":15146,"ç´°":15147,"Take":15148,"WQ":15149,"ĠRichText":15150,"istency":15151,"matched":15152,"))))))))":15153,"Ġstride":15154,"optimize":15155,"bsd":15156,"1994":15157,"ĠâĪĢ(":15158,"ZN":15159,"Ġexceptions":15160,"Ġmesh":15161,"Ġarrow":15162,"ĠThrow":15163,"IndexOf":15164,"envoy":15165,"Applications":15166,"ÑĢÐ¸":15167,"sex":15168,"Ġsf":15169,"endmacro":15170,"licated":15171,"COMB":15172,"Gradient":15173,"ĠAbly":15174,
[...]
